{
  "version": "1.0",
  "truncation": null,
  "padding": null,
  "added_tokens": [
    {
      "id": 0,
      "content": "<PAD>",
      "single_word": false,
      "lstrip": false,
      "rstrip": false,
      "normalized": false,
      "special": true
    },
    {
      "id": 1,
      "content": "<SOS>",
      "single_word": false,
      "lstrip": false,
      "rstrip": false,
      "normalized": false,
      "special": true
    },
    {
      "id": 2,
      "content": "<EOS>",
      "single_word": false,
      "lstrip": false,
      "rstrip": false,
      "normalized": false,
      "special": true
    },
    {
      "id": 3,
      "content": "<UNK>",
      "single_word": false,
      "lstrip": false,
      "rstrip": false,
      "normalized": false,
      "special": true
    },
    {
      "id": 4,
      "content": "<MASK>",
      "single_word": false,
      "lstrip": false,
      "rstrip": false,
      "normalized": false,
      "special": true
    }
  ],
  "normalizer": {
    "type": "Sequence",
    "normalizers": [
      {
        "type": "NFD"
      },
      {
        "type": "Lowercase"
      },
      {
        "type": "StripAccents"
      }
    ]
  },
  "pre_tokenizer": {
    "type": "ByteLevel",
    "add_prefix_space": false,
    "trim_offsets": true,
    "use_regex": true
  },
  "post_processor": {
    "type": "ByteLevel",
    "add_prefix_space": true,
    "trim_offsets": false,
    "use_regex": true
  },
  "decoder": {
    "type": "ByteLevel",
    "add_prefix_space": true,
    "trim_offsets": true,
    "use_regex": true
  },
  "model": {
    "type": "BPE",
    "dropout": null,
    "unk_token": "<UNK>",
    "continuing_subword_prefix": null,
    "end_of_word_suffix": null,
    "fuse_unk": false,
    "byte_fallback": false,
    "ignore_merges": false,
    "vocab": {
      "<PAD>": 0,
      "<SOS>": 1,
      "<EOS>": 2,
      "<UNK>": 3,
      "<MASK>": 4,
      "!": 5,
      "\"": 6,
      "#": 7,
      "$": 8,
      "%": 9,
      "&": 10,
      "'": 11,
      "(": 12,
      ")": 13,
      "*": 14,
      "+": 15,
      ",": 16,
      "-": 17,
      ".": 18,
      "/": 19,
      "0": 20,
      "1": 21,
      "2": 22,
      "3": 23,
      "4": 24,
      "5": 25,
      "6": 26,
      "7": 27,
      "8": 28,
      "9": 29,
      ":": 30,
      ";": 31,
      "<": 32,
      "=": 33,
      ">": 34,
      "?": 35,
      "@": 36,
      "A": 37,
      "B": 38,
      "C": 39,
      "D": 40,
      "E": 41,
      "F": 42,
      "G": 43,
      "H": 44,
      "I": 45,
      "J": 46,
      "K": 47,
      "L": 48,
      "M": 49,
      "N": 50,
      "O": 51,
      "P": 52,
      "Q": 53,
      "R": 54,
      "S": 55,
      "T": 56,
      "U": 57,
      "V": 58,
      "W": 59,
      "X": 60,
      "Y": 61,
      "Z": 62,
      "[": 63,
      "\\": 64,
      "]": 65,
      "^": 66,
      "_": 67,
      "`": 68,
      "a": 69,
      "b": 70,
      "c": 71,
      "d": 72,
      "e": 73,
      "f": 74,
      "g": 75,
      "h": 76,
      "i": 77,
      "j": 78,
      "k": 79,
      "l": 80,
      "m": 81,
      "n": 82,
      "o": 83,
      "p": 84,
      "q": 85,
      "r": 86,
      "s": 87,
      "t": 88,
      "u": 89,
      "v": 90,
      "w": 91,
      "x": 92,
      "y": 93,
      "z": 94,
      "{": 95,
      "|": 96,
      "}": 97,
      "~": 98,
      "¡": 99,
      "¢": 100,
      "£": 101,
      "¤": 102,
      "¥": 103,
      "¦": 104,
      "§": 105,
      "¨": 106,
      "©": 107,
      "ª": 108,
      "«": 109,
      "¬": 110,
      "®": 111,
      "¯": 112,
      "°": 113,
      "±": 114,
      "²": 115,
      "³": 116,
      "´": 117,
      "µ": 118,
      "¶": 119,
      "·": 120,
      "¸": 121,
      "¹": 122,
      "º": 123,
      "»": 124,
      "¼": 125,
      "½": 126,
      "¾": 127,
      "¿": 128,
      "À": 129,
      "Á": 130,
      "Â": 131,
      "Ã": 132,
      "Ä": 133,
      "Å": 134,
      "Æ": 135,
      "Ç": 136,
      "È": 137,
      "É": 138,
      "Ê": 139,
      "Ë": 140,
      "Ì": 141,
      "Í": 142,
      "Î": 143,
      "Ï": 144,
      "Ð": 145,
      "Ñ": 146,
      "Ò": 147,
      "Ó": 148,
      "Ô": 149,
      "Õ": 150,
      "Ö": 151,
      "×": 152,
      "Ø": 153,
      "Ù": 154,
      "Ú": 155,
      "Û": 156,
      "Ü": 157,
      "Ý": 158,
      "Þ": 159,
      "ß": 160,
      "à": 161,
      "á": 162,
      "â": 163,
      "ã": 164,
      "ä": 165,
      "å": 166,
      "æ": 167,
      "ç": 168,
      "è": 169,
      "é": 170,
      "ê": 171,
      "ë": 172,
      "ì": 173,
      "í": 174,
      "î": 175,
      "ï": 176,
      "ð": 177,
      "ñ": 178,
      "ò": 179,
      "ó": 180,
      "ô": 181,
      "õ": 182,
      "ö": 183,
      "÷": 184,
      "ø": 185,
      "ù": 186,
      "ú": 187,
      "û": 188,
      "ü": 189,
      "ý": 190,
      "þ": 191,
      "ÿ": 192,
      "Ā": 193,
      "ā": 194,
      "Ă": 195,
      "ă": 196,
      "Ą": 197,
      "ą": 198,
      "Ć": 199,
      "ć": 200,
      "Ĉ": 201,
      "ĉ": 202,
      "Ċ": 203,
      "ċ": 204,
      "Č": 205,
      "č": 206,
      "Ď": 207,
      "ď": 208,
      "Đ": 209,
      "đ": 210,
      "Ē": 211,
      "ē": 212,
      "Ĕ": 213,
      "ĕ": 214,
      "Ė": 215,
      "ė": 216,
      "Ę": 217,
      "ę": 218,
      "Ě": 219,
      "ě": 220,
      "Ĝ": 221,
      "ĝ": 222,
      "Ğ": 223,
      "ğ": 224,
      "Ġ": 225,
      "ġ": 226,
      "Ģ": 227,
      "ģ": 228,
      "Ĥ": 229,
      "ĥ": 230,
      "Ħ": 231,
      "ħ": 232,
      "Ĩ": 233,
      "ĩ": 234,
      "Ī": 235,
      "ī": 236,
      "Ĭ": 237,
      "ĭ": 238,
      "Į": 239,
      "į": 240,
      "İ": 241,
      "ı": 242,
      "Ĳ": 243,
      "ĳ": 244,
      "Ĵ": 245,
      "ĵ": 246,
      "Ķ": 247,
      "ķ": 248,
      "ĸ": 249,
      "Ĺ": 250,
      "ĺ": 251,
      "Ļ": 252,
      "ļ": 253,
      "Ľ": 254,
      "ľ": 255,
      "Ŀ": 256,
      "ŀ": 257,
      "Ł": 258,
      "ł": 259,
      "Ń": 260,
      "in": 261,
      "Ġt": 262,
      "at": 263,
      "on": 264,
      "en": 265,
      "Ġa": 266,
      "ing": 267,
      "er": 268,
      "re": 269,
      "Ġs": 270,
      "ion": 271,
      "al": 272,
      "es": 273,
      "or": 274,
      "Ġth": 275,
      "Ġd": 276,
      "Ġc": 277,
      "Ġp": 278,
      "an": 279,
      "ro": 280,
      "Ġm": 281,
      "it": 282,
      "le": 283,
      "ar": 284,
      "Ġin": 285,
      "Ġf": 286,
      "ent": 287,
      "ct": 288,
      "is": 289,
      "ra": 290,
      "Ġn": 291,
      "ation": 292,
      "et": 293,
      "Ġo": 294,
      "ut": 295,
      "Ġthe": 296,
      "Ġb": 297,
      "ce": 298,
      "Ġl": 299,
      "Ġw": 300,
      "Ġan": 301,
      "Ġe": 302,
      "Ġg": 303,
      "Ġto": 304,
      "Ġre": 305,
      "ic": 306,
      "Ġand": 307,
      "mp": 308,
      "ur": 309,
      "ed": 310,
      "ch": 311,
      "el": 312,
      "di": 313,
      "Ġof": 314,
      "iz": 315,
      "Ġpro": 316,
      "Ġco": 317,
      "ig": 318,
      "ain": 319,
      "as": 320,
      "iv": 321,
      "Ġex": 322,
      "Ġle": 323,
      "un": 324,
      "arn": 325,
      "Ġcon": 326,
      "Ġlearn": 327,
      "Ġh": 328,
      "Ġgra": 329,
      "ab": 330,
      "Ġst": 331,
      "ers": 332,
      "ect": 333,
      "il": 334,
      "pl": 335,
      "Ġme": 336,
      "etw": 337,
      "im": 338,
      "dient": 339,
      "orm": 340,
      "Ġde": 341,
      "ure": 342,
      "Ġgradient": 343,
      "Ġen": 344,
      "Ġlearning": 345,
      "ial": 346,
      "ul": 347,
      "ag": 348,
      "ence": 349,
      "us": 350,
      "Ġis": 351,
      "Ġcomp": 352,
      "ork": 353,
      "etwork": 354,
      "Ġne": 355,
      "Ġwh": 356,
      "Ġthis": 357,
      "ction": 358,
      "ity": 359,
      "Ġv": 360,
      "Ġnetwork": 361,
      "ly": 362,
      "Ġfor": 363,
      "rain": 364,
      "od": 365,
      "if": 366,
      "Ġexpl": 367,
      "Ġby": 368,
      "ver": 369,
      "Ġint": 370,
      "qu": 371,
      "ow": 372,
      "th": 373,
      "ith": 374,
      "ization": 375,
      "ces": 376,
      "put": 377,
      "Ġr": 378,
      "ine": 379,
      "Ġneur": 380,
      "id": 381,
      "Ġpre": 382,
      "raining": 383,
      "ay": 384,
      "Ġal": 385,
      "igh": 386,
      "ang": 387,
      "ates": 388,
      "ans": 389,
      "Ġtraining": 390,
      "pt": 391,
      "um": 392,
      "ate": 393,
      "st": 394,
      "ive": 395,
      "Ġma": 396,
      "ol": 397,
      "ss": 398,
      "Ġad": 399,
      "Ġexplain": 400,
      "ri": 401,
      "Ġdat": 402,
      "form": 403,
      "Ġor": 404,
      "Ġenab": 405,
      "Ġdet": 406,
      "Ġthat": 407,
      "Ġpar": 408,
      "am": 409,
      "Ġfun": 410,
      "ions": 411,
      "Ġdata": 412,
      "ep": 413,
      "Ġun": 414,
      "Ġenabl": 415,
      "Ġfunction": 416,
      "rop": 417,
      "ific": 418,
      "ell": 419,
      "mm": 420,
      "Ġlo": 421,
      "ist": 422,
      "Ġinput": 423,
      "Ġgradients": 424,
      "ts": 425,
      "ms": 426,
      "Ġar": 427,
      "Ġlay": 428,
      "Ġnetworks": 429,
      "Ġmod": 430,
      "Ġsy": 431,
      "pp": 432,
      "ff": 433,
      "uag": 434,
      "anguag": 435,
      "Ġcomput": 436,
      "eigh": 437,
      "Ġlanguag": 438,
      "Ġwith": 439,
      "Ġmodel": 440,
      "Ġus": 441,
      "ail": 442,
      "rom": 443,
      "Ġfrom": 444,
      "rou": 445,
      "ance": 446,
      "Ġneural": 447,
      "Ġdetail": 448,
      "Ġ(": 449,
      "ature": 450,
      "rib": 451,
      "de": 452,
      "ical": 453,
      "ility": 454,
      "Ġweigh": 455,
      "out": 456,
      "Ġac": 457,
      "imp": 458,
      "gh": 459,
      "Ġit": 460,
      "amet": 461,
      "nect": 462,
      "Ġcont": 463,
      "Ġthrou": 464,
      "Ġthrough": 465,
      "Ġdec": 466,
      "ru": 467,
      "ating": 468,
      "ore": 469,
      "Ġse": 470,
      "Ġparamet": 471,
      "Ġadd": 472,
      "ile": 473,
      "lu": 474,
      "Ġwhile": 475,
      "cess": 476,
      "Ġsp": 477,
      "cept": 478,
      "ional": 479,
      "ener": 480,
      "Ġenables": 481,
      "Ġlanguage": 482,
      "ire": 483,
      "esc": 484,
      "ability": 485,
      "Ġprocess": 486,
      "alization": 487,
      "atch": 488,
      "ellig": 489,
      "Ġprev": 490,
      "du": 491,
      "and": 492,
      "Ġgener": 493,
      "elligence": 494,
      "Ġmeans": 495,
      "os": 496,
      "Ġprob": 497,
      "are": 498,
      "Ġact": 499,
      "ari": 500,
      "Ġintelligence": 501,
      "wh": 502,
      "Ġall": 503,
      "Ġte": 504,
      "erm": 505,
      "ve": 506,
      "Ġon": 507,
      "ax": 508,
      "co": 509,
      "what": 510,
      "gor": 511,
      "cal": 512,
      "Ġmach": 513,
      "Ġnorm": 514,
      "att": 515,
      "up": 516,
      "ving": 517,
      "ations": 518,
      "Ġdist": 519,
      "Ġprevent": 520,
      "gorith": 521,
      "Ġpredi": 522,
      "Ġover": 523,
      "Ġexp": 524,
      "Ġalgorith": 525,
      "om": 526,
      "pre": 527,
      "Ġneuron": 528,
      "ip": 529,
      "Ġstep": 530,
      "Ġlayers": 531,
      "itial": 532,
      "Ġinitial": 533,
      "osit": 534,
      "Ġinter": 535,
      "the": 536,
      "Ġab": 537,
      "ex": 538,
      "arg": 539,
      "em": 540,
      "Ġmean": 541,
      "fer": 542,
      "Ġinc": 543,
      "Ġbe": 544,
      "Ġfe": 545,
      "Ġper": 546,
      "lex": 547,
      "Ġloss": 548,
      "tain": 549,
      "Ġinputs": 550,
      "Ġtr": 551,
      "gra": 552,
      "ribut": 553,
      "Ġdistribut": 554,
      "ant": 555,
      "Ġactiv": 556,
      "ential": 557,
      "Ġtrans": 558,
      "Ġconnect": 559,
      "Ġcan": 560,
      "Ġwhen": 561,
      "tific": 562,
      "tificial": 563,
      "cur": 564,
      "anis": 565,
      "Ġmain": 566,
      "ns": 567,
      "Ġconcept": 568,
      "Ġmaintain": 569,
      "ures": 570,
      "Ġout": 571,
      "Ġres": 572,
      "Ġha": 573,
      "gence": 574,
      "ross": 575,
      "Ġconver": 576,
      "Ġare": 577,
      "Ġapp": 578,
      "ens": 579,
      "ruct": 580,
      "Ġpreventing": 581,
      "Ġbi": 582,
      "Ġeff": 583,
      "Ġtemp": 584,
      "Ġvari": 585,
      "Ġbatch": 586,
      "ult": 587,
      "Ġlarg": 588,
      "Ġartificial": 589,
      "een": 590,
      "Ġimp": 591,
      "Ġsiz": 592,
      "Ġweights": 593,
      "Ġabout": 594,
      "Ġmachine": 595,
      "ass": 596,
      "Ġhigh": 597,
      "ach": 598,
      "Ġcomplex": 599,
      "ting": 600,
      "Ġreg": 601,
      "Ġk": 602,
      "Ġactivation": 603,
      "Ġsu": 604,
      "Ġcl": 605,
      "ies": 606,
      "Ġoutput": 607,
      "nt": 608,
      "ntax": 609,
      "Ġdesc": 610,
      "ler": 611,
      "ines": 612,
      "Ġup": 613,
      "Ġbetw": 614,
      "Ġupd": 615,
      "Ġbetween": 616,
      "==": 617,
      "Ġsyst": 618,
      "ders": 619,
      "tand": 620,
      "derstand": 621,
      "uring": 622,
      "Ġsyntax": 623,
      "Ġunderstand": 624,
      "Ġcomputation": 625,
      "Ġch": 626,
      "lem": 627,
      "Ġexpon": 628,
      "ular": 629,
      "Ġconvergence": 630,
      "xim": 631,
      "Ġneurons": 632,
      "Ġduring": 633,
      "Ġgeneralization": 634,
      "Ġconnections": 635,
      "Ġparameters": 636,
      "con": 637,
      "Ġsequ": 638,
      "ative": 639,
      "Ġhow": 640,
      "Ġusing": 641,
      "Ġhave": 642,
      "erature": 643,
      "Ġtemperature": 644,
      "Ġsig": 645,
      "ast": 646,
      "Ġlayer": 647,
      "ient": 648,
      "yth": 649,
      "Ġdecay": 650,
      "Ġdire": 651,
      "Ġtransform": 652,
      "ython": 653,
      "ous": 654,
      "vid": 655,
      "ne": 656,
      "Ġsm": 657,
      "low": 658,
      "ck": 659,
      "Ġsh": 660,
      "mmar": 661,
      "Ġprovid": 662,
      "Ġappro": 663,
      "Ġcre": 664,
      "Ġmult": 665,
      "Ġz": 666,
      "ask": 667,
      "den": 668,
      "Ġno": 669,
      "Ġrelu": 670,
      "Ġdistributions": 671,
      "Ġfeature": 672,
      "Ġalgorithm": 673,
      "Ġnois": 674,
      "Ġdo": 675,
      "Ġdif": 676,
      "Ġexponential": 677,
      "Ġgrammar": 678,
      "Ġimpro": 679,
      "ically": 680,
      "aliz": 681,
      "Ġweight": 682,
      "Ġpython": 683,
      "Ġdiffer": 684,
      "Ġposit": 685,
      "Ġ=": 686,
      "Ġenabling": 687,
      "Ġperform": 688,
      "yp": 689,
      "Ġq": 690,
      "Ġinform": 691,
      "Ġinformation": 692,
      "ir": 693,
      "Ġstruct": 694,
      "Ġas": 695,
      "ctions": 696,
      "Ġclass": 697,
      "Ġzer": 698,
      "entrop": 699,
      "entropy": 700,
      "Ġsimp": 701,
      "ma": 702,
      "sent": 703,
      "Ġnoise": 704,
      "ification": 705,
      "Ġrate": 706,
      "ord": 707,
      "Ġdeep": 708,
      "ared": 709,
      "Ġinclu": 710,
      "Ġregular": 711,
      "cing": 712,
      "ke": 713,
      "Ġprogra": 714,
      "Ġeffect": 715,
      "olut": 716,
      "Ġdep": 717,
      "Ġprocessing": 718,
      "Ġprobability": 719,
      "Ġtyp": 720,
      "icient": 721,
      "Ġdescent": 722,
      "Ġeach": 723,
      "Ġmodels": 724,
      "ura": 725,
      "ls": 726,
      "Ġmeas": 727,
      "Ġsmal": 728,
      "reas": 729,
      "Ġbal": 730,
      "anish": 731,
      "itect": 732,
      "itional": 733,
      "chitect": 734,
      "Ġvariance": 735,
      "mming": 736,
      "Ġarchitect": 737,
      "ding": 738,
      "ime": 739,
      "Ġfur": 740,
      "therm": 741,
      "Ġits": 742,
      "Ġfurtherm": 743,
      "Ġfurthermore": 744,
      "Ġadditional": 745,
      "Ġadditionally": 746,
      "Ġclassification": 747,
      "Ġdev": 748,
      "Ġsqu": 749,
      "ural": 750,
      "iple": 751,
      "Ġprogramming": 752,
      "ors": 753,
      "Ġpredict": 754,
      "Ġtime": 755,
      "Ġmultiple": 756,
      "ack": 757,
      "ccur": 758,
      "Ġoccur": 759,
      "Ġbias": 760,
      "Ġcomm": 761,
      "Ġli": 762,
      "Ġzero": 763,
      "Ġsk": 764,
      "Ġnormaliz": 765,
      "atter": 766,
      "Ġpatter": 767,
      "ou": 768,
      "Ġimproving": 769,
      "Ġpatterns": 770,
      "elp": 771,
      "Ġapproxim": 772,
      "ual": 773,
      "Ġdis": 774,
      "Ġspe": 775,
      "Ġlocal": 776,
      "Ġlike": 777,
      "prop": 778,
      "est": 779,
      "Ġmeasures": 780,
      "Ġvect": 781,
      "Ġuses": 782,
      "ard": 783,
      "Ġval": 784,
      "Ġopt": 785,
      "Ġoptim": 786,
      "amp": 787,
      "now": 788,
      "ule": 789,
      "Ġat": 790,
      "Ġnormalization": 791,
      "Ġknow": 792,
      "ages": 793,
      "coura": 794,
      "Ġdoes": 795,
      "courag": 796,
      "Ġeffective": 797,
      "per": 798,
      "ication": 799,
      "Ġinitialization": 800,
      "act": 801,
      "Ġy": 802,
      "present": 803,
      "pping": 804,
      "Ġrepresent": 805,
      "ics": 806,
      "duces": 807,
      "ere": 808,
      "Ġsize": 809,
      "ention": 810,
      "Ġtok": 811,
      "attention": 812,
      "Ġmat": 813,
      "led": 814,
      "Ġwhere": 815,
      "ext": 816,
      "Ġupdates": 817,
      "ribe": 818,
      "ems": 819,
      "mb": 820,
      "erv": 821,
      "Ġlarge": 822,
      "ward": 823,
      "Ġmin": 824,
      "Ġsystems": 825,
      "uning": 826,
      "Ġens": 827,
      "umul": 828,
      "Ġacc": 829,
      "Ġtransformers": 830,
      "Ġproblem": 831,
      "Ġallow": 832,
      "ropout": 833,
      "Ġminim": 834,
      "Ġperformance": 835,
      "Ġref": 836,
      "ter": 837,
      "nected": 838,
      "Ġintercon": 839,
      "Ġinterconnected": 840,
      "Ġmit": 841,
      "Ġflow": 842,
      "Ġmitig": 843,
      ").": 844,
      "Ġsch": 845,
      "Ġsched": 846,
      "Ġca": 847,
      "Ġfi": 848,
      "Ġvanish": 849,
      "ppl": 850,
      "Ġfunctions": 851,
      "Ġappl": 852,
      "Ġexce": 853,
      "Ġyou": 854,
      "Ġvanishing": 855,
      "Ġaver": 856,
      "emb": 857,
      "ences": 858,
      "lev": 859,
      "ice": 860,
      "Ġarchitecture": 861,
      "Ġstability": 862,
      "Ġdepen": 863,
      "Ġim": 864,
      "Ġsim": 865,
      "Ġproviding": 866,
      "ets": 867,
      "Ġtask": 868,
      "Ġparameter": 869,
      "arity": 870,
      "ier": 871,
      "ot": 872,
      "Ġsquared": 873,
      "fit": 874,
      "oment": 875,
      "Ġscal": 876,
      "aling": 877,
      "Ġer": 878,
      "Ġerr": 879,
      "Ġdef": 880,
      "Ġrates": 881,
      "Ġregularization": 882,
      "oding": 883,
      "eld": 884,
      "rue": 885,
      "ue": 886,
      "idden": 887,
      "Ġhidden": 888,
      "alle": 889,
      "Ġstr": 890,
      "Ġparalle": 891,
      "Ġparallel": 892,
      "Ġfield": 893,
      "Ġspec": 894,
      "Ġaccumul": 895,
      "her": 896,
      "Ġexponentially": 897,
      "Ġencourag": 898,
      "Ġpredictions": 899,
      "og": 900,
      "Ġspa": 901,
      "Ġlarger": 902,
      "gative": 903,
      "Ġnegative": 904,
      "Ġ*": 905,
      "quire": 906,
      "Ġdeterm": 907,
      "====": 908,
      "eri": 909,
      "Ġmoment": 910,
      "olog": 911,
      "Ġback": 912,
      "Ġinto": 913,
      "Ġ1": 914,
      "arch": 915,
      "Ġsub": 916,
      "can": 917,
      "of": 918,
      "tell": 919,
      "Ġalgorithms": 920,
      "plain": 921,
      "explain": 922,
      "def": 923,
      "fitting": 924,
      "))": 925,
      "agation": 926,
      "Ġmaintaining": 927,
      "propagation": 928,
      "Ġmech": 929,
      "Ġfeatures": 930,
      "desc": 931,
      "help": 932,
      "Ġwant": 933,
      "Ġmeaning": 934,
      "define": 935,
      "describe": 936,
      "ject": 937,
      "Ġinst": 938,
      "Ġform": 939,
      "Ġstructure": 940,
      "Ġra": 941,
      "Ġsizes": 942,
      "Ġexceed": 943,
      "Ġoverfitting": 944,
      "Ġtypically": 945,
      "Ġnum": 946,
      "Ġsigma": 947,
      "Ġbackpropagation": 948,
      "),": 949,
      "Ġacross": 950,
      "Ġdisc": 951,
      "Ġmechanis": 952,
      "Ġanne": 953,
      "Ġcontin": 954,
      "Ġannealing": 955,
      "av": 956,
      "Ġdropout": 957,
      "Ġcomputer": 958,
      "ents": 959,
      "Ġrecept": 960,
      "Ġreceptive": 961,
      "ak": 962,
      "Ġmechanisms": 963,
      "Ġhum": 964,
      "Ġrefers": 965,
      "tuning": 966,
      "Ġfine": 967,
      "osition": 968,
      "uous": 969,
      "Ġcontinuous": 970,
      "nit": 971,
      "op": 972,
      "Ġrel": 973,
      "Ġlanguages": 974,
      "volut": 975,
      "ong": 976,
      "Ġdifference": 977,
      "Ġbalan": 978,
      "ange": 979,
      "rix": 980,
      "Ġmatrix": 981,
      "Ġmomentum": 982,
      "Ġrand": 983,
      "Ġrule": 984,
      "Ġensemb": 985,
      "Ġrandom": 986,
      "Ġensemble": 987,
      "Ġcross": 988,
      "ules": 989,
      "Ġminimiz": 990,
      "Ġimages": 991,
      "pret": 992,
      "Ġinterpret": 993,
      "Ġmitigating": 994,
      "Ġhuman": 995,
      "celer": 996,
      "ased": 997,
      "Ġacceler": 998,
      "Ġaccelerating": 999,
      "Ġsmall": 1000,
      "ge": 1001,
      "Ġcomputational": 1002,
      "Ġproper": 1003,
      "ery": 1004,
      "orre": 1005,
      "ely": 1006,
      "line": 1007,
      "Ġrecur": 1008,
      "ledge": 1009,
      "vari": 1010,
      "Ġnon": 1011,
      "linearity": 1012,
      "ric": 1013,
      "rent": 1014,
      "Ġdecreas": 1015,
      "atist": 1016,
      "Ġstatist": 1017,
      "Ġknowledge": 1018,
      "king": 1019,
      "idual": 1020,
      "lo": 1021,
      "Ġsof": 1022,
      "Ġresp": 1023,
      "Ġsoft": 1024,
      "Ġresidual": 1025,
      "Ġsystem": 1026,
      "max": 1027,
      "Ġsum": 1028,
      "Ġstatistics": 1029,
      "Ġsoftmax": 1030,
      "des": 1031,
      "etter": 1032,
      "Ġbetter": 1033,
      "Ġcomposition": 1034,
      "Ġcomplexity": 1035,
      "Ġcaus": 1036,
      "iven": 1037,
      "mo": 1038,
      "Ġcontain": 1039,
      "Ġdifferent": 1040,
      "ish": 1041,
      "fficient": 1042,
      "anges": 1043,
      "Ġinterpreted": 1044,
      "ativ": 1045,
      "Ġrelev": 1046,
      "Ġattention": 1047,
      "lect": 1048,
      "Ġnumb": 1049,
      "Ġcontro": 1050,
      "atural": 1051,
      "eriv": 1052,
      "Ġderiv": 1053,
      "Ġbut": 1054,
      "Ġcode": 1055,
      "Ġexperi": 1056,
      "Ġexperience": 1057,
      "Ġcommon": 1058,
      "Ġdefines": 1059,
      "Ġcontrols": 1060,
      "Ġmag": 1061,
      "nitu": 1062,
      "Ġmagnitu": 1063,
      "Ġada": 1064,
      "Ġadapt": 1065,
      "able": 1066,
      "lements": 1067,
      "Ġsequences": 1068,
      "ants": 1069,
      "Ġshare": 1070,
      "ress": 1071,
      "Ġvectors": 1072,
      "ese": 1073,
      "Ġthese": 1074,
      "Ġmachines": 1075,
      "Ġpen": 1076,
      "Ġmap": 1077,
      "Ġspace": 1078,
      "oving": 1079,
      "Ġmoving": 1080,
      "Ġvi": 1081,
      "Ġexceeding": 1082,
      "orrect": 1083,
      "les": 1084,
      "Ġtrue": 1085,
      "Ġvariants": 1086,
      "Ġsimple": 1087,
      "Ġtasks": 1088,
      "ision": 1089,
      "Ġnatural": 1090,
      "ced": 1091,
      "Ġtokens": 1092,
      "Ġrecurrent": 1093,
      "me": 1094,
      "alt": 1095,
      "Ġword": 1096,
      "Ġefficient": 1097,
      "Ġsimul": 1098,
      "Ġpenalt": 1099,
      "Ġqu": 1100,
      "edding": 1101,
      "olving": 1102,
      "Ġaverag": 1103,
      "Ġerror": 1104,
      "Ġemb": 1105,
      "Ġcons": 1106,
      "Ġlog": 1107,
      "Ġnormalizing": 1108,
      "Ġembedding": 1109,
      "denc": 1110,
      "Ġdependenc": 1111,
      "ateg": 1112,
      "Ġadds": 1113,
      "Ġstrateg": 1114,
      "pid": 1115,
      "Ġfast": 1116,
      "Ġrapid": 1117,
      "Ġwords": 1118,
      "Ġnerv": 1119,
      "ills": 1120,
      "Ġskills": 1121,
      "amples": 1122,
      "Ġpenalty": 1123,
      "Ġstrategies": 1124,
      "Ġtheore": 1125,
      "Ġdirect": 1126,
      "Ġskip": 1127,
      "Ġthem": 1128,
      "Ġunit": 1129,
      "Ġuse": 1130,
      "Ġoptimal": 1131,
      "Ġdy": 1132,
      "Ġoccurs": 1133,
      "Ġnormalizes": 1134,
      "Ġfin": 1135,
      "Ġapply": 1136,
      "Ġrelevant": 1137,
      "Ġredu": 1138,
      "Ġrepresentations": 1139,
      "nns": 1140,
      "Ġj": 1141,
      "Ġprodu": 1142,
      "99": 1143,
      "aco": 1144,
      "bi": 1145,
      "Ġ0": 1146,
      "Ġinclude": 1147,
      "Ġjaco": 1148,
      "Ġjacobi": 1149,
      "quir": 1150,
      "quiring": 1151,
      "Ġrequire": 1152,
      "Ġext": 1153,
      "Ġrandomly": 1154,
      "Ġmask": 1155,
      "Ġhier": 1156,
      "Ġcontext": 1157,
      "Ġbiolog": 1158,
      "archical": 1159,
      "Ġhierarchical": 1160,
      "ons": 1161,
      "Ġstates": 1162,
      "old": 1163,
      "Ġbiological": 1164,
      "volutional": 1165,
      "Ġincreas": 1166,
      "Ġprovides": 1167,
      "ust": 1168,
      "Ġ-": 1169,
      "Ġsolut": 1170,
      "Ġdevice": 1171,
      "Ġsolutions": 1172,
      "unication": 1173,
      "Ġenc": 1174,
      "Ġrules": 1175,
      "Ġcommunication": 1176,
      "mant": 1177,
      "Ġnod": 1178,
      "Ġwhat": 1179,
      "Ġarr": 1180,
      "Ġsemant": 1181,
      "Ġsmaller": 1182,
      "Ġreducing": 1183,
      "Ġro": 1184,
      "ized": 1185,
      "Ġeng": 1186,
      "Ġnodes": 1187,
      "oring": 1188,
      "Ġengine": 1189,
      "Ġvector": 1190,
      "lected": 1191,
      "00": 1192,
      "oth": 1193,
      "Ġhigher": 1194,
      "ess": 1195,
      "Ġgo": 1196,
      "ich": 1197,
      "izing": 1198,
      "Ġsequence": 1199,
      "batch": 1200,
      "text": 1201,
      "ib": 1202,
      "ated": 1203,
      "ingle": 1204,
      "Ġset": 1205,
      "Ġextre": 1206,
      "Ġsingle": 1207,
      "Ġchain": 1208,
      "sh": 1209,
      "Ġlow": 1210,
      "Ġincludes": 1211,
      "Ġsto": 1212,
      "Ġdistribution": 1213,
      "Ġcreates": 1214,
      "Ġbalance": 1215,
      "Ġentropy": 1216,
      "Ġspecific": 1217,
      "ad": 1218,
      "Ġsat": 1219,
      "izer": 1220,
      "abil": 1221,
      "astic": 1222,
      "Ġdirection": 1223,
      "Ġminimizes": 1224,
      "uid": 1225,
      "uration": 1226,
      "idation": 1227,
      "Ġpredicted": 1228,
      "bject": 1229,
      "Ġguid": 1230,
      "Ġencourages": 1231,
      "Ġmagnitude": 1232,
      "Ġsaturation": 1233,
      "Ġobject": 1234,
      "Ġpositions": 1235,
      "Ġaff": 1236,
      "Ġman": 1237,
      "imin": 1238,
      "Ġsimpler": 1239,
      "Ġaffect": 1240,
      "Ġdirections": 1241,
      "order": 1242,
      "Ġnew": 1243,
      "Ġmodeling": 1244,
      "Ġconsist": 1245,
      "Ġgrou": 1246,
      "Ġproduces": 1247,
      "Ġweighted": 1248,
      "Ġscaled": 1249,
      "Ġgroup": 1250,
      "Ġoptimization": 1251,
      "Ġexploding": 1252,
      "Ġtype": 1253,
      "Ġtoken": 1254,
      "Ġreal": 1255,
      "Ġsequential": 1256,
      "Ġmapping": 1257,
      "Ġcreate": 1258,
      "Ġmappings": 1259,
      "der": 1260,
      "dation": 1261,
      "ful": 1262,
      "so": 1263,
      "Ġev": 1264,
      "Ġorder": 1265,
      "for": 1266,
      "Ġconvolutional": 1267,
      "Ġmaintains": 1268,
      "Ġmany": 1269,
      "Ġadj": 1270,
      "ues": 1271,
      "xt": 1272,
      "ort": 1273,
      "eth": 1274,
      "requ": 1275,
      "Ġstate": 1276,
      "Ġadam": 1277,
      "dy": 1278,
      "elop": 1279,
      "ivity": 1280,
      "Ġdevelop": 1281,
      "Ġwell": 1282,
      "Ġcomputing": 1283,
      "network": 1284,
      "ator": 1285,
      "Ġsubs": 1286,
      "nal": 1287,
      "elf": 1288,
      "Ġintro": 1289,
      "Ġfeed": 1290,
      "Ġallowing": 1291,
      "mens": 1292,
      "Ġalso": 1293,
      "riate": 1294,
      "ropriate": 1295,
      "gradient": 1296,
      "Ġdecaying": 1297,
      "Ġany": 1298,
      "Ġappropriate": 1299,
      "Ġpe": 1300,
      "bal": 1301,
      "val": 1302,
      "Ġtest": 1303,
      "Ġmon": 1304,
      "Ġfields": 1305,
      "Ġthan": 1306,
      "Ġmeth": 1307,
      "Ġlab": 1308,
      "Ġmethod": 1309,
      "Ġself": 1310,
      "ivers": 1311,
      "Ġinternal": 1312,
      "Ġvalue": 1313,
      "asets": 1314,
      "Ġiss": 1315,
      "========": 1316,
      "Ġdependencies": 1317,
      "##": 1318,
      "oration": 1319,
      "its": 1320,
      "Ġdeeper": 1321,
      "Ġspecial": 1322,
      "Ġnumber": 1323,
      "Ġtheorem": 1324,
      "forward": 1325,
      "Ġfeedforward": 1326,
      "oit": 1327,
      "ite": 1328,
      "Ġfav": 1329,
      "Ġgiven": 1330,
      "Ġreduces": 1331,
      "chastic": 1332,
      "dimens": 1333,
      "Ġcovari": 1334,
      "uling": 1335,
      "Ġcompact": 1336,
      "ift": 1337,
      "iform": 1338,
      "Ġexploration": 1339,
      "Ġexploit": 1340,
      "Ġunivers": 1341,
      "Ġuniform": 1342,
      "Ġacts": 1343,
      "Ġsufficient": 1344,
      "Ġshift": 1345,
      "Ġregularizer": 1346,
      "Ġapproximation": 1347,
      "Ġapproximate": 1348,
      "Ġscheduling": 1349,
      "Ġencouraging": 1350,
      "aked": 1351,
      "Ġbalances": 1352,
      "Ġrespect": 1353,
      "Ġcontaining": 1354,
      "Ġfinite": 1355,
      "Ġsubsets": 1356,
      "Ġpeaked": 1357,
      "Ġfavoring": 1358,
      "dimensional": 1359,
      "Ġcovariate": 1360,
      "Ġexploitation": 1361,
      "Ġuniversal": 1362,
      "Ġoper": 1363,
      "Ġglo": 1364,
      "Ġcos": 1365,
      "Ġvalidation": 1366,
      "Ġoperations": 1367,
      "Ġfol": 1368,
      "Ġpart": 1369,
      "Ġregion": 1370,
      "Ġchanges": 1371,
      "lowed": 1372,
      "Ġschedule": 1373,
      "Ġdetermines": 1374,
      "atives": 1375,
      "Ġderivatives": 1376,
      "Ġaffecting": 1377,
      "Ġglobal": 1378,
      "Ġcosine": 1379,
      "Ġfollowed": 1380,
      "oice": 1381,
      "Ġrat": 1382,
      "Ġmaking": 1383,
      "Ġtext": 1384,
      "Ġpartial": 1385,
      "Ġcompared": 1386,
      "Ġchoice": 1387,
      "Ġvia": 1388,
      "Ġgre": 1389,
      "Ġdatasets": 1390,
      "Ġpositive": 1391,
      "get": 1392,
      "Ġprop": 1393,
      "Ġleak": 1394,
      "Ġrnns": 1395,
      "ppens": 1396,
      "Ġparametric": 1397,
      "Ġhappens": 1398,
      "Ġunderstanding": 1399,
      "Ġshar": 1400,
      "Ġbiases": 1401,
      "Ġdying": 1402,
      "Ġissue": 1403,
      "Ġleaky": 1404,
      "Ġcontra": 1405,
      "ired": 1406,
      "networks": 1407,
      "hip": 1408,
      "rection": 1409,
      "direction": 1410,
      "olve": 1411,
      "ationship": 1412,
      "Ġpredicting": 1413,
      "Ġapproximates": 1414,
      "Ġaverages": 1415,
      "Ġaveraging": 1416,
      "Ġmasking": 1417,
      "Ġcontrast": 1418,
      "directional": 1419,
      "dat": 1420,
      "Ġmore": 1421,
      "Ġrelationship": 1422,
      "ipping": 1423,
      "Ġclipping": 1424,
      "'s": 1425,
      "Ġind": 1426,
      "Ġdecreasing": 1427,
      "te": 1428,
      "Ġlearned": 1429,
      "oder": 1430,
      "Ġke": 1431,
      "Ġupdate": 1432,
      "Ġsigmo": 1433,
      "Ġdepend": 1434,
      "Ġsigmoid": 1435,
      "rete": 1436,
      "Ġdiscrete": 1437,
      "Ġkey": 1438,
      "sp": 1439,
      "Ġid": 1440,
      "Ġsolving": 1441,
      "ory": 1442,
      "Ġconst": 1443,
      "Ġvery": 1444,
      "Ġbalancing": 1445,
      "Ġquery": 1446,
      "Ġdirectly": 1447,
      "Ġident": 1448,
      "Ġterm": 1449,
      "Ġsc": 1450,
      "Ġadding": 1451,
      "training": 1452,
      "Ġhelp": 1453,
      "back": 1454,
      "ys": 1455,
      "oral": 1456,
      "ath": 1457,
      "Ġimplements": 1458,
      "Ġapproach": 1459,
      "Ġincreased": 1460,
      "ortional": 1461,
      "Ġproportional": 1462,
      "Ġpath": 1463,
      "ised": 1464,
      "Ġlong": 1465,
      "uperv": 1466,
      "upervised": 1467,
      "Ġwhich": 1468,
      "ai": 1469,
      "eled": 1470,
      "Ġinsp": 1471,
      "Ġinspired": 1472,
      "Ġequ": 1473,
      "rimin": 1474,
      "Ġbrain": 1475,
      "Ġdiscrimin": 1476,
      "gan": 1477,
      "Ġph": 1478,
      "Ġhe": 1479,
      "Ġprevents": 1480,
      "Ġpositional": 1481,
      "Ġpredicts": 1482,
      "supervised": 1483,
      "Ġsent": 1484,
      "Ġenable": 1485,
      "Ġtemporal": 1486,
      "by": 1487,
      "Ġanal": 1488,
      "Ġdepth": 1489,
      "requent": 1490,
      "Ġidentity": 1491,
      "Ġpaths": 1492,
      "gress": 1493,
      "udy": 1494,
      "Ġstudy": 1495,
      "Ġorgan": 1496,
      "msprop": 1497,
      "herent": 1498,
      "Ġpass": 1499,
      "Ġproced": 1500,
      "Ġlearns": 1501,
      "ill": 1502,
      "Ġcomputers": 1503,
      "Ġerrors": 1504,
      "Ġtra": 1505,
      "Ġcol": 1506,
      "Ġexamples": 1507,
      "Ġtransformer": 1508,
      "off": 1509,
      "Ġdegra": 1510,
      "deoff": 1511,
      "variance": 1512,
      "ysis": 1513,
      "Ġanalysis": 1514,
      "Ġtradeoff": 1515,
      "Ġdegradation": 1516,
      "ious": 1517,
      "Ġcorrect": 1518,
      "uter": 1519,
      "mputer": 1520,
      "Ġprevious": 1521,
      "computer": 1522,
      "Ġvalues": 1523,
      "Ġcost": 1524,
      "age": 1525,
      "Ġknown": 1526,
      "Ġthen": 1527,
      "Ġupdating": 1528,
      "Ġdiv": 1529,
      "Ġcauses": 1530,
      "mory": 1531,
      "atial": 1532,
      "ings": 1533,
      "ergence": 1534,
      "Ġread": 1535,
      "Ġmemory": 1536,
      "step": 1537,
      "Ġspatial": 1538,
      "Ġactivations": 1539,
      "level": 1540,
      "Ġconstrain": 1541,
      "Ġsentences": 1542,
      "Ġdivergence": 1543,
      "Ġreadability": 1544,
      "fore": 1545,
      "oning": 1546,
      "arly": 1547,
      "Ġinject": 1548,
      "Ġforward": 1549,
      "ference": 1550,
      "Ġincorrect": 1551,
      "Ġbefore": 1552,
      "Ġstructures": 1553,
      "Ġaccumulation": 1554,
      "Ġaccumulating": 1555,
      "Ġsimulation": 1556,
      "Ġsimulates": 1557,
      "backward": 1558,
      "Ġpasses": 1559,
      "Ġconstraints": 1560,
      "ni": 1561,
      "ph": 1562,
      "rad": 1563,
      "ras": 1564,
      "agrad": 1565,
      "Ġtech": 1566,
      "Ġchange": 1567,
      "Ġbrains": 1568,
      "erg": 1569,
      "Ġreas": 1570,
      "Ġdecision": 1571,
      "Ġkl": 1572,
      "cond": 1573,
      "Ġrespons": 1574,
      "gressive": 1575,
      "niqu": 1576,
      "Ġtechniqu": 1577,
      "Ġreasoning": 1578,
      "Ġearly": 1579,
      "Ġacquiring": 1580,
      "ement": 1581,
      "making": 1582,
      "Ġapplication": 1583,
      "ology": 1584,
      "ie": 1585,
      "ning": 1586,
      "Ġach": 1587,
      "Ġfact": 1588,
      "Ġsymb": 1589,
      "Ġwithout": 1590,
      "Ġrelating": 1591,
      "Ġnerves": 1592,
      "Ġnervous": 1593,
      "Ġgover": 1594,
      "Ġachie": 1595,
      "Ġsymbol": 1596,
      "ring": 1597,
      "Ġtarg": 1598,
      "ingu": 1599,
      "Ġelements": 1600,
      "ases": 1601,
      "Ġenerg": 1602,
      "angement": 1603,
      "Ġmade": 1604,
      "formed": 1605,
      "Ġacquire": 1606,
      "Ġability": 1607,
      "Ġbeings": 1608,
      "Ġconverts": 1609,
      "Ġsigns": 1610,
      "Ġstructural": 1611,
      "Ġoccurring": 1612,
      "Ġnaturally": 1613,
      "Ġproduced": 1614,
      "Ġarrangement": 1615,
      "Ġrather": 1616,
      "Ġphras": 1617,
      "Ġgoverning": 1618,
      "Ġsymbols": 1619,
      "Ġenergy": 1620,
      "Ġphrases": 1621,
      "Ġrepl": 1622,
      "Ġreference": 1623,
      "Ġimprove": 1624,
      "Ġcollected": 1625,
      "Ġfacts": 1626,
      "our": 1627,
      "sc": 1628,
      "to": 1629,
      "xav": 1630,
      "ering": 1631,
      "Ġfir": 1632,
      "mpt": 1633,
      "Ġmulti": 1634,
      "xavier": 1635,
      "Ġfirst": 1636,
      "lp": 1637,
      "plex": 1638,
      "sum": 1639,
      "true": 1640,
      "Ġxavier": 1641,
      "Ġblo": 1642,
      "Ġanim": 1643,
      "Ġstable": 1644,
      "pred": 1645,
      "Ġperplex": 1646,
      "Ġstrong": 1647,
      "Ġformul": 1648,
      "ops": 1649,
      "iveness": 1650,
      "Ġtechniques": 1651,
      "Ġblock": 1652,
      "Ġanimal": 1653,
      "Ġperplexity": 1654,
      "lems": 1655,
      "Ġtheir": 1656,
      "plication": 1657,
      "Ġtransl": 1658,
      "Ġcontains": 1659,
      "valu": 1660,
      "Ġprocedure": 1661,
      "Ġformula": 1662,
      "efficient": 1663,
      "ening": 1664,
      "Ġaut": 1665,
      "Ġdamp": 1666,
      "Ġpast": 1667,
      "ental": 1668,
      "Ġosc": 1669,
      "Ġcoefficient": 1670,
      "Ġranges": 1671,
      "exp": 1672,
      "Ġoutputs": 1673,
      "Ġarchitectures": 1674,
      "Ġaccumulates": 1675,
      "Ġjacobian": 1676,
      "Ġjacobians": 1677,
      "Ġsemantics": 1678,
      "illations": 1679,
      "Ġresponsiveness": 1680,
      "Ġmultiplication": 1681,
      "valued": 1682,
      "Ġdampening": 1683,
      "Ġoscillations": 1684,
      "ined": 1685,
      "eng": 1686,
      "Ġadagrad": 1687,
      "Ġcompute": 1688,
      "resh": 1689,
      "Ġthresh": 1690,
      "ract": 1691,
      "Ġdistingu": 1692,
      "Ġsquare": 1693,
      "Ġroot": 1694,
      "Ġstopping": 1695,
      "abilizing": 1696,
      "Ġthreshold": 1697,
      "Ġdistinguish": 1698,
      "lic": 1699,
      "orient": 1700,
      "Ġiter": 1701,
      "ores": 1702,
      "Ġrequires": 1703,
      "Ġrelationships": 1704,
      "Ġscores": 1705,
      "ources": 1706,
      "oriented": 1707,
      "dam": 1708,
      "word": 1709,
      "atib": 1710,
      "Ġcare": 1711,
      "Ġwas": 1712,
      "Ġcompatib": 1713,
      "Ġfundam": 1714,
      "Ġsimplic": 1715,
      "Ġdetermined": 1716,
      "Ġsums": 1717,
      "Ġcareful": 1718,
      "Ġcompatibility": 1719,
      "Ġfundamental": 1720,
      "Ġsimplicity": 1721,
      "based": 1722,
      "oc": 1723,
      "Ġsamples": 1724,
      "Ġpul": 1725,
      "ley": 1726,
      "lever": 1727,
      "ices": 1728,
      "Ġgeneration": 1729,
      "Ġproblems": 1730,
      "Ġprediction": 1731,
      "Ġstructured": 1732,
      "Ġpulley": 1733,
      "'(": 1734,
      "(-": 1735,
      ")(": 1736,
      "/(": 1737,
      "ooth": 1738,
      "sig": 1739,
      "aning": 1740,
      "Ġrele": 1741,
      "ured": 1742,
      "struct": 1743,
      "Ġunstruct": 1744,
      "ffers": 1745,
      "Ġsearch": 1746,
      "Ġsecond": 1747,
      "Ġsuffers": 1748,
      "Ġsmooth": 1749,
      "Ġnumbers": 1750,
      "Ġderivative": 1751,
      "Ġmaps": 1752,
      "Ġextreme": 1753,
      "sigma": 1754,
      "Ġunstructured": 1755,
      "lish": 1756,
      "weigh": 1757,
      "Ġross": 1758,
      "Ġsens": 1759,
      "orph": 1760,
      "Ġmorph": 1761,
      "abases": 1762,
      "Ġvan": 1763,
      "Ġspanish": 1764,
      "Ġresources": 1765,
      "Ġcreated": 1766,
      "sentence": 1767,
      "Ġincluding": 1768,
      "Ġdevices": 1769,
      "Ġ199": 1770,
      "Ġinstance": 1771,
      "Ġformation": 1772,
      "meaning": 1773,
      "Ġguido": 1774,
      "Ġevolve": 1775,
      "Ġorganically": 1776,
      "english": 1777,
      "Ġreleased": 1778,
      "weight": 1779,
      "Ġrossum": 1780,
      "Ġmorphology": 1781,
      "Ġ1991": 1782,
      "li": 1783,
      "ves": 1784,
      "Ġai": 1785,
      "Ġthey": 1786,
      "Ġrequiring": 1787,
      "Ġpara": 1788,
      "databases": 1789,
      "Ġsupp": 1790,
      "Ġcreating": 1791,
      "atively": 1792,
      "Ġengineering": 1793,
      "Ġiteratively": 1794,
      "ault": 1795,
      "gms": 1796,
      "se": 1797,
      "orts": 1798,
      "digms": 1799,
      "Ġmax": 1800,
      "Ġfunctional": 1801,
      "neural": 1802,
      "ample": 1803,
      "Ġensures": 1804,
      "Ġmitigates": 1805,
      "Ġdefault": 1806,
      "000": 1807,
      "Ġsensit": 1808,
      "Ġparadigms": 1809,
      "Ġsupports": 1810,
      "Ġnlp": 1811,
      "edy": 1812,
      "Ġste": 1813,
      "Ġgreedy": 1814,
      "Ġsensitivity": 1815,
      "rate": 1816,
      "Ġtuning": 1817,
      "Ġpatch": 1818,
      "epest": 1819,
      "Ġdecoding": 1820,
      "Ġbeam": 1821,
      "new": 1822,
      "Ġspeed": 1823,
      "Ġsimil": 1824,
      "Ġsemantic": 1825,
      "Ġsteepest": 1826,
      "Ġcle": 1827,
      "ities": 1828,
      "Ġgeneraliz": 1829,
      "Ġtranslation": 1830,
      "Ġgeneralize": 1831,
      "mely": 1832,
      "solving": 1833,
      "Ġpract": 1834,
      "Ġrob": 1835,
      "Ġextremely": 1836,
      "'t": 1837,
      "gd": 1838,
      "ties": 1839,
      "Ġsgd": 1840,
      "icates": 1841,
      "urons": 1842,
      "neurons": 1843,
      "Ġformal": 1844,
      "Ġmonit": 1845,
      "Ġter": 1846,
      "alts": 1847,
      "orting": 1848,
      "Ġmim": 1849,
      "Ġoffer": 1850,
      "Ġpromo": 1851,
      "Ġhalts": 1852,
      "Ġstops": 1853,
      "Ġmaxim": 1854,
      "olates": 1855,
      "ribes": 1856,
      "ructing": 1857,
      "Ġdescribes": 1858,
      "Ġdiscourag": 1859,
      "Ġinstructing": 1860,
      "Ġproperties": 1861,
      "Ġadaptation": 1862,
      "Ġadaptive": 1863,
      "Ġviolates": 1864,
      "Ġadjus": 1865,
      "Ġclear": 1866,
      "Ġmonitors": 1867,
      "Ġterms": 1868,
      "Ġmimic": 1869,
      "Ġoffering": 1870,
      "Ġpromoting": 1871,
      "Ġmaximizing": 1872,
      "Ġdiscourage": 1873,
      "activ": 1874,
      "Ġarrange": 1875,
      "Ġindicates": 1876,
      "dropout": 1877,
      "Ġdon": 1878,
      "Ġproxim": 1879,
      "Ġspaces": 1880,
      "Ġsimilarity": 1881,
      "eom": 1882,
      "Ġsample": 1883,
      "etric": 1884,
      "Ġgeom": 1885,
      "Ġdescribe": 1886,
      "Ġreflected": 1887,
      "Ġproximity": 1888,
      "Ġgeometric": 1889,
      "vers": 1890,
      "Ġsin": 1891,
      "Ġsorting": 1892,
      "els": 1893,
      "Ġhand": 1894,
      "ension": 1895,
      "Ġaverage": 1896,
      "activation": 1897,
      "net": 1898,
      "Ġdim": 1899,
      "Ġallows": 1900,
      "Ġdimension": 1901,
      "atical": 1902,
      "Ġforcing": 1903,
      "Ġ1000": 1904,
      "Ġstochastic": 1905,
      "Ġintroduces": 1906,
      "ap": 1907,
      "Ġcoherent": 1908,
      "Ġlabels": 1909,
      "Ġrobust": 1910,
      "hem": 1911,
      "Ġmathem": 1912,
      "Ġused": 1913,
      "Ġzeros": 1914,
      "Ġhelping": 1915,
      "hic": 1916,
      "abilities": 1917,
      "Ġmethods": 1918,
      "ionized": 1919,
      "Ġrevolut": 1920,
      "Ġrmsprop": 1921,
      "Ġdetect": 1922,
      "Ġraw": 1923,
      "Ġfaster": 1924,
      "shot": 1925,
      "Ġhandle": 1926,
      "Ġrevolutionized": 1927,
      "dw": 1928,
      "Ġdl": 1929,
      "Ġgenerator": 1930,
      "Ġfew": 1931,
      "Ġschedules": 1932,
      "Ġencoding": 1933,
      "Ġdiscriminator": 1934,
      "Ġmathematical": 1935,
      "mach": 1936,
      "Ġbased": 1937,
      "Ġprompt": 1938,
      "Ġdecreases": 1939,
      "Ġcausal": 1940,
      "Ġadjusting": 1941,
      "idirectional": 1942,
      "Ġunidirectional": 1943,
      "oregressive": 1944,
      "Ġonly": 1945,
      "context": 1946,
      "Ġparallelization": 1947,
      "Ġautoregressive": 1948,
      "acing": 1949,
      "fter": 1950,
      "iating": 1951,
      "Ġafter": 1952,
      "entiating": 1953,
      "Ġexponentiating": 1954,
      "Ġcommonly": 1955,
      "Ġlogits": 1956,
      "Ġguide": 1957,
      "Ġadjust": 1958,
      "Ġesc": 1959,
      "Ġsup": 1960,
      "Ġline": 1961,
      "Ġminima": 1962,
      "Ġscale": 1963,
      "Ġminimizing": 1964,
      "Ġgood": 1965,
      "Ġsharp": 1966,
      "Ġinjection": 1967,
      "ape": 1968,
      "Ġescape": 1969,
      "Ġlinear": 1970,
      "mar": 1971,
      "Ġtransformations": 1972,
      "Ġdependency": 1973,
      "--": 1974,
      "gular": 1975,
      "range": 1976,
      "ton": 1977,
      "yon": 1978,
      "regular": 1979,
      "duce": 1980,
      "Ġbeyon": 1981,
      "Ġintroduce": 1982,
      "Ġreplacing": 1983,
      "regularization": 1984,
      "Ġbeyond": 1985,
      "ian": 1986,
      "atast": 1987,
      "Ġcur": 1988,
      "Ġcatast": 1989,
      "Ġforget": 1990,
      "rophic": 1991,
      "Ġtransfer": 1992,
      "Ġpractical": 1993,
      "Ġcatastrophic": 1994,
      "Ġforgetting": 1995,
      "scal": 1996,
      "tically": 1997,
      "vature": 1998,
      "Ġlim": 1999,
      "Ġhess": 2000,
      "Ġdetermine": 2001,
      "erior": 2002,
      "Ġtheoretically": 2003,
      "Ġcontextual": 2004,
      "Ġnewton": 2005,
      "Ġsuperior": 2006,
      "Ġcurvature": 2007,
      "scale": 2008,
      "Ġlimits": 2009,
      "Ġhessian": 2010,
      "cy": 2011,
      "Ġtoget": 2012,
      "Ġhist": 2013,
      "own": 2014,
      "Ġtogether": 2015,
      "ever": 2016,
      "Ġatt": 2017,
      "Ġdown": 2018,
      "ively": 2019,
      "Ġhowever": 2020,
      "Ġeffectively": 2021,
      "Ġproduct": 2022,
      "cnns": 2023,
      "coder": 2024,
      "Ġpot": 2025,
      "decoder": 2026,
      "Ġones": 2027,
      "Ġcapt": 2028,
      "Ġsummar": 2029,
      "Ġencoder": 2030,
      "Ġpotential": 2031,
      "Ġsummarization": 2032,
      "ending": 2033,
      "Ġfan": 2034,
      "icit": 2035,
      "Ġstabilizing": 2036,
      "Ġexplicit": 2037,
      "quence": 2038,
      "Ġprocesses": 2039,
      "Ġgenerates": 2040,
      "Ġnorms": 2041,
      "Ġconnectivity": 2042,
      "Ġexcel": 2043,
      "Ġscaling": 2044,
      "Ġsharing": 2045,
      "sequence": 2046,
      "Ġattending": 2047,
      "Ġest": 2048,
      "atic": 2049,
      "ert": 2050,
      "ality": 2051,
      "Ġaddress": 2052,
      "Ġimage": 2053,
      "Ġlabeled": 2054,
      "================": 2055,
      "Ġcapture": 2056,
      "Ġestim": 2057,
      "pus": 2058,
      "Ġgpus": 2059,
      "Ġgroups": 2060,
      "machine": 2061,
      "Ġestimates": 2062,
      "ochastic": 2063,
      "ream": 2064,
      "Ġrich": 2065,
      "stochastic": 2066,
      "stream": 2067,
      "Ġbidirectional": 2068,
      "ough": 2069,
      "Ġmasked": 2070,
      "Ġobjective": 2071,
      "Ġachieve": 2072,
      "Ġdownstream": 2073,
      "gg": 2074,
      "lab": 2075,
      "ally": 2076,
      "orical": 2077,
      "Ġthough": 2078,
      "Ġunlab": 2079,
      "Ġhistorical": 2080,
      "Ġunlabeled": 2081,
      "frequent": 2082,
      "mature": 2083,
      "omp": 2084,
      "onically": 2085,
      "Ġcal": 2086,
      "Ġinfrequent": 2087,
      "Ġfil": 2088,
      "Ġfrequent": 2089,
      "Ġpremature": 2090,
      "Ġdecomp": 2091,
      "otonically": 2092,
      "Ġcause": 2093,
      "Ġmagnitudes": 2094,
      "Ġadapts": 2095,
      "Ġmonotonically": 2096,
      "###": 2097,
      "ling": 2098,
      "ment": 2099,
      "Ġpl": 2100,
      "Ġed": 2101,
      "Ġgradu": 2102,
      "Ġinstability": 2103,
      "Ġincreases": 2104,
      "Ġgradually": 2105,
      "par": 2106,
      "seen": 2107,
      "arm": 2108,
      "Ġunseen": 2109,
      "Ġplus": 2110,
      "ters": 2111,
      "artificial": 2112,
      "Ġwarm": 2113,
      "Ġtoo": 2114,
      "Ġmoder": 2115,
      "Ġsteps": 2116,
      "uracy": 2117,
      "Ġspecialized": 2118,
      "Ġfilters": 2119,
      "Ġwarmup": 2120,
      "res": 2121,
      "reli": 2122,
      "iving": 2123,
      "Ġunsupervised": 2124,
      "Ġunreli": 2125,
      "Ġinitialized": 2126,
      "Ġquality": 2127,
      "Ġtarget": 2128,
      "Ġaddresses": 2129,
      "Ġmodern": 2130,
      "Ġunreliable": 2131,
      "air": 2132,
      "term": 2133,
      "Ġsom": 2134,
      "art": 2135,
      "Ġeven": 2136,
      "Ġsome": 2137,
      "cross": 2138,
      "ges": 2139,
      "Ġlearnable": 2140,
      "Ġstru": 2141,
      "rained": 2142,
      "ggle": 2143,
      "Ġedges": 2144,
      "Ġstruggle": 2145,
      "learn": 2146,
      "Ġdepends": 2147,
      "ead": 2148,
      "all": 2149,
      "Ġtop": 2150,
      "Ġactual": 2151,
      "resnet": 2152,
      "cul": 2153,
      "gener": 2154,
      "Ġtre": 2155,
      "Ġfoc": 2156,
      "Ġreve": 2157,
      "Ġcomb": 2158,
      "Ġseen": 2159,
      "Ġclasses": 2160,
      "Ġinstead": 2161,
      "Ġcalcul": 2162,
      "Ġfocus": 2163,
      "Ġrevealing": 2164,
      "ilib": 2165,
      "rium": 2166,
      "Ġequilib": 2167,
      "Ġequilibrium": 2168,
      "cl": 2169,
      "Ġcate": 2170,
      "Ġben": 2171,
      "ize": 2172,
      "ameter": 2173,
      "Ġbeco": 2174,
      "Ġtargets": 2175,
      "parameter": 2176,
      "class": 2177,
      "Ġcategor": 2178,
      "riving": 2179,
      "sity": 2180,
      "vol": 2181,
      "Ġslow": 2182,
      "Ġdimin": 2183,
      "Ġdriving": 2184,
      "Ġcumul": 2185,
      "arsity": 2186,
      "Ġinvol": 2187,
      "Ġexcess": 2188,
      "Ġexact": 2189,
      "ode": 2190,
      "Ġsparsity": 2191,
      "Ġdistributes": 2192,
      "Ġaccuracy": 2193,
      "Ġdecrease": 2194,
      "ishing": 2195,
      "Ġembeddings": 2196,
      "Ġuseful": 2197,
      "Ġevenly": 2198,
      "Ġdiminishing": 2199,
      "Ġcumulative": 2200,
      "Ġinvolves": 2201,
      "Ġexcessive": 2202,
      "Ġexactly": 2203,
      "ds": 2204,
      "trained": 2205,
      "erical": 2206,
      "Ġcover": 2207,
      "ose": 2208,
      "Ġnumerical": 2209,
      "Ġfinding": 2210,
      "dent": 2211,
      "rit": 2212,
      "endent": 2213,
      "Ġass": 2214,
      "ependent": 2215,
      "Ġdisco": 2216,
      "ression": 2217,
      "Ġgreat": 2218,
      "Ġindependent": 2219,
      "learning": 2220,
      "Ġcoverage": 2221,
      "Ġindependently": 2222,
      "cision": 2223,
      "ks": 2224,
      "pect": 2225,
      "Ġpair": 2226,
      "Ġrecal": 2227,
      "ives": 2228,
      "Ġhyp": 2229,
      "duc": 2230,
      "precision": 2231,
      "Ġresemb": 2232,
      "Ġpositives": 2233,
      "Ġaspect": 2234,
      "Ġrepresenting": 2235,
      "Ġcap": 2236,
      "Ġdiscriminative": 2237,
      "generative": 2238,
      "Ġpairs": 2239,
      "Ġrecall": 2240,
      "Ġresembling": 2241,
      "Ġaspects": 2242,
      "dates": 2243,
      "efit": 2244,
      "oun": 2245,
      "Ġspl": 2246,
      "eses": 2247,
      "Ġmis": 2248,
      "itting": 2249,
      "Ġfoun": 2250,
      "Ġgpt": 2251,
      "didates": 2252,
      "Ġexploring": 2253,
      "Ġselect": 2254,
      "Ġoverall": 2255,
      "Ġcandidates": 2256,
      "Ġhighest": 2257,
      "Ġencode": 2258,
      "otheses": 2259,
      "Ġachieves": 2260,
      "Ġpatches": 2261,
      "Ġsince": 2262,
      "Ġtreating": 2263,
      "Ġbenefit": 2264,
      "Ġhypotheses": 2265,
      "Ġcapabilities": 2266,
      "Ġsplitting": 2267,
      "Ġmiss": 2268,
      "Ġfoundation": 2269,
      "Ġselects": 2270,
      "Ġbenefits": 2271,
      "Ġvision": 2272,
      "output": 2273,
      "Ġregression": 2274,
      "classification": 2275,
      "rum": 2276,
      "ectrum": 2277,
      "Ġalong": 2278,
      "Ġacco": 2279,
      "Ġspectrum": 2280,
      "Ġwhereas": 2281,
      "Ġcombine": 2282,
      "Ġcategories": 2283,
      "Ġdiscovers": 2284,
      "Ġaccoun": 2285,
      "ood": 2286,
      "Ġag": 2287,
      "Ġconcepts": 2288,
      "Ġaccount": 2289,
      "rmsprop": 2290,
      "ary": 2291,
      "Ġwhy": 2292,
      "gnit": 2293,
      "nam": 2294,
      "pose": 2295,
      "recur": 2296,
      "Ġsolve": 2297,
      "Ġpur": 2298,
      "Ġboth": 2299,
      "Ġbert": 2300,
      "und": 2301,
      "when": 2302,
      "Ġone": 2303,
      "Ġnoisier": 2304,
      "Ġpreviously": 2305,
      "Ġpurpose": 2306,
      "oid": 2307,
      "ications": 2308,
      "Ġmeasure": 2309,
      "**": 2310,
      "nific": 2311,
      "oor": 2312,
      "python": 2313,
      "ware": 2314,
      "enc": 2315,
      "Ġpoor": 2316,
      "antly": 2317,
      "Ġsignific": 2318,
      "Ġapplications": 2319,
      "Ġ**": 2320,
      "**:": 2321,
      "Ġsignificantly": 2322,
      "bit": 2323,
      "dz": 2324,
      "rary": 2325,
      "sive": 2326,
      "Ġut": 2327,
      "reds": 2328,
      "orter": 2329,
      "Ġdz": 2330,
      "Ġinherent": 2331,
      "Ġfrequ": 2332,
      "Ġhund": 2333,
      "ilize": 2334,
      "usoid": 2335,
      "Ġarbit": 2336,
      "Ġcomputes": 2337,
      "Ġshorter": 2338,
      "Ġposition": 2339,
      "Ġrecursive": 2340,
      "Ġdepths": 2341,
      "Ġsinusoid": 2342,
      "Ġencodings": 2343,
      "encies": 2344,
      "Ġutilize": 2345,
      "Ġfrequencies": 2346,
      "Ġhundreds": 2347,
      "Ġarbitrary": 2348,
      "Ġsinusoidal": 2349,
      "Ġmust": 2350,
      "Ġel": 2351,
      "eous": 2352,
      "kl": 2353,
      "xed": 2354,
      "||": 2355,
      "Ġserv": 2356,
      "als": 2357,
      "alent": 2358,
      "Ġdue": 2359,
      "aneous": 2360,
      "Ġeig": 2361,
      "Ġreco": 2362,
      "ivalent": 2363,
      "Ġhard": 2364,
      "abular": 2365,
      "ultaneous": 2366,
      "Ġfixed": 2367,
      "Ġsimultaneous": 2368,
      "ible": 2369,
      "Ġsequentially": 2370,
      "Ġequals": 2371,
      "Ġequivalent": 2372,
      "ocabular": 2373,
      "Ġserves": 2374,
      "Ġeigen": 2375,
      "Ġhardware": 2376,
      "Ġsimultaneously": 2377,
      "ocabulary": 2378,
      "cer": 2379,
      "Ġcorre": 2380,
      "Ġvocabulary": 2381,
      "Ġuncer": 2382,
      "convolutional": 2383,
      "Ġmatric": 2384,
      "values": 2385,
      "gnition": 2386,
      "recurrent": 2387,
      "Ġrecognition": 2388,
      "Ġeigenvalues": 2389,
      "Ġuncertain": 2390,
      "Ġmatrices": 2391,
      "hood": 2392,
      "io": 2393,
      "ihood": 2394,
      "kel": 2395,
      "ming": 2396,
      "moment": 2397,
      "matic": 2398,
      "sy": 2399,
      "uations": 2400,
      "ws": 2401,
      "writ": 2402,
      "Ġdra": 2403,
      "Ġdest": 2404,
      "rows": 2405,
      "Ġfa": 2406,
      "Ġgrows": 2407,
      "Ġprogressive": 2408,
      "olidation": 2409,
      "cales": 2410,
      "Ġoverwrit": 2411,
      "Ġrescales": 2412,
      "Ġoptimizer": 2413,
      "Ġrepresents": 2414,
      "Ġconsolidation": 2415,
      "Ġlower": 2416,
      "Ġratio": 2417,
      "Ġreplay": 2418,
      "likel": 2419,
      "Ġcalculated": 2420,
      "Ġbecoming": 2421,
      "Ġgreater": 2422,
      "Ġelastic": 2423,
      "Ġcorrection": 2424,
      "momentum": 2425,
      "Ġdramatic": 2426,
      "Ġdestabilizing": 2427,
      "Ġoverwrites": 2428,
      "likelihood": 2429,
      "sing": 2430,
      "Ġdom": 2431,
      "anh": 2432,
      "Ġdynam": 2433,
      "Ġdynamic": 2434,
      "memb": 2435,
      "tanh": 2436,
      "Ġrememb": 2437,
      "user": 2438,
      "ussing": 2439,
      "istic": 2440,
      "Ġprobabilities": 2441,
      "Ġdot": 2442,
      "Ġasks": 2443,
      "Ġscales": 2444,
      "Ġdiscussing": 2445,
      "Ġrelated": 2446,
      "Ġrelevance": 2447,
      "data": 2448,
      "Ġproducts": 2449,
      "Ġremember": 2450,
      "Ġtrain": 2451,
      "Ġhas": 2452,
      "Ġmake": 2453,
      "Ġproduce": 2454,
      "Ġdecomposition": 2455,
      "gpt": 2456,
      "languag": 2457,
      "Ġquest": 2458,
      "language": 2459,
      "not": 2460,
      "tal": 2461,
      "umpt": 2462,
      "Ġir": 2463,
      "reduc": 2464,
      "Ġflu": 2465,
      "ctuations": 2466,
      "Ġtotal": 2467,
      "ainst": 2468,
      "Ġgenerate": 2469,
      "oses": 2470,
      "Ġresnet": 2471,
      "Ġsystematic": 2472,
      "Ġdecomposes": 2473,
      "Ġassumpt": 2474,
      "Ġagainst": 2475,
      "Ġirreduc": 2476,
      "Ġfluctuations": 2477,
      "Ġassumptions": 2478,
      "Ġirreducible": 2479,
      "sw": 2480,
      "Ġi": 2481,
      "arial": 2482,
      "Ġansw": 2483,
      "Ġadvers": 2484,
      "----": 2485,
      "Ġadversarial": 2486,
      "Ġgenerative": 2487,
      "================================": 2488,
      "Ġdomain": 2489,
      "ience": 2490,
      "Ġquestions": 2491,
      "fect": 2492,
      "algorith": 2493,
      "isual": 2494,
      "Ġnas": 2495,
      "Ġwork": 2496,
      "Ġgans": 2497,
      "Ġgam": 2498,
      "Ġperfect": 2499,
      "Ġcannot": 2500,
      "Ġminimax": 2501,
      "Ġrealistic": 2502,
      "Ġscience": 2503,
      "syntax": 2504,
      "Ġfake": 2505,
      "Ġnash": 2506,
      "Ġgame": 2507,
      "vision": 2508,
      "Ġvisual": 2509,
      "ments": 2510,
      "Ġ\"": 2511,
      "cial": 2512,
      "bert": 2513,
      "telligence": 2514,
      "intelligence": 2515,
      "Ġintera": 2516,
      "grammar": 2517,
      "isions": 2518,
      "Ġoth": 2519,
      "Ġdecisions": 2520,
      "Ġdetection": 2521,
      "Ġdomains": 2522,
      "Ġother": 2523,
      "hav": 2524,
      "Ġamo": 2525,
      "Ġbas": 2526,
      "unts": 2527,
      "Ġbehav": 2528,
      "Ġminimize": 2529,
      "Ġamounts": 2530,
      "Ġbehavi": 2531,
      "ether": 2532,
      "ign": 2533,
      "Ġwhether": 2534,
      "Ġimport": 2535,
      "Ġautom": 2536,
      "Ġimportant": 2537,
      "infor": 2538,
      "Ġdes": 2539,
      "cement": 2540,
      "Ġeduc": 2541,
      "deep": 2542,
      "Ġpractice": 2543,
      "inforcement": 2544,
      "Ġeducation": 2545,
      "ec": 2546,
      "gr": 2547,
      "pro": 2548,
      "ink": 2549,
      "ests": 2550,
      "Ġprograms": 2551,
      "Ġblocks": 2552,
      "egr": 2553,
      "rans": 2554,
      "trans": 2555,
      "Ġcoding": 2556,
      "Ġintegr": 2557,
      "Ġbecome": 2558,
      "Ġinteraction": 2559,
      "care": 2560,
      "how": 2561,
      "natural": 2562,
      "ots": 2563,
      "Ġent": 2564,
      "Ġturing": 2565,
      "alth": 2566,
      "Ġnam": 2567,
      "Ġwe": 2568,
      "ider": 2569,
      "Ġspam": 2570,
      "Ġconsider": 2571,
      "Ġhealth": 2572,
      "transform": 2573,
      "Ġhealthcare": 2574,
      "ld": 2575,
      "reinforcement": 2576,
      "orld": 2577,
      "Ġdates": 2578,
      "Ġdeb": 2579,
      "Ġsuch": 2580,
      "Ġreduce": 2581,
      "dit": 2582,
      "time": 2583,
      "ree": 2584,
      "Ġfree": 2585,
      "Ġnext": 2586,
      "ifies": 2587,
      "ception": 2588,
      "Ġfeel": 2589,
      "Ġ19": 2590,
      "Ġdevelopment": 2591,
      "Ġorganization": 2592,
      "machines": 2593,
      "Ġfocuses": 2594,
      "algorithm": 2595,
      "algorithms": 2596,
      "transformers": 2597,
      "Ġdebated": 2598,
      "cum": 2599,
      "ness": 2600,
      "nlp": 2601,
      "atically": 2602,
      "Ġwrit": 2603,
      "Ġcondit": 2604,
      "Ġdocum": 2605,
      "Ġhumans": 2606,
      "Ġefficiently": 2607,
      "Ġadjusts": 2608,
      "Ġanswers": 2609,
      "Ġautomatically": 2610,
      "Ġwriting": 2611,
      "vir": 2612,
      "Ġ&": 2613,
      "ĠĠ": 2614,
      "Ġtests": 2615,
      "ather": 2616,
      "onents": 2617,
      "alse": 2618,
      "Ġcatch": 2619,
      "Ġfalse": 2620,
      "ute": 2621,
      "Ġreus": 2622,
      "Ġexec": 2623,
      "understand": 2624,
      "Ġenvir": 2625,
      "Ġcomponents": 2626,
      "Ġloops": 2627,
      "ails": 2628,
      "Ġtry": 2629,
      "Ġvarious": 2630,
      "Ġdiff": 2631,
      "Ġperforming": 2632,
      "Ġtypes": 2633,
      "ethics": 2634,
      "Ġstatements": 2635,
      "Ġphys": 2636,
      "Ġorganize": 2637,
      "Ġassist": 2638,
      "Ġbase": 2639,
      "Ġdesign": 2640,
      "Ġexecute": 2641,
      "understanding": 2642,
      "Ġenviron": 2643,
      "'m": 2644,
      "ech": 2645,
      "eval": 2646,
      "kes": 2647,
      "Ġ2": 2648,
      "onom": 2649,
      "ingly": 2650,
      "Ġpow": 2651,
      "Ġfut": 2652,
      "Ġprogress": 2653,
      "imate": 2654,
      "Ġmakes": 2655,
      "Ġfinds": 2656,
      "Ġincreasingly": 2657,
      "Ġsubset": 2658,
      "Ġanswering": 2659,
      "Ġfuture": 2660,
      "\":": 2661,
      "ac": 2662,
      "eck": 2663,
      "oy": 2664,
      "ug": 2665,
      "vel": 2666,
      "Ġ[": 2667,
      "ency": 2668,
      "erful": 2669,
      "Ġsoc": 2670,
      "Ġthink": 2671,
      "Ġcases": 2672,
      "Ġfair": 2673,
      "Ġtheory": 2674,
      "Ġrep": 2675,
      "Ġret": 2676,
      "icult": 2677,
      "ploy": 2678,
      "ify": 2679,
      "Ġris": 2680,
      "ide": 2681,
      "Ġcontent": 2682,
      "gramming": 2683,
      "Ġcheck": 2684,
      "======": 2685,
      "Ġrequirements": 2686,
      "adagrad": 2687,
      "Ġconsisting": 2688,
      "Ġhelps": 2689,
      "Ġprocedures": 2690,
      "Ġcolle": 2691,
      "================================================================": 2692,
      "programming": 2693,
      "Ġintegration": 2694,
      "Ġweather": 2695,
      "Ġdifficult": 2696,
      "Ġphysical": 2697,
      "Ġpowerful": 2698,
      "Ġfairness": 2699,
      "ployment": 2700,
      "======================================================================": 2701,
      "50": 2702,
      "curacy": 2703,
      "ehic": 2704,
      "good": 2705,
      "uip": 2706,
      "Ġ7": 2707,
      "Ġif": 2708,
      "Ġtri": 2709,
      "erai": 2710,
      "Ġcru": 2711,
      "anical": 2712,
      "Ġmatch": 2713,
      "raction": 2714,
      "Ġnav": 2715,
      "Ġlist": 2716,
      "Ġworld": 2717,
      "Ġem": 2718,
      "igation": 2719,
      "iment": 2720,
      "ulation": 2721,
      "Ġvide": 2722,
      "Ġvehic": 2723,
      "rieval": 2724,
      "ipulation": 2725,
      "Ġtranspar": 2726,
      "Ġimpact": 2727,
      "Ġcreative": 2728,
      "Ġspeech": 2729,
      "otics": 2730,
      "Ġmechanical": 2731,
      "Ġextract": 2732,
      "Ġmanipulation": 2733,
      "Ġsentiment": 2734,
      "bye": 2735,
      "Ġautonom": 2736,
      "Ġaccountability": 2737,
      "Ġfacial": 2738,
      "Ġentity": 2739,
      "Ġnamed": 2740,
      "Ġdocuments": 2741,
      "accuracy": 2742,
      "Ġretrieval": 2743,
      "Ġcollection": 2744,
      "goodbye": 2745,
      "uiperai": 2746,
      "Ġtries": 2747,
      "Ġcrucial": 2748,
      "Ġnavigation": 2749,
      "Ġvehicles": 2750,
      "Ġtransparency": 2751,
      "Ġautonomous": 2752,
      "\",": 2753,
      "bots": 2754,
      "botics": 2755,
      "iet": 2756,
      "ok": 2757,
      "rin": 2758,
      "tual": 2759,
      "top": 2760,
      "upl": 2761,
      "ved": 2762,
      "ww": 2763,
      "war": 2764,
      "yes": 2765,
      "atbots": 2766,
      "Ġactions": 2767,
      "Ġsets": 2768,
      "esting": 2769,
      "Ġpers": 2770,
      "Ġpsy": 2771,
      "robotics": 2772,
      "ition": 2773,
      "itut": 2774,
      "ceiving": 2775,
      "Ġlif": 2776,
      "Ġwav": 2777,
      "Ġreward": 2778,
      "Ġreceiving": 2779,
      "chology": 2780,
      "aset": 2781,
      "unsupervised": 2782,
      "Ġconvers": 2783,
      "Ġhold": 2784,
      "Ġgraph": 2785,
      "Ġdeployment": 2786,
      "Ġvir": 2787,
      "quest": 2788,
      "quality": 2789,
      "Ġalan": 2790,
      "olved": 2791,
      "mmed": 2792,
      "Ġlook": 2793,
      "Ġart": 2794,
      "osed": 2795,
      "Ġperception": 2796,
      "Ġkuiperai": 2797,
      "Ġclimate": 2798,
      "Ġchatbots": 2799,
      "Ġprogrammed": 2800,
      "Ġensuring": 2801,
      "Ġimmens": 2802,
      "Ġhumanity": 2803,
      "Ġpenalties": 2804,
      "Ġextraction": 2805,
      "Ġsetback": 2806,
      "Ġguidance": 2807,
      "Ġevolved": 2808,
      "Ġissues": 2809,
      "Ġproposed": 2810,
      "Ġconstitut": 2811,
      "backpropagation": 2812,
      "Ġcorrected": 2813,
      "Ġresponsible": 2814,
      "second": 2815,
      "Ġrobots": 2816,
      "aps": 2817,
      "Ġhistory": 2818,
      "Ġtopic": 2819,
      "Ġcombines": 2820,
      "Ġagent": 2821,
      "Ġbehavioral": 2822,
      "Ġconsideration": 2823,
      "Ġ1950": 2824,
      "Ġassistants": 2825,
      "Ġdesigned": 2826,
      "Ġenvironment": 2827,
      "Ġsociet": 2828,
      "Ġrisks": 2829,
      "topic": 2830,
      "Ġperson": 2831,
      "Ġpsychology": 2832,
      "Ġwaves": 2833,
      "Ġrewards": 2834,
      "Ġholds": 2835,
      "Ġvirtual": 2836,
      "question": 2837,
      "Ġimmense": 2838,
      "Ġsetbacks": 2839,
      "Ġsocietal": 2840,
      "'d": 2841,
      "'re": 2842,
      "//": 2843,
      "02": 2844,
      "04": 2845,
      "://": 2846,
      "](": 2847,
      "cations": 2848,
      "fi": 2849,
      "ht": 2850,
      "hell": 2851,
      "kely": 2852,
      "mit": 2853,
      "over": 2854,
      "ps": 2855,
      "port": 2856,
      "tps": 2857,
      "uable": 2858,
      "way": 2859,
      "you": 2860,
      "Ġ99": 2861,
      "inant": 2862,
      "Ġtrained": 2863,
      "Ġaid": 2864,
      "Ġthose": 2865,
      "Ġdi": 2866,
      "Ġday": 2867,
      "Ġdail": 2868,
      "Ġcra": 2869,
      "Ġmus": 2870,
      "aract": 2871,
      "ety": 2872,
      "Ġlingu": 2873,
      "Ġwel": 2874,
      "Ġway": 2875,
      "Ġwere": 2876,
      "Ġwill": 2877,
      "Ġanyth": 2878,
      "Ġanoth": 2879,
      "Ġels": 2880,
      "Ġrewar": 2881,
      "Ġproject": 2882,
      "Ġcome": 2883,
      "ase": 2884,
      "Ġstill": 2885,
      "uly": 2886,
      "ults": 2887,
      "use": 2888,
      "Ġvast": 2889,
      "think": 2890,
      "Ġrang": 2891,
      "Ġrange": 2892,
      "ights": 2893,
      "start": 2894,
      "Ġundes": 2895,
      "Ġlocations": 2896,
      "Ġaccess": 2897,
      "ruction": 2898,
      "aries": 2899,
      "Ġteach": 2900,
      "come": 2901,
      "Ġtruly": 2902,
      "Ġtransmit": 2903,
      "Ġtransport": 2904,
      "Ġresults": 2905,
      "Ġcharact": 2906,
      "Ġsignal": 2907,
      "Ġprovide": 2908,
      "Ġcreativ": 2909,
      "Ġnovel": 2910,
      "Ġdoing": 2911,
      "alizing": 2912,
      "Ġperforms": 2913,
      "Ġask": 2914,
      "Ġasking": 2915,
      "Ġclassifies": 2916,
      "Ġlikely": 2917,
      "Ġvalid": 2918,
      "Ġvaluable": 2919,
      "Ġsubfi": 2920,
      "Ġstatistical": 2921,
      "Ġpenalizing": 2922,
      "Ġgoal": 2923,
      "Ġfeeding": 2924,
      "Ġanytime": 2925,
      "balance": 2926,
      "Ġthank": 2927,
      "datasets": 2928,
      "Ġconstruction": 2929,
      "Ġidentifies": 2930,
      "Ġpathway": 2931,
      "Ġprocedural": 2932,
      "Ġtranslates": 2933,
      "Ġtranslations": 2934,
      "Ġhandling": 2935,
      "Ġcontextually": 2936,
      "mentation": 2937,
      "Ġtrees": 2938,
      "Ġcalculates": 2939,
      "Ġcalculating": 2940,
      "Ġcategorization": 2941,
      "Ġassign": 2942,
      "Ġagents": 2943,
      "named": 2944,
      "Ġpoorly": 2945,
      "Ġdominant": 2946,
      "Ġtrains": 2947,
      "Ġanswer": 2948,
      "------": 2949,
      "Ġworking": 2950,
      "Ġbasics": 2951,
      "Ġbehaviors": 2952,
      "Ġdesired": 2953,
      "Ġintegrated": 2954,
      "Ġentities": 2955,
      "Ġnames": 2956,
      "Ġorganizations": 2957,
      "Ġconditions": 2958,
      "Ġ202": 2959,
      "Ġ70": 2960,
      "Ġlists": 2961,
      "Ġvideos": 2962,
      "Ġlife": 2963,
      "Ġconversations": 2964,
      "Ġconstitutes": 2965,
      "https": 2966,
      "hello": 2967,
      "overfitting": 2968,
      "Ġaids": 2969,
      "Ġdaily": 2970,
      "Ġmusic": 2971,
      "Ġlinguistic": 2972,
      "Ġwelcome": 2973,
      "Ġanything": 2974,
      "Ġanother": 2975,
      "Ġelse": 2976,
      "Ġrewarding": 2977,
      "Ġprojects": 2978,
      "Ġranging": 2979,
      "Ġundesired": 2980,
      "Ġteaching": 2981,
      "Ġtransportation": 2982,
      "Ġcharacter": 2983,
      "Ġsignals": 2984,
      "Ġcreativity": 2985,
      "Ġsubfield": 2986,
      "Ġpathways": 2987,
      "Ġ2026": 2988,
      "/`": 2989,
      "21": 2990,
      "blems": 2991,
      "fun": 2992,
      "ken": 2993,
      "mult": 2994,
      "sion": 2995,
      "sample": 2996,
      "sights": 2997,
      "til": 2998,
      "txt": 2999,
      "testing": 3000,
      "world": 3001,
      "Ġtim": 3002,
      "Ġtupl": 3003,
      "erify": 3004,
      "Ġsit": 3005,
      "Ġsupervised": 3006,
      "ority": 3007,
      "roken": 3008,
      "Ġindi": 3009,
      "Ġinsights": 3010,
      "Ġfails": 3011,
      "etition": 3012,
      "Ġblu": 3013,
      "Ġbug": 3014,
      "Ġbroken": 3015,
      "ceful": 3016,
      "Ġwid": 3017,
      "urce": 3018,
      "else": 3019,
      "Ġcognit": 3020,
      "Ġexcept": 3021,
      "Ġgramm": 3022,
      "Ġgraceful": 3023,
      "Ġstore": 3024,
      "ected": 3025,
      "ilities": 3026,
      "ulate": 3027,
      "ctionaries": 3028,
      "Ġverify": 3029,
      "Ġintellig": 3030,
      "Ġdataset": 3031,
      "eprin": 3032,
      "Ġunexp": 3033,
      "Ġuntil": 3034,
      "istics": 3035,
      "Ġmodular": 3036,
      "Ġ(`": 3037,
      "Ġgenerating": 3038,
      "Ġabilities": 3039,
      "except": 3040,
      "exception": 3041,
      "Ġmaintainable": 3042,
      "ructed": 3043,
      "Ġsugg": 3044,
      "Ġchall": 3045,
      "vidual": 3046,
      "Ġgrammars": 3047,
      "Ġprogram": 3048,
      "Ġitself": 3049,
      "proper": 3050,
      "ampling": 3051,
      "Ġdefine": 3052,
      "Ġstrings": 3053,
      "Ġsubpro": 3054,
      "Ġmechanism": 3055,
      "Ġcontinue": 3056,
      "ople": 3057,
      "loops": 3058,
      "Ġencaps": 3059,
      "shes": 3060,
      "Ġobjects": 3061,
      "source": 3062,
      "Ġpeople": 3063,
      "spec": 3064,
      "Ġconstructed": 3065,
      "Ġcorrectly": 3066,
      "conditional": 3067,
      "Ġtechnique": 3068,
      "enges": 3069,
      "Ġiterate": 3070,
      "Ġsimilar": 3071,
      "Ġcalls": 3072,
      "learned": 3073,
      "classes": 3074,
      "recursion": 3075,
      "Ġworks": 3076,
      "Ġinteractions": 3077,
      "Ġbehavior": 3078,
      "Ġautomation": 3079,
      "Ġweb": 3080,
      "Ġcondition": 3081,
      "ĠĠĠ": 3082,
      "Ġreusability": 3083,
      "Ġreusable": 3084,
      "Ġrepetition": 3085,
      "Ġemails": 3086,
      "Ġextracting": 3087,
      "Ġdictionaries": 3088,
      "Ġcrashes": 3089,
      "Ġcharacteristics": 3090,
      "/`)": 3091,
      "functions": 3092,
      "Ġtimes": 3093,
      "Ġtuples": 3094,
      "Ġsituations": 3095,
      "Ġindividual": 3096,
      "Ġblueprin": 3097,
      "Ġbugs": 3098,
      "Ġwidely": 3099,
      "Ġcognitive": 3100,
      "Ġexceptions": 3101,
      "Ġgrammatical": 3102,
      "Ġgracefully": 3103,
      "Ġintelligences": 3104,
      "Ġunexpected": 3105,
      "Ġsuggests": 3106,
      "Ġchallenges": 3107,
      "Ġsubproblems": 3108,
      "Ġencapsulate": 3109,
      "specific": 3110,
      "Ġblueprints": 3111,
      "af": 3112,
      "know": 3113,
      "Ġau": 3114,
      "reh": 3115,
      "Ġpr": 3116,
      "Ġmet": 3117,
      "Ġmed": 3118,
      "Ġinference": 3119,
      "chmar": 3120,
      "Ġleg": 3121,
      "Ġstand": 3122,
      "Ġcompreh": 3123,
      "odal": 3124,
      "formal": 3125,
      "Ġwithin": 3126,
      "Ġitems": 3127,
      "lue": 3128,
      "Ġimbalance": 3129,
      "Ġ10": 3130,
      "Ġfind": 3131,
      "social": 3132,
      "Ġedge": 3133,
      "general": 3134,
      "Ġbenchmar": 3135,
      "--------": 3136,
      "multiple": 3137,
      "knowledge": 3138,
      "Ġstandard": 3139,
      "Ġbenchmarks": 3140,
      ".,": 3141,
      "100": 3142,
      "51": 3143,
      "54": 3144,
      "``": 3145,
      "aw": 3146,
      "big": 3147,
      "code": 3148,
      "earch": 3149,
      "gmentation": 3150,
      "mon": 3151,
      "mology": 3152,
      "mental": 3153,
      "sorting": 3154,
      "ub": 3155,
      "uation": 3156,
      "Ġ3": 3157,
      "Ġ4": 3158,
      "Ġethics": 3159,
      "atics": 3160,
      "enet": 3161,
      "Ġaim": 3162,
      "Ġsources": 3163,
      "Ġsaf": 3164,
      "aluation": 3165,
      "orp": 3166,
      "Ġpop": 3167,
      "ank": 3168,
      "ational": 3169,
      "etical": 3170,
      "Ġlaw": 3171,
      "Ġannot": 3172,
      "Ġreinforcement": 3173,
      "abetical": 3174,
      "ersion": 3175,
      "imodal": 3176,
      "Ġdemo": 3177,
      "usion": 3178,
      "Ġcompli": 3179,
      "Ġversion": 3180,
      "thank": 3181,
      "Ġalph": 3182,
      "ight": 3183,
      "Ġcomputations": 3184,
      "Ġuser": 3185,
      "Ġsegmentation": 3186,
      "com": 3187,
      "Ġdistill": 3188,
      "Ġprevention": 3189,
      "Ġabst": 3190,
      "Ġresearch": 3191,
      "ensive": 3192,
      "iness": 3193,
      "Ġyour": 3194,
      "Ġimag": 3195,
      "Ġevaluation": 3196,
      "Ġidentify": 3197,
      "Ġphase": 3198,
      "phras": 3199,
      "Ġfundamentals": 3200,
      "search": 3201,
      "Ġmathematics": 3202,
      "Ġfocused": 3203,
      "Ġdiscover": 3204,
      "Ġquestion": 3205,
      "Ġdocument": 3206,
      "Ġassistant": 3207,
      "www": 3208,
      "Ġcomprehensive": 3209,
      "Ġaims": 3210,
      "Ġsafety": 3211,
      "Ġpopular": 3212,
      "Ġcompliance": 3213,
      "Ġalphabetical": 3214,
      "Ġdistillation": 3215,
      "\"]": 3216,
      "):": 3217,
      "bl": 3218,
      "cle": 3219,
      "day": 3220,
      "dund": 3221,
      "early": 3222,
      "ium": 3223,
      "jority": 3224,
      "rics": 3225,
      "tot": 3226,
      "vance": 3227,
      "vels": 3228,
      "yz": 3229,
      "Ġ5": 3230,
      "Ġav": 3231,
      "Ġaug": 3232,
      "Ġsure": 3233,
      "Ġthous": 3234,
      "Ġdivers": 3235,
      "Ġcust": 3236,
      "Ġpip": 3237,
      "Ġmar": 3238,
      "itimate": 3239,
      "Ġfacing": 3240,
      "ctive": 3241,
      "Ġovers": 3242,
      "Ġlic": 3243,
      "Ġgive": 3244,
      "Ġtoday": 3245,
      "Ġrely": 3246,
      "Ġremo": 3247,
      "Ġredund": 3248,
      "dio": 3249,
      "izers": 3250,
      "Ġcore": 3251,
      "Ġcoco": 3252,
      "Ġexample": 3253,
      "Ġlevel": 3254,
      "Ġlevels": 3255,
      "Ġstart": 3256,
      "image": 3257,
      "Ġdealing": 3258,
      "Ġdeactiv": 3259,
      "agating": 3260,
      "Ġisn": 3261,
      "Ġcompare": 3262,
      "Ġcompression": 3263,
      "Ġneed": 3264,
      "ths": 3265,
      "this": 3266,
      "Ġright": 3267,
      "Ġpredef": 3268,
      "Ġmajority": 3269,
      "Ġadvance": 3270,
      "ript": 3271,
      "Ġparts": 3272,
      "Ġunders": 3273,
      "Ġaccur": 3274,
      "ands": 3275,
      "Ġprevented": 3276,
      "antization": 3277,
      "Ġconvert": 3278,
      "ensing": 3279,
      "Ġmultimodal": 3280,
      "Ġnot": 3281,
      "Ġsimply": 3282,
      "Ġoptimizers": 3283,
      "Ġrepresentation": 3284,
      "Ġminority": 3285,
      "Ġapplies": 3286,
      "embedding": 3287,
      "Ġbackward": 3288,
      "Ġsoftware": 3289,
      "Ġcontrol": 3290,
      "Ġquantization": 3291,
      "Ġlogic": 3292,
      "Ġrole": 3293,
      "Ġmanual": 3294,
      "iminating": 3295,
      "Ġlabel": 3296,
      "Ġpropagating": 3297,
      "Ġscen": 3298,
      "Ġanalyz": 3299,
      "Ġcollect": 3300,
      "Ġcalled": 3301,
      "Ġfilter": 3302,
      "residual": 3303,
      "Ġcalculate": 3304,
      "Ġeliminating": 3305,
      "Ġ[\"": 3306,
      "Ġemail": 3307,
      "Ġextracts": 3308,
      "etymology": 3309,
      "-------": 3310,
      "Ġpruning": 3311,
      "Ġmetrics": 3312,
      "Ġmedical": 3313,
      "Ġlegitimate": 3314,
      "Ġimbalanced": 3315,
      "Ġstandards": 3316,
      "months": 3317,
      "orpor": 3318,
      "Ġabstract": 3319,
      "Ġimagenet": 3320,
      "Ġdocumentation": 3321,
      "blog": 3322,
      "total": 3323,
      "Ġaugmentation": 3324,
      "Ġthousands": 3325,
      "Ġdiverse": 3326,
      "Ġcustom": 3327,
      "Ġpipel": 3328,
      "Ġmark": 3329,
      "Ġoversampling": 3330,
      "Ġlicensing": 3331,
      "Ġremove": 3332,
      "Ġredundant": 3333,
      "Ġdeactivates": 3334,
      "Ġcompares": 3335,
      "Ġpredefined": 3336,
      "Ġadvanced": 3337,
      "Ġundersampling": 3338,
      "Ġaccurate": 3339,
      "Ġanalyzing": 3340,
      "03": 3341,
      "10": 3342,
      "59": 3343,
      "95": 3344,
      "action": 3345,
      "acy": 3346,
      "br": 3347,
      "bu": 3348,
      "bin": 3349,
      "bpp": 3350,
      "ci": 3351,
      "dl": 3352,
      "dits": 3353,
      "eech": 3354,
      "fs": 3355,
      "from": 3356,
      "faction": 3357,
      "hance": 3358,
      "liness": 3359,
      "med": 3360,
      "nth": 3361,
      "py": 3362,
      "ratch": 3363,
      "su": 3364,
      "tw": 3365,
      "tent": 3366,
      "tect": 3367,
      "wag": 3368,
      "ym": 3369,
      "Ġ6": 3370,
      "Ġ>": 3371,
      "Ġ{": 3372,
      "Ġ}": 3373,
      "init": 3374,
      "Ġtesting": 3375,
      "ativeness": 3376,
      "onym": 3377,
      "represent": 3378,
      "require": 3379,
      "remental": 3380,
      "ioning": 3381,
      "ories": 3382,
      "organ": 3383,
      "Ġded": 3384,
      "Ġdial": 3385,
      "Ġdupl": 3386,
      "Ġcase": 3387,
      "Ġcorpor": 3388,
      "Ġpol": 3389,
      "Ġprin": 3390,
      "ancial": 3391,
      "anliness": 3392,
      "Ġmbpp": 3393,
      "Ġfra": 3394,
      "Ġfusion": 3395,
      "isfaction": 3396,
      "Ġbus": 3397,
      "Ġelect": 3398,
      "Ġgather": 3399,
      "Ġglue": 3400,
      "Ġrest": 3401,
      "Ġrefer": 3402,
      "Ġrephras": 3403,
      "icy": 3404,
      "divers": 3405,
      "Ġprotect": 3406,
      "aswag": 3407,
      "ivacy": 3408,
      "Ġhell": 3409,
      "ables": 3410,
      "Ġstack": 3411,
      "ild": 3412,
      "ples": 3413,
      "Ġenhance": 3414,
      "agement": 3415,
      "Ġprepro": 3416,
      "rictions": 3417,
      "Ġarc": 3418,
      "pport": 3419,
      "deployment": 3420,
      "cessing": 3421,
      "ductive": 3422,
      "arios": 3423,
      "omics": 3424,
      "ositories": 3425,
      "Ġregul": 3426,
      "Ġchem": 3427,
      "content": 3428,
      "ientific": 3429,
      "olution": 3430,
      "reasoning": 3431,
      "Ġsquad": 3432,
      "Ġlibr": 3433,
      "Ġminimum": 3434,
      "Ġdefinit": 3435,
      "ogue": 3436,
      "Ġ12": 3437,
      "Ġcontinual": 3438,
      "Ġhumaneval": 3439,
      "Ġlogs": 3440,
      "Ġlogical": 3441,
      "Ġstrategy": 3442,
      "Ġfinancial": 3443,
      "Ġjav": 3444,
      "Ġsatisfaction": 3445,
      "Ġmanagement": 3446,
      "Ġfeedback": 3447,
      "dataset": 3448,
      "Ġscientific": 3449,
      "Ġheaps": 3450,
      "erglue": 3451,
      "scratch": 3452,
      "Ġsense": 3453,
      "Ġparaphras": 3454,
      "Ġclean": 3455,
      "Ġpractices": 3456,
      "Ġrobustness": 3457,
      "Ġsuperglue": 3458,
      "Ġcaptioning": 3459,
      "Ġcalculus": 3460,
      "Ġbasic": 3461,
      "Ġconsiderations": 3462,
      "transformer": 3463,
      "Ġdiffusion": 3464,
      "Ġenvironments": 3465,
      "Ġenvironmental": 3466,
      "Ġsocial": 3467,
      "Ġrepositories": 3468,
      "Ġrisk": 3469,
      "Ġvideo": 3470,
      "Ġgraphs": 3471,
      "Ġaudio": 3472,
      "Ġaudits": 3473,
      "Ġprivacy": 3474,
      "Ġmeta": 3475,
      "Ġlegal": 3476,
      "```": 3477,
      "Ġannotations": 3478,
      "\"],": 3479,
      "cleanliness": 3480,
      "Ġavoid": 3481,
      "Ġscenarios": 3482,
      "Ġfiltering": 3483,
      "Ġpipeline": 3484,
      "build": 3485,
      "binary": 3486,
      "ciples": 3487,
      "medium": 3488,
      "support": 3489,
      "twig": 3490,
      "representativeness": 3491,
      "requirements": 3492,
      "organic": 3493,
      "Ġdedu": 3494,
      "Ġdialogue": 3495,
      "Ġduplicates": 3496,
      "Ġcorpora": 3497,
      "Ġpolicy": 3498,
      "Ġprinciples": 3499,
      "Ġbusiness": 3500,
      "Ġrestrictions": 3501,
      "Ġreferences": 3502,
      "Ġrephrased": 3503,
      "diversity": 3504,
      "Ġprotection": 3505,
      "Ġhellaswag": 3506,
      "Ġenhancement": 3507,
      "Ġpreprocessing": 3508,
      "Ġdefinitions": 3509,
      "Ġparaphrasing": 3510
    },
    "merges": [
      [
        "i",
        "n"
      ],
      [
        "Ġ",
        "t"
      ],
      [
        "a",
        "t"
      ],
      [
        "o",
        "n"
      ],
      [
        "e",
        "n"
      ],
      [
        "Ġ",
        "a"
      ],
      [
        "in",
        "g"
      ],
      [
        "e",
        "r"
      ],
      [
        "r",
        "e"
      ],
      [
        "Ġ",
        "s"
      ],
      [
        "i",
        "on"
      ],
      [
        "a",
        "l"
      ],
      [
        "e",
        "s"
      ],
      [
        "o",
        "r"
      ],
      [
        "Ġt",
        "h"
      ],
      [
        "Ġ",
        "d"
      ],
      [
        "Ġ",
        "c"
      ],
      [
        "Ġ",
        "p"
      ],
      [
        "a",
        "n"
      ],
      [
        "r",
        "o"
      ],
      [
        "Ġ",
        "m"
      ],
      [
        "i",
        "t"
      ],
      [
        "l",
        "e"
      ],
      [
        "a",
        "r"
      ],
      [
        "Ġ",
        "in"
      ],
      [
        "Ġ",
        "f"
      ],
      [
        "en",
        "t"
      ],
      [
        "c",
        "t"
      ],
      [
        "i",
        "s"
      ],
      [
        "r",
        "a"
      ],
      [
        "Ġ",
        "n"
      ],
      [
        "at",
        "ion"
      ],
      [
        "e",
        "t"
      ],
      [
        "Ġ",
        "o"
      ],
      [
        "u",
        "t"
      ],
      [
        "Ġth",
        "e"
      ],
      [
        "Ġ",
        "b"
      ],
      [
        "c",
        "e"
      ],
      [
        "Ġ",
        "l"
      ],
      [
        "Ġ",
        "w"
      ],
      [
        "Ġa",
        "n"
      ],
      [
        "Ġ",
        "e"
      ],
      [
        "Ġ",
        "g"
      ],
      [
        "Ġt",
        "o"
      ],
      [
        "Ġ",
        "re"
      ],
      [
        "i",
        "c"
      ],
      [
        "Ġan",
        "d"
      ],
      [
        "m",
        "p"
      ],
      [
        "u",
        "r"
      ],
      [
        "e",
        "d"
      ],
      [
        "c",
        "h"
      ],
      [
        "e",
        "l"
      ],
      [
        "d",
        "i"
      ],
      [
        "Ġo",
        "f"
      ],
      [
        "i",
        "z"
      ],
      [
        "Ġp",
        "ro"
      ],
      [
        "Ġc",
        "o"
      ],
      [
        "i",
        "g"
      ],
      [
        "a",
        "in"
      ],
      [
        "a",
        "s"
      ],
      [
        "i",
        "v"
      ],
      [
        "Ġe",
        "x"
      ],
      [
        "Ġ",
        "le"
      ],
      [
        "u",
        "n"
      ],
      [
        "ar",
        "n"
      ],
      [
        "Ġc",
        "on"
      ],
      [
        "Ġle",
        "arn"
      ],
      [
        "Ġ",
        "h"
      ],
      [
        "Ġg",
        "ra"
      ],
      [
        "a",
        "b"
      ],
      [
        "Ġs",
        "t"
      ],
      [
        "er",
        "s"
      ],
      [
        "e",
        "ct"
      ],
      [
        "i",
        "l"
      ],
      [
        "p",
        "l"
      ],
      [
        "Ġm",
        "e"
      ],
      [
        "et",
        "w"
      ],
      [
        "i",
        "m"
      ],
      [
        "di",
        "ent"
      ],
      [
        "or",
        "m"
      ],
      [
        "Ġd",
        "e"
      ],
      [
        "u",
        "re"
      ],
      [
        "Ġgra",
        "dient"
      ],
      [
        "Ġ",
        "en"
      ],
      [
        "Ġlearn",
        "ing"
      ],
      [
        "i",
        "al"
      ],
      [
        "u",
        "l"
      ],
      [
        "a",
        "g"
      ],
      [
        "en",
        "ce"
      ],
      [
        "u",
        "s"
      ],
      [
        "Ġ",
        "is"
      ],
      [
        "Ġco",
        "mp"
      ],
      [
        "or",
        "k"
      ],
      [
        "etw",
        "ork"
      ],
      [
        "Ġn",
        "e"
      ],
      [
        "Ġw",
        "h"
      ],
      [
        "Ġth",
        "is"
      ],
      [
        "ct",
        "ion"
      ],
      [
        "it",
        "y"
      ],
      [
        "Ġ",
        "v"
      ],
      [
        "Ġn",
        "etwork"
      ],
      [
        "l",
        "y"
      ],
      [
        "Ġf",
        "or"
      ],
      [
        "ra",
        "in"
      ],
      [
        "o",
        "d"
      ],
      [
        "i",
        "f"
      ],
      [
        "Ġex",
        "pl"
      ],
      [
        "Ġb",
        "y"
      ],
      [
        "v",
        "er"
      ],
      [
        "Ġin",
        "t"
      ],
      [
        "q",
        "u"
      ],
      [
        "o",
        "w"
      ],
      [
        "t",
        "h"
      ],
      [
        "it",
        "h"
      ],
      [
        "iz",
        "ation"
      ],
      [
        "c",
        "es"
      ],
      [
        "p",
        "ut"
      ],
      [
        "Ġ",
        "r"
      ],
      [
        "in",
        "e"
      ],
      [
        "Ġne",
        "ur"
      ],
      [
        "i",
        "d"
      ],
      [
        "Ġp",
        "re"
      ],
      [
        "rain",
        "ing"
      ],
      [
        "a",
        "y"
      ],
      [
        "Ġa",
        "l"
      ],
      [
        "ig",
        "h"
      ],
      [
        "an",
        "g"
      ],
      [
        "at",
        "es"
      ],
      [
        "an",
        "s"
      ],
      [
        "Ġt",
        "raining"
      ],
      [
        "p",
        "t"
      ],
      [
        "u",
        "m"
      ],
      [
        "at",
        "e"
      ],
      [
        "s",
        "t"
      ],
      [
        "iv",
        "e"
      ],
      [
        "Ġm",
        "a"
      ],
      [
        "o",
        "l"
      ],
      [
        "s",
        "s"
      ],
      [
        "Ġa",
        "d"
      ],
      [
        "Ġexpl",
        "ain"
      ],
      [
        "r",
        "i"
      ],
      [
        "Ġd",
        "at"
      ],
      [
        "f",
        "orm"
      ],
      [
        "Ġ",
        "or"
      ],
      [
        "Ġen",
        "ab"
      ],
      [
        "Ġd",
        "et"
      ],
      [
        "Ġth",
        "at"
      ],
      [
        "Ġp",
        "ar"
      ],
      [
        "a",
        "m"
      ],
      [
        "Ġf",
        "un"
      ],
      [
        "ion",
        "s"
      ],
      [
        "Ġdat",
        "a"
      ],
      [
        "e",
        "p"
      ],
      [
        "Ġ",
        "un"
      ],
      [
        "Ġenab",
        "l"
      ],
      [
        "Ġfun",
        "ction"
      ],
      [
        "ro",
        "p"
      ],
      [
        "if",
        "ic"
      ],
      [
        "el",
        "l"
      ],
      [
        "m",
        "m"
      ],
      [
        "Ġl",
        "o"
      ],
      [
        "is",
        "t"
      ],
      [
        "Ġin",
        "put"
      ],
      [
        "Ġgradient",
        "s"
      ],
      [
        "t",
        "s"
      ],
      [
        "m",
        "s"
      ],
      [
        "Ġa",
        "r"
      ],
      [
        "Ġl",
        "ay"
      ],
      [
        "Ġnetwork",
        "s"
      ],
      [
        "Ġm",
        "od"
      ],
      [
        "Ġs",
        "y"
      ],
      [
        "p",
        "p"
      ],
      [
        "f",
        "f"
      ],
      [
        "u",
        "ag"
      ],
      [
        "ang",
        "uag"
      ],
      [
        "Ġcomp",
        "ut"
      ],
      [
        "e",
        "igh"
      ],
      [
        "Ġl",
        "anguag"
      ],
      [
        "Ġw",
        "ith"
      ],
      [
        "Ġmod",
        "el"
      ],
      [
        "Ġ",
        "us"
      ],
      [
        "a",
        "il"
      ],
      [
        "ro",
        "m"
      ],
      [
        "Ġf",
        "rom"
      ],
      [
        "ro",
        "u"
      ],
      [
        "an",
        "ce"
      ],
      [
        "Ġneur",
        "al"
      ],
      [
        "Ġdet",
        "ail"
      ],
      [
        "Ġ",
        "("
      ],
      [
        "at",
        "ure"
      ],
      [
        "ri",
        "b"
      ],
      [
        "d",
        "e"
      ],
      [
        "ic",
        "al"
      ],
      [
        "il",
        "ity"
      ],
      [
        "Ġw",
        "eigh"
      ],
      [
        "o",
        "ut"
      ],
      [
        "Ġa",
        "c"
      ],
      [
        "i",
        "mp"
      ],
      [
        "g",
        "h"
      ],
      [
        "Ġ",
        "it"
      ],
      [
        "am",
        "et"
      ],
      [
        "n",
        "ect"
      ],
      [
        "Ġcon",
        "t"
      ],
      [
        "Ġth",
        "rou"
      ],
      [
        "Ġthrou",
        "gh"
      ],
      [
        "Ġde",
        "c"
      ],
      [
        "r",
        "u"
      ],
      [
        "at",
        "ing"
      ],
      [
        "o",
        "re"
      ],
      [
        "Ġs",
        "e"
      ],
      [
        "Ġpar",
        "amet"
      ],
      [
        "Ġad",
        "d"
      ],
      [
        "i",
        "le"
      ],
      [
        "l",
        "u"
      ],
      [
        "Ġwh",
        "ile"
      ],
      [
        "ces",
        "s"
      ],
      [
        "Ġs",
        "p"
      ],
      [
        "ce",
        "pt"
      ],
      [
        "ion",
        "al"
      ],
      [
        "en",
        "er"
      ],
      [
        "Ġenabl",
        "es"
      ],
      [
        "Ġlanguag",
        "e"
      ],
      [
        "i",
        "re"
      ],
      [
        "es",
        "c"
      ],
      [
        "ab",
        "ility"
      ],
      [
        "Ġpro",
        "cess"
      ],
      [
        "al",
        "ization"
      ],
      [
        "at",
        "ch"
      ],
      [
        "ell",
        "ig"
      ],
      [
        "Ġpre",
        "v"
      ],
      [
        "d",
        "u"
      ],
      [
        "an",
        "d"
      ],
      [
        "Ġg",
        "ener"
      ],
      [
        "ellig",
        "ence"
      ],
      [
        "Ġme",
        "ans"
      ],
      [
        "o",
        "s"
      ],
      [
        "Ġpro",
        "b"
      ],
      [
        "a",
        "re"
      ],
      [
        "Ġa",
        "ct"
      ],
      [
        "ar",
        "i"
      ],
      [
        "Ġint",
        "elligence"
      ],
      [
        "w",
        "h"
      ],
      [
        "Ġal",
        "l"
      ],
      [
        "Ġt",
        "e"
      ],
      [
        "er",
        "m"
      ],
      [
        "v",
        "e"
      ],
      [
        "Ġ",
        "on"
      ],
      [
        "a",
        "x"
      ],
      [
        "c",
        "o"
      ],
      [
        "wh",
        "at"
      ],
      [
        "g",
        "or"
      ],
      [
        "c",
        "al"
      ],
      [
        "Ġma",
        "ch"
      ],
      [
        "Ġn",
        "orm"
      ],
      [
        "at",
        "t"
      ],
      [
        "u",
        "p"
      ],
      [
        "v",
        "ing"
      ],
      [
        "ation",
        "s"
      ],
      [
        "Ġd",
        "ist"
      ],
      [
        "Ġprev",
        "ent"
      ],
      [
        "gor",
        "ith"
      ],
      [
        "Ġpre",
        "di"
      ],
      [
        "Ġo",
        "ver"
      ],
      [
        "Ġex",
        "p"
      ],
      [
        "Ġal",
        "gorith"
      ],
      [
        "o",
        "m"
      ],
      [
        "p",
        "re"
      ],
      [
        "Ġneur",
        "on"
      ],
      [
        "i",
        "p"
      ],
      [
        "Ġst",
        "ep"
      ],
      [
        "Ġlay",
        "ers"
      ],
      [
        "it",
        "ial"
      ],
      [
        "Ġin",
        "itial"
      ],
      [
        "os",
        "it"
      ],
      [
        "Ġint",
        "er"
      ],
      [
        "th",
        "e"
      ],
      [
        "Ġa",
        "b"
      ],
      [
        "e",
        "x"
      ],
      [
        "ar",
        "g"
      ],
      [
        "e",
        "m"
      ],
      [
        "Ġme",
        "an"
      ],
      [
        "f",
        "er"
      ],
      [
        "Ġin",
        "c"
      ],
      [
        "Ġb",
        "e"
      ],
      [
        "Ġf",
        "e"
      ],
      [
        "Ġp",
        "er"
      ],
      [
        "le",
        "x"
      ],
      [
        "Ġlo",
        "ss"
      ],
      [
        "t",
        "ain"
      ],
      [
        "Ġinput",
        "s"
      ],
      [
        "Ġt",
        "r"
      ],
      [
        "g",
        "ra"
      ],
      [
        "rib",
        "ut"
      ],
      [
        "Ġdist",
        "ribut"
      ],
      [
        "an",
        "t"
      ],
      [
        "Ġact",
        "iv"
      ],
      [
        "ent",
        "ial"
      ],
      [
        "Ġtr",
        "ans"
      ],
      [
        "Ġcon",
        "nect"
      ],
      [
        "Ġc",
        "an"
      ],
      [
        "Ġwh",
        "en"
      ],
      [
        "t",
        "ific"
      ],
      [
        "tific",
        "ial"
      ],
      [
        "c",
        "ur"
      ],
      [
        "an",
        "is"
      ],
      [
        "Ġm",
        "ain"
      ],
      [
        "n",
        "s"
      ],
      [
        "Ġcon",
        "cept"
      ],
      [
        "Ġmain",
        "tain"
      ],
      [
        "ure",
        "s"
      ],
      [
        "Ġo",
        "ut"
      ],
      [
        "Ġre",
        "s"
      ],
      [
        "Ġh",
        "a"
      ],
      [
        "g",
        "ence"
      ],
      [
        "ro",
        "ss"
      ],
      [
        "Ġcon",
        "ver"
      ],
      [
        "Ġa",
        "re"
      ],
      [
        "Ġa",
        "pp"
      ],
      [
        "en",
        "s"
      ],
      [
        "ru",
        "ct"
      ],
      [
        "Ġprevent",
        "ing"
      ],
      [
        "Ġb",
        "i"
      ],
      [
        "Ġe",
        "ff"
      ],
      [
        "Ġte",
        "mp"
      ],
      [
        "Ġv",
        "ari"
      ],
      [
        "Ġb",
        "atch"
      ],
      [
        "ul",
        "t"
      ],
      [
        "Ġl",
        "arg"
      ],
      [
        "Ġar",
        "tificial"
      ],
      [
        "e",
        "en"
      ],
      [
        "Ġ",
        "imp"
      ],
      [
        "Ġs",
        "iz"
      ],
      [
        "Ġweigh",
        "ts"
      ],
      [
        "Ġab",
        "out"
      ],
      [
        "Ġmach",
        "ine"
      ],
      [
        "as",
        "s"
      ],
      [
        "Ġh",
        "igh"
      ],
      [
        "a",
        "ch"
      ],
      [
        "Ġcomp",
        "lex"
      ],
      [
        "t",
        "ing"
      ],
      [
        "Ġre",
        "g"
      ],
      [
        "Ġ",
        "k"
      ],
      [
        "Ġactiv",
        "ation"
      ],
      [
        "Ġs",
        "u"
      ],
      [
        "Ġc",
        "l"
      ],
      [
        "i",
        "es"
      ],
      [
        "Ġout",
        "put"
      ],
      [
        "n",
        "t"
      ],
      [
        "nt",
        "ax"
      ],
      [
        "Ġd",
        "esc"
      ],
      [
        "l",
        "er"
      ],
      [
        "in",
        "es"
      ],
      [
        "Ġ",
        "up"
      ],
      [
        "Ġb",
        "etw"
      ],
      [
        "Ġup",
        "d"
      ],
      [
        "Ġbetw",
        "een"
      ],
      [
        "=",
        "="
      ],
      [
        "Ġsy",
        "st"
      ],
      [
        "d",
        "ers"
      ],
      [
        "t",
        "and"
      ],
      [
        "ders",
        "tand"
      ],
      [
        "ur",
        "ing"
      ],
      [
        "Ġsy",
        "ntax"
      ],
      [
        "Ġun",
        "derstand"
      ],
      [
        "Ġcomput",
        "ation"
      ],
      [
        "Ġc",
        "h"
      ],
      [
        "le",
        "m"
      ],
      [
        "Ġexp",
        "on"
      ],
      [
        "ul",
        "ar"
      ],
      [
        "Ġconver",
        "gence"
      ],
      [
        "x",
        "im"
      ],
      [
        "Ġneuron",
        "s"
      ],
      [
        "Ġd",
        "uring"
      ],
      [
        "Ġgener",
        "alization"
      ],
      [
        "Ġconnect",
        "ions"
      ],
      [
        "Ġparamet",
        "ers"
      ],
      [
        "c",
        "on"
      ],
      [
        "Ġse",
        "qu"
      ],
      [
        "at",
        "ive"
      ],
      [
        "Ġh",
        "ow"
      ],
      [
        "Ġus",
        "ing"
      ],
      [
        "Ġha",
        "ve"
      ],
      [
        "er",
        "ature"
      ],
      [
        "Ġtemp",
        "erature"
      ],
      [
        "Ġs",
        "ig"
      ],
      [
        "as",
        "t"
      ],
      [
        "Ġlay",
        "er"
      ],
      [
        "i",
        "ent"
      ],
      [
        "y",
        "th"
      ],
      [
        "Ġdec",
        "ay"
      ],
      [
        "Ġd",
        "ire"
      ],
      [
        "Ġtrans",
        "form"
      ],
      [
        "yth",
        "on"
      ],
      [
        "o",
        "us"
      ],
      [
        "v",
        "id"
      ],
      [
        "n",
        "e"
      ],
      [
        "Ġs",
        "m"
      ],
      [
        "l",
        "ow"
      ],
      [
        "c",
        "k"
      ],
      [
        "Ġs",
        "h"
      ],
      [
        "mm",
        "ar"
      ],
      [
        "Ġpro",
        "vid"
      ],
      [
        "Ġapp",
        "ro"
      ],
      [
        "Ġc",
        "re"
      ],
      [
        "Ġm",
        "ult"
      ],
      [
        "Ġ",
        "z"
      ],
      [
        "as",
        "k"
      ],
      [
        "d",
        "en"
      ],
      [
        "Ġn",
        "o"
      ],
      [
        "Ġre",
        "lu"
      ],
      [
        "Ġdistribut",
        "ions"
      ],
      [
        "Ġfe",
        "ature"
      ],
      [
        "Ġalgorith",
        "m"
      ],
      [
        "Ġno",
        "is"
      ],
      [
        "Ġd",
        "o"
      ],
      [
        "Ġd",
        "if"
      ],
      [
        "Ġexpon",
        "ential"
      ],
      [
        "Ġgra",
        "mmar"
      ],
      [
        "Ġimp",
        "ro"
      ],
      [
        "ical",
        "ly"
      ],
      [
        "al",
        "iz"
      ],
      [
        "Ġweigh",
        "t"
      ],
      [
        "Ġp",
        "ython"
      ],
      [
        "Ġdif",
        "fer"
      ],
      [
        "Ġp",
        "osit"
      ],
      [
        "Ġ",
        "="
      ],
      [
        "Ġenabl",
        "ing"
      ],
      [
        "Ġper",
        "form"
      ],
      [
        "y",
        "p"
      ],
      [
        "Ġ",
        "q"
      ],
      [
        "Ġin",
        "form"
      ],
      [
        "Ġinform",
        "ation"
      ],
      [
        "i",
        "r"
      ],
      [
        "Ġst",
        "ruct"
      ],
      [
        "Ġa",
        "s"
      ],
      [
        "ction",
        "s"
      ],
      [
        "Ġcl",
        "ass"
      ],
      [
        "Ġz",
        "er"
      ],
      [
        "ent",
        "rop"
      ],
      [
        "entrop",
        "y"
      ],
      [
        "Ġs",
        "imp"
      ],
      [
        "m",
        "a"
      ],
      [
        "s",
        "ent"
      ],
      [
        "Ġnois",
        "e"
      ],
      [
        "ific",
        "ation"
      ],
      [
        "Ġr",
        "ate"
      ],
      [
        "or",
        "d"
      ],
      [
        "Ġde",
        "ep"
      ],
      [
        "are",
        "d"
      ],
      [
        "Ġinc",
        "lu"
      ],
      [
        "Ġreg",
        "ular"
      ],
      [
        "c",
        "ing"
      ],
      [
        "k",
        "e"
      ],
      [
        "Ġpro",
        "gra"
      ],
      [
        "Ġeff",
        "ect"
      ],
      [
        "ol",
        "ut"
      ],
      [
        "Ġde",
        "p"
      ],
      [
        "Ġprocess",
        "ing"
      ],
      [
        "Ġprob",
        "ability"
      ],
      [
        "Ġt",
        "yp"
      ],
      [
        "ic",
        "ient"
      ],
      [
        "Ġdesc",
        "ent"
      ],
      [
        "Ġe",
        "ach"
      ],
      [
        "Ġmodel",
        "s"
      ],
      [
        "u",
        "ra"
      ],
      [
        "l",
        "s"
      ],
      [
        "Ġme",
        "as"
      ],
      [
        "Ġsm",
        "al"
      ],
      [
        "re",
        "as"
      ],
      [
        "Ġb",
        "al"
      ],
      [
        "anis",
        "h"
      ],
      [
        "it",
        "ect"
      ],
      [
        "it",
        "ional"
      ],
      [
        "ch",
        "itect"
      ],
      [
        "Ġvari",
        "ance"
      ],
      [
        "mm",
        "ing"
      ],
      [
        "Ġar",
        "chitect"
      ],
      [
        "d",
        "ing"
      ],
      [
        "im",
        "e"
      ],
      [
        "Ġf",
        "ur"
      ],
      [
        "th",
        "erm"
      ],
      [
        "Ġit",
        "s"
      ],
      [
        "Ġfur",
        "therm"
      ],
      [
        "Ġfurtherm",
        "ore"
      ],
      [
        "Ġadd",
        "itional"
      ],
      [
        "Ġadditional",
        "ly"
      ],
      [
        "Ġclass",
        "ification"
      ],
      [
        "Ġde",
        "v"
      ],
      [
        "Ġs",
        "qu"
      ],
      [
        "ur",
        "al"
      ],
      [
        "ip",
        "le"
      ],
      [
        "Ġprogra",
        "mming"
      ],
      [
        "or",
        "s"
      ],
      [
        "Ġpredi",
        "ct"
      ],
      [
        "Ġt",
        "ime"
      ],
      [
        "Ġmult",
        "iple"
      ],
      [
        "a",
        "ck"
      ],
      [
        "c",
        "cur"
      ],
      [
        "Ġo",
        "ccur"
      ],
      [
        "Ġbi",
        "as"
      ],
      [
        "Ġco",
        "mm"
      ],
      [
        "Ġl",
        "i"
      ],
      [
        "Ġzer",
        "o"
      ],
      [
        "Ġs",
        "k"
      ],
      [
        "Ġnorm",
        "aliz"
      ],
      [
        "att",
        "er"
      ],
      [
        "Ġp",
        "atter"
      ],
      [
        "o",
        "u"
      ],
      [
        "Ġimpro",
        "ving"
      ],
      [
        "Ġpatter",
        "ns"
      ],
      [
        "el",
        "p"
      ],
      [
        "Ġappro",
        "xim"
      ],
      [
        "u",
        "al"
      ],
      [
        "Ġd",
        "is"
      ],
      [
        "Ġsp",
        "e"
      ],
      [
        "Ġlo",
        "cal"
      ],
      [
        "Ġli",
        "ke"
      ],
      [
        "p",
        "rop"
      ],
      [
        "es",
        "t"
      ],
      [
        "Ġmeas",
        "ures"
      ],
      [
        "Ġv",
        "ect"
      ],
      [
        "Ġus",
        "es"
      ],
      [
        "ar",
        "d"
      ],
      [
        "Ġv",
        "al"
      ],
      [
        "Ġo",
        "pt"
      ],
      [
        "Ġopt",
        "im"
      ],
      [
        "a",
        "mp"
      ],
      [
        "n",
        "ow"
      ],
      [
        "u",
        "le"
      ],
      [
        "Ġ",
        "at"
      ],
      [
        "Ġnorm",
        "alization"
      ],
      [
        "Ġk",
        "now"
      ],
      [
        "ag",
        "es"
      ],
      [
        "co",
        "ura"
      ],
      [
        "Ġdo",
        "es"
      ],
      [
        "coura",
        "g"
      ],
      [
        "Ġeffect",
        "ive"
      ],
      [
        "p",
        "er"
      ],
      [
        "ic",
        "ation"
      ],
      [
        "Ġinitial",
        "ization"
      ],
      [
        "a",
        "ct"
      ],
      [
        "Ġ",
        "y"
      ],
      [
        "pre",
        "sent"
      ],
      [
        "pp",
        "ing"
      ],
      [
        "Ġre",
        "present"
      ],
      [
        "ic",
        "s"
      ],
      [
        "du",
        "ces"
      ],
      [
        "er",
        "e"
      ],
      [
        "Ġsiz",
        "e"
      ],
      [
        "ent",
        "ion"
      ],
      [
        "Ġto",
        "k"
      ],
      [
        "att",
        "ention"
      ],
      [
        "Ġm",
        "at"
      ],
      [
        "le",
        "d"
      ],
      [
        "Ġwh",
        "ere"
      ],
      [
        "ex",
        "t"
      ],
      [
        "Ġupd",
        "ates"
      ],
      [
        "rib",
        "e"
      ],
      [
        "e",
        "ms"
      ],
      [
        "m",
        "b"
      ],
      [
        "er",
        "v"
      ],
      [
        "Ġlarg",
        "e"
      ],
      [
        "w",
        "ard"
      ],
      [
        "Ġm",
        "in"
      ],
      [
        "Ġsyst",
        "ems"
      ],
      [
        "un",
        "ing"
      ],
      [
        "Ġen",
        "s"
      ],
      [
        "um",
        "ul"
      ],
      [
        "Ġac",
        "c"
      ],
      [
        "Ġtransform",
        "ers"
      ],
      [
        "Ġprob",
        "lem"
      ],
      [
        "Ġall",
        "ow"
      ],
      [
        "rop",
        "out"
      ],
      [
        "Ġmin",
        "im"
      ],
      [
        "Ġperform",
        "ance"
      ],
      [
        "Ġre",
        "f"
      ],
      [
        "t",
        "er"
      ],
      [
        "nect",
        "ed"
      ],
      [
        "Ġinter",
        "con"
      ],
      [
        "Ġintercon",
        "nected"
      ],
      [
        "Ġm",
        "it"
      ],
      [
        "Ġf",
        "low"
      ],
      [
        "Ġmit",
        "ig"
      ],
      [
        ")",
        "."
      ],
      [
        "Ġs",
        "ch"
      ],
      [
        "Ġsch",
        "ed"
      ],
      [
        "Ġc",
        "a"
      ],
      [
        "Ġf",
        "i"
      ],
      [
        "Ġv",
        "anish"
      ],
      [
        "p",
        "pl"
      ],
      [
        "Ġfunction",
        "s"
      ],
      [
        "Ġa",
        "ppl"
      ],
      [
        "Ġex",
        "ce"
      ],
      [
        "Ġy",
        "ou"
      ],
      [
        "Ġvanish",
        "ing"
      ],
      [
        "Ġa",
        "ver"
      ],
      [
        "em",
        "b"
      ],
      [
        "en",
        "ces"
      ],
      [
        "le",
        "v"
      ],
      [
        "i",
        "ce"
      ],
      [
        "Ġarchitect",
        "ure"
      ],
      [
        "Ġst",
        "ability"
      ],
      [
        "Ġdep",
        "en"
      ],
      [
        "Ġ",
        "im"
      ],
      [
        "Ġs",
        "im"
      ],
      [
        "Ġprovid",
        "ing"
      ],
      [
        "et",
        "s"
      ],
      [
        "Ġt",
        "ask"
      ],
      [
        "Ġparamet",
        "er"
      ],
      [
        "ar",
        "ity"
      ],
      [
        "i",
        "er"
      ],
      [
        "o",
        "t"
      ],
      [
        "Ġsqu",
        "ared"
      ],
      [
        "f",
        "it"
      ],
      [
        "om",
        "ent"
      ],
      [
        "Ġs",
        "cal"
      ],
      [
        "al",
        "ing"
      ],
      [
        "Ġ",
        "er"
      ],
      [
        "Ġer",
        "r"
      ],
      [
        "Ġde",
        "f"
      ],
      [
        "Ġr",
        "ates"
      ],
      [
        "Ġregular",
        "ization"
      ],
      [
        "od",
        "ing"
      ],
      [
        "el",
        "d"
      ],
      [
        "ru",
        "e"
      ],
      [
        "u",
        "e"
      ],
      [
        "id",
        "den"
      ],
      [
        "Ġh",
        "idden"
      ],
      [
        "al",
        "le"
      ],
      [
        "Ġst",
        "r"
      ],
      [
        "Ġpar",
        "alle"
      ],
      [
        "Ġparalle",
        "l"
      ],
      [
        "Ġfi",
        "eld"
      ],
      [
        "Ġspe",
        "c"
      ],
      [
        "Ġacc",
        "umul"
      ],
      [
        "h",
        "er"
      ],
      [
        "Ġexponential",
        "ly"
      ],
      [
        "Ġen",
        "courag"
      ],
      [
        "Ġpredi",
        "ctions"
      ],
      [
        "o",
        "g"
      ],
      [
        "Ġsp",
        "a"
      ],
      [
        "Ġlarg",
        "er"
      ],
      [
        "g",
        "ative"
      ],
      [
        "Ġne",
        "gative"
      ],
      [
        "Ġ",
        "*"
      ],
      [
        "qu",
        "ire"
      ],
      [
        "Ġdet",
        "erm"
      ],
      [
        "==",
        "=="
      ],
      [
        "er",
        "i"
      ],
      [
        "Ġm",
        "oment"
      ],
      [
        "ol",
        "og"
      ],
      [
        "Ġb",
        "ack"
      ],
      [
        "Ġint",
        "o"
      ],
      [
        "Ġ",
        "1"
      ],
      [
        "ar",
        "ch"
      ],
      [
        "Ġsu",
        "b"
      ],
      [
        "c",
        "an"
      ],
      [
        "o",
        "f"
      ],
      [
        "t",
        "ell"
      ],
      [
        "Ġalgorith",
        "ms"
      ],
      [
        "pl",
        "ain"
      ],
      [
        "ex",
        "plain"
      ],
      [
        "de",
        "f"
      ],
      [
        "fit",
        "ting"
      ],
      [
        ")",
        ")"
      ],
      [
        "ag",
        "ation"
      ],
      [
        "Ġmaintain",
        "ing"
      ],
      [
        "prop",
        "agation"
      ],
      [
        "Ġme",
        "ch"
      ],
      [
        "Ġfeature",
        "s"
      ],
      [
        "d",
        "esc"
      ],
      [
        "h",
        "elp"
      ],
      [
        "Ġw",
        "ant"
      ],
      [
        "Ġmean",
        "ing"
      ],
      [
        "def",
        "ine"
      ],
      [
        "desc",
        "ribe"
      ],
      [
        "j",
        "ect"
      ],
      [
        "Ġin",
        "st"
      ],
      [
        "Ġf",
        "orm"
      ],
      [
        "Ġstruct",
        "ure"
      ],
      [
        "Ġ",
        "ra"
      ],
      [
        "Ġsiz",
        "es"
      ],
      [
        "Ġexce",
        "ed"
      ],
      [
        "Ġover",
        "fitting"
      ],
      [
        "Ġtyp",
        "ically"
      ],
      [
        "Ġn",
        "um"
      ],
      [
        "Ġsig",
        "ma"
      ],
      [
        "Ġback",
        "propagation"
      ],
      [
        ")",
        ","
      ],
      [
        "Ġac",
        "ross"
      ],
      [
        "Ġdis",
        "c"
      ],
      [
        "Ġmech",
        "anis"
      ],
      [
        "Ġan",
        "ne"
      ],
      [
        "Ġcont",
        "in"
      ],
      [
        "Ġanne",
        "aling"
      ],
      [
        "a",
        "v"
      ],
      [
        "Ġd",
        "ropout"
      ],
      [
        "Ġcomput",
        "er"
      ],
      [
        "ent",
        "s"
      ],
      [
        "Ġre",
        "cept"
      ],
      [
        "Ġrecept",
        "ive"
      ],
      [
        "a",
        "k"
      ],
      [
        "Ġmechanis",
        "ms"
      ],
      [
        "Ġh",
        "um"
      ],
      [
        "Ġref",
        "ers"
      ],
      [
        "t",
        "uning"
      ],
      [
        "Ġf",
        "ine"
      ],
      [
        "osit",
        "ion"
      ],
      [
        "u",
        "ous"
      ],
      [
        "Ġcontin",
        "uous"
      ],
      [
        "n",
        "it"
      ],
      [
        "o",
        "p"
      ],
      [
        "Ġre",
        "l"
      ],
      [
        "Ġlanguag",
        "es"
      ],
      [
        "v",
        "olut"
      ],
      [
        "on",
        "g"
      ],
      [
        "Ġdiffer",
        "ence"
      ],
      [
        "Ġbal",
        "an"
      ],
      [
        "ang",
        "e"
      ],
      [
        "ri",
        "x"
      ],
      [
        "Ġmat",
        "rix"
      ],
      [
        "Ġmoment",
        "um"
      ],
      [
        "Ġr",
        "and"
      ],
      [
        "Ġr",
        "ule"
      ],
      [
        "Ġens",
        "emb"
      ],
      [
        "Ġrand",
        "om"
      ],
      [
        "Ġensemb",
        "le"
      ],
      [
        "Ġc",
        "ross"
      ],
      [
        "ul",
        "es"
      ],
      [
        "Ġminim",
        "iz"
      ],
      [
        "Ġim",
        "ages"
      ],
      [
        "pre",
        "t"
      ],
      [
        "Ġinter",
        "pret"
      ],
      [
        "Ġmitig",
        "ating"
      ],
      [
        "Ġhum",
        "an"
      ],
      [
        "ce",
        "ler"
      ],
      [
        "as",
        "ed"
      ],
      [
        "Ġac",
        "celer"
      ],
      [
        "Ġacceler",
        "ating"
      ],
      [
        "Ġsmal",
        "l"
      ],
      [
        "g",
        "e"
      ],
      [
        "Ġcomputation",
        "al"
      ],
      [
        "Ġpro",
        "per"
      ],
      [
        "er",
        "y"
      ],
      [
        "or",
        "re"
      ],
      [
        "el",
        "y"
      ],
      [
        "l",
        "ine"
      ],
      [
        "Ġre",
        "cur"
      ],
      [
        "led",
        "ge"
      ],
      [
        "v",
        "ari"
      ],
      [
        "Ġn",
        "on"
      ],
      [
        "line",
        "arity"
      ],
      [
        "r",
        "ic"
      ],
      [
        "r",
        "ent"
      ],
      [
        "Ġdec",
        "reas"
      ],
      [
        "at",
        "ist"
      ],
      [
        "Ġst",
        "atist"
      ],
      [
        "Ġknow",
        "ledge"
      ],
      [
        "k",
        "ing"
      ],
      [
        "id",
        "ual"
      ],
      [
        "l",
        "o"
      ],
      [
        "Ġs",
        "of"
      ],
      [
        "Ġres",
        "p"
      ],
      [
        "Ġsof",
        "t"
      ],
      [
        "Ġres",
        "idual"
      ],
      [
        "Ġsyst",
        "em"
      ],
      [
        "m",
        "ax"
      ],
      [
        "Ġs",
        "um"
      ],
      [
        "Ġstatist",
        "ics"
      ],
      [
        "Ġsoft",
        "max"
      ],
      [
        "d",
        "es"
      ],
      [
        "et",
        "ter"
      ],
      [
        "Ġb",
        "etter"
      ],
      [
        "Ġcomp",
        "osition"
      ],
      [
        "Ġcomplex",
        "ity"
      ],
      [
        "Ġca",
        "us"
      ],
      [
        "iv",
        "en"
      ],
      [
        "m",
        "o"
      ],
      [
        "Ġcont",
        "ain"
      ],
      [
        "Ġdiffer",
        "ent"
      ],
      [
        "is",
        "h"
      ],
      [
        "ff",
        "icient"
      ],
      [
        "ang",
        "es"
      ],
      [
        "Ġinterpret",
        "ed"
      ],
      [
        "at",
        "iv"
      ],
      [
        "Ġre",
        "lev"
      ],
      [
        "Ġ",
        "attention"
      ],
      [
        "le",
        "ct"
      ],
      [
        "Ġnum",
        "b"
      ],
      [
        "Ġcont",
        "ro"
      ],
      [
        "at",
        "ural"
      ],
      [
        "er",
        "iv"
      ],
      [
        "Ġd",
        "eriv"
      ],
      [
        "Ġb",
        "ut"
      ],
      [
        "Ġco",
        "de"
      ],
      [
        "Ġexp",
        "eri"
      ],
      [
        "Ġexperi",
        "ence"
      ],
      [
        "Ġcomm",
        "on"
      ],
      [
        "Ġdef",
        "ines"
      ],
      [
        "Ġcontro",
        "ls"
      ],
      [
        "Ġm",
        "ag"
      ],
      [
        "nit",
        "u"
      ],
      [
        "Ġmag",
        "nitu"
      ],
      [
        "Ġad",
        "a"
      ],
      [
        "Ġada",
        "pt"
      ],
      [
        "ab",
        "le"
      ],
      [
        "lem",
        "ents"
      ],
      [
        "Ġsequ",
        "ences"
      ],
      [
        "an",
        "ts"
      ],
      [
        "Ġsh",
        "are"
      ],
      [
        "re",
        "ss"
      ],
      [
        "Ġvect",
        "ors"
      ],
      [
        "es",
        "e"
      ],
      [
        "Ġth",
        "ese"
      ],
      [
        "Ġmach",
        "ines"
      ],
      [
        "Ġp",
        "en"
      ],
      [
        "Ġma",
        "p"
      ],
      [
        "Ġspa",
        "ce"
      ],
      [
        "o",
        "ving"
      ],
      [
        "Ġm",
        "oving"
      ],
      [
        "Ġv",
        "i"
      ],
      [
        "Ġexceed",
        "ing"
      ],
      [
        "orre",
        "ct"
      ],
      [
        "l",
        "es"
      ],
      [
        "Ġt",
        "rue"
      ],
      [
        "Ġvari",
        "ants"
      ],
      [
        "Ġsimp",
        "le"
      ],
      [
        "Ġtask",
        "s"
      ],
      [
        "is",
        "ion"
      ],
      [
        "Ġn",
        "atural"
      ],
      [
        "ce",
        "d"
      ],
      [
        "Ġtok",
        "ens"
      ],
      [
        "Ġrecur",
        "rent"
      ],
      [
        "m",
        "e"
      ],
      [
        "al",
        "t"
      ],
      [
        "Ġw",
        "ord"
      ],
      [
        "Ġeff",
        "icient"
      ],
      [
        "Ġsim",
        "ul"
      ],
      [
        "Ġpen",
        "alt"
      ],
      [
        "Ġ",
        "qu"
      ],
      [
        "ed",
        "ding"
      ],
      [
        "ol",
        "ving"
      ],
      [
        "Ġaver",
        "ag"
      ],
      [
        "Ġerr",
        "or"
      ],
      [
        "Ġe",
        "mb"
      ],
      [
        "Ġcon",
        "s"
      ],
      [
        "Ġlo",
        "g"
      ],
      [
        "Ġnormaliz",
        "ing"
      ],
      [
        "Ġemb",
        "edding"
      ],
      [
        "den",
        "c"
      ],
      [
        "Ġdepen",
        "denc"
      ],
      [
        "ate",
        "g"
      ],
      [
        "Ġadd",
        "s"
      ],
      [
        "Ġstr",
        "ateg"
      ],
      [
        "p",
        "id"
      ],
      [
        "Ġf",
        "ast"
      ],
      [
        "Ġra",
        "pid"
      ],
      [
        "Ġword",
        "s"
      ],
      [
        "Ġn",
        "erv"
      ],
      [
        "il",
        "ls"
      ],
      [
        "Ġsk",
        "ills"
      ],
      [
        "amp",
        "les"
      ],
      [
        "Ġpenalt",
        "y"
      ],
      [
        "Ġstrateg",
        "ies"
      ],
      [
        "Ġthe",
        "ore"
      ],
      [
        "Ġdire",
        "ct"
      ],
      [
        "Ġsk",
        "ip"
      ],
      [
        "Ġthe",
        "m"
      ],
      [
        "Ġun",
        "it"
      ],
      [
        "Ġus",
        "e"
      ],
      [
        "Ġoptim",
        "al"
      ],
      [
        "Ġd",
        "y"
      ],
      [
        "Ġoccur",
        "s"
      ],
      [
        "Ġnormaliz",
        "es"
      ],
      [
        "Ġf",
        "in"
      ],
      [
        "Ġappl",
        "y"
      ],
      [
        "Ġrelev",
        "ant"
      ],
      [
        "Ġre",
        "du"
      ],
      [
        "Ġrepresent",
        "ations"
      ],
      [
        "n",
        "ns"
      ],
      [
        "Ġ",
        "j"
      ],
      [
        "Ġpro",
        "du"
      ],
      [
        "9",
        "9"
      ],
      [
        "a",
        "co"
      ],
      [
        "b",
        "i"
      ],
      [
        "Ġ",
        "0"
      ],
      [
        "Ġinclu",
        "de"
      ],
      [
        "Ġj",
        "aco"
      ],
      [
        "Ġjaco",
        "bi"
      ],
      [
        "qu",
        "ir"
      ],
      [
        "quir",
        "ing"
      ],
      [
        "Ġre",
        "quire"
      ],
      [
        "Ġex",
        "t"
      ],
      [
        "Ġrandom",
        "ly"
      ],
      [
        "Ġm",
        "ask"
      ],
      [
        "Ġh",
        "ier"
      ],
      [
        "Ġcont",
        "ext"
      ],
      [
        "Ġbi",
        "olog"
      ],
      [
        "arch",
        "ical"
      ],
      [
        "Ġhier",
        "archical"
      ],
      [
        "on",
        "s"
      ],
      [
        "Ġst",
        "ates"
      ],
      [
        "ol",
        "d"
      ],
      [
        "Ġbiolog",
        "ical"
      ],
      [
        "volut",
        "ional"
      ],
      [
        "Ġinc",
        "reas"
      ],
      [
        "Ġprovid",
        "es"
      ],
      [
        "us",
        "t"
      ],
      [
        "Ġ",
        "-"
      ],
      [
        "Ġs",
        "olut"
      ],
      [
        "Ġdev",
        "ice"
      ],
      [
        "Ġsolut",
        "ions"
      ],
      [
        "un",
        "ication"
      ],
      [
        "Ġen",
        "c"
      ],
      [
        "Ġr",
        "ules"
      ],
      [
        "Ġcomm",
        "unication"
      ],
      [
        "m",
        "ant"
      ],
      [
        "Ġn",
        "od"
      ],
      [
        "Ġwh",
        "at"
      ],
      [
        "Ġar",
        "r"
      ],
      [
        "Ġse",
        "mant"
      ],
      [
        "Ġsmal",
        "ler"
      ],
      [
        "Ġredu",
        "cing"
      ],
      [
        "Ġ",
        "ro"
      ],
      [
        "iz",
        "ed"
      ],
      [
        "Ġen",
        "g"
      ],
      [
        "Ġnod",
        "es"
      ],
      [
        "or",
        "ing"
      ],
      [
        "Ġeng",
        "ine"
      ],
      [
        "Ġvect",
        "or"
      ],
      [
        "lect",
        "ed"
      ],
      [
        "0",
        "0"
      ],
      [
        "o",
        "th"
      ],
      [
        "Ġhigh",
        "er"
      ],
      [
        "es",
        "s"
      ],
      [
        "Ġg",
        "o"
      ],
      [
        "ic",
        "h"
      ],
      [
        "iz",
        "ing"
      ],
      [
        "Ġsequ",
        "ence"
      ],
      [
        "b",
        "atch"
      ],
      [
        "t",
        "ext"
      ],
      [
        "i",
        "b"
      ],
      [
        "at",
        "ed"
      ],
      [
        "ing",
        "le"
      ],
      [
        "Ġs",
        "et"
      ],
      [
        "Ġext",
        "re"
      ],
      [
        "Ġs",
        "ingle"
      ],
      [
        "Ġch",
        "ain"
      ],
      [
        "s",
        "h"
      ],
      [
        "Ġl",
        "ow"
      ],
      [
        "Ġinclu",
        "des"
      ],
      [
        "Ġst",
        "o"
      ],
      [
        "Ġdistribut",
        "ion"
      ],
      [
        "Ġcre",
        "ates"
      ],
      [
        "Ġbal",
        "ance"
      ],
      [
        "Ġ",
        "entropy"
      ],
      [
        "Ġspec",
        "ific"
      ],
      [
        "a",
        "d"
      ],
      [
        "Ġs",
        "at"
      ],
      [
        "iz",
        "er"
      ],
      [
        "ab",
        "il"
      ],
      [
        "ast",
        "ic"
      ],
      [
        "Ġdire",
        "ction"
      ],
      [
        "Ġminimiz",
        "es"
      ],
      [
        "u",
        "id"
      ],
      [
        "ur",
        "ation"
      ],
      [
        "id",
        "ation"
      ],
      [
        "Ġpredict",
        "ed"
      ],
      [
        "b",
        "ject"
      ],
      [
        "Ġg",
        "uid"
      ],
      [
        "Ġencourag",
        "es"
      ],
      [
        "Ġmagnitu",
        "de"
      ],
      [
        "Ġsat",
        "uration"
      ],
      [
        "Ġo",
        "bject"
      ],
      [
        "Ġposit",
        "ions"
      ],
      [
        "Ġa",
        "ff"
      ],
      [
        "Ġm",
        "an"
      ],
      [
        "im",
        "in"
      ],
      [
        "Ġsimp",
        "ler"
      ],
      [
        "Ġaff",
        "ect"
      ],
      [
        "Ġdire",
        "ctions"
      ],
      [
        "ord",
        "er"
      ],
      [
        "Ġne",
        "w"
      ],
      [
        "Ġmodel",
        "ing"
      ],
      [
        "Ġcons",
        "ist"
      ],
      [
        "Ġg",
        "rou"
      ],
      [
        "Ġpro",
        "duces"
      ],
      [
        "Ġweight",
        "ed"
      ],
      [
        "Ġscal",
        "ed"
      ],
      [
        "Ġgrou",
        "p"
      ],
      [
        "Ġoptim",
        "ization"
      ],
      [
        "Ġexpl",
        "oding"
      ],
      [
        "Ġtyp",
        "e"
      ],
      [
        "Ġtok",
        "en"
      ],
      [
        "Ġre",
        "al"
      ],
      [
        "Ġsequ",
        "ential"
      ],
      [
        "Ġma",
        "pping"
      ],
      [
        "Ġcre",
        "ate"
      ],
      [
        "Ġmapping",
        "s"
      ],
      [
        "d",
        "er"
      ],
      [
        "d",
        "ation"
      ],
      [
        "f",
        "ul"
      ],
      [
        "s",
        "o"
      ],
      [
        "Ġe",
        "v"
      ],
      [
        "Ġor",
        "der"
      ],
      [
        "f",
        "or"
      ],
      [
        "Ġcon",
        "volutional"
      ],
      [
        "Ġmaintain",
        "s"
      ],
      [
        "Ġman",
        "y"
      ],
      [
        "Ġad",
        "j"
      ],
      [
        "u",
        "es"
      ],
      [
        "x",
        "t"
      ],
      [
        "or",
        "t"
      ],
      [
        "et",
        "h"
      ],
      [
        "re",
        "qu"
      ],
      [
        "Ġst",
        "ate"
      ],
      [
        "Ġad",
        "am"
      ],
      [
        "d",
        "y"
      ],
      [
        "el",
        "op"
      ],
      [
        "iv",
        "ity"
      ],
      [
        "Ġdev",
        "elop"
      ],
      [
        "Ġw",
        "ell"
      ],
      [
        "Ġcomput",
        "ing"
      ],
      [
        "n",
        "etwork"
      ],
      [
        "at",
        "or"
      ],
      [
        "Ġsub",
        "s"
      ],
      [
        "n",
        "al"
      ],
      [
        "el",
        "f"
      ],
      [
        "Ġint",
        "ro"
      ],
      [
        "Ġfe",
        "ed"
      ],
      [
        "Ġallow",
        "ing"
      ],
      [
        "m",
        "ens"
      ],
      [
        "Ġal",
        "so"
      ],
      [
        "ri",
        "ate"
      ],
      [
        "rop",
        "riate"
      ],
      [
        "gra",
        "dient"
      ],
      [
        "Ġdecay",
        "ing"
      ],
      [
        "Ġan",
        "y"
      ],
      [
        "Ġapp",
        "ropriate"
      ],
      [
        "Ġp",
        "e"
      ],
      [
        "b",
        "al"
      ],
      [
        "v",
        "al"
      ],
      [
        "Ġt",
        "est"
      ],
      [
        "Ġm",
        "on"
      ],
      [
        "Ġfield",
        "s"
      ],
      [
        "Ġth",
        "an"
      ],
      [
        "Ġm",
        "eth"
      ],
      [
        "Ġl",
        "ab"
      ],
      [
        "Ġmeth",
        "od"
      ],
      [
        "Ġs",
        "elf"
      ],
      [
        "iv",
        "ers"
      ],
      [
        "Ġinter",
        "nal"
      ],
      [
        "Ġval",
        "ue"
      ],
      [
        "as",
        "ets"
      ],
      [
        "Ġis",
        "s"
      ],
      [
        "====",
        "===="
      ],
      [
        "Ġdependenc",
        "ies"
      ],
      [
        "#",
        "#"
      ],
      [
        "or",
        "ation"
      ],
      [
        "it",
        "s"
      ],
      [
        "Ġdeep",
        "er"
      ],
      [
        "Ġspec",
        "ial"
      ],
      [
        "Ġnumb",
        "er"
      ],
      [
        "Ġtheore",
        "m"
      ],
      [
        "for",
        "ward"
      ],
      [
        "Ġfeed",
        "forward"
      ],
      [
        "o",
        "it"
      ],
      [
        "it",
        "e"
      ],
      [
        "Ġf",
        "av"
      ],
      [
        "Ġg",
        "iven"
      ],
      [
        "Ġre",
        "duces"
      ],
      [
        "ch",
        "astic"
      ],
      [
        "di",
        "mens"
      ],
      [
        "Ġco",
        "vari"
      ],
      [
        "ul",
        "ing"
      ],
      [
        "Ġcomp",
        "act"
      ],
      [
        "if",
        "t"
      ],
      [
        "if",
        "orm"
      ],
      [
        "Ġexpl",
        "oration"
      ],
      [
        "Ġexpl",
        "oit"
      ],
      [
        "Ġun",
        "ivers"
      ],
      [
        "Ġun",
        "iform"
      ],
      [
        "Ġact",
        "s"
      ],
      [
        "Ġsu",
        "fficient"
      ],
      [
        "Ġsh",
        "ift"
      ],
      [
        "Ġregular",
        "izer"
      ],
      [
        "Ġapproxim",
        "ation"
      ],
      [
        "Ġapproxim",
        "ate"
      ],
      [
        "Ġsched",
        "uling"
      ],
      [
        "Ġencourag",
        "ing"
      ],
      [
        "ak",
        "ed"
      ],
      [
        "Ġbalan",
        "ces"
      ],
      [
        "Ġresp",
        "ect"
      ],
      [
        "Ġcontain",
        "ing"
      ],
      [
        "Ġfin",
        "ite"
      ],
      [
        "Ġsubs",
        "ets"
      ],
      [
        "Ġpe",
        "aked"
      ],
      [
        "Ġfav",
        "oring"
      ],
      [
        "dimens",
        "ional"
      ],
      [
        "Ġcovari",
        "ate"
      ],
      [
        "Ġexploit",
        "ation"
      ],
      [
        "Ġunivers",
        "al"
      ],
      [
        "Ġo",
        "per"
      ],
      [
        "Ġg",
        "lo"
      ],
      [
        "Ġco",
        "s"
      ],
      [
        "Ġval",
        "idation"
      ],
      [
        "Ġoper",
        "ations"
      ],
      [
        "Ġf",
        "ol"
      ],
      [
        "Ġpar",
        "t"
      ],
      [
        "Ġreg",
        "ion"
      ],
      [
        "Ġch",
        "anges"
      ],
      [
        "low",
        "ed"
      ],
      [
        "Ġsched",
        "ule"
      ],
      [
        "Ġdeterm",
        "ines"
      ],
      [
        "ativ",
        "es"
      ],
      [
        "Ġderiv",
        "atives"
      ],
      [
        "Ġaffect",
        "ing"
      ],
      [
        "Ġglo",
        "bal"
      ],
      [
        "Ġcos",
        "ine"
      ],
      [
        "Ġfol",
        "lowed"
      ],
      [
        "o",
        "ice"
      ],
      [
        "Ġr",
        "at"
      ],
      [
        "Ġma",
        "king"
      ],
      [
        "Ġte",
        "xt"
      ],
      [
        "Ġpart",
        "ial"
      ],
      [
        "Ġcomp",
        "ared"
      ],
      [
        "Ġch",
        "oice"
      ],
      [
        "Ġvi",
        "a"
      ],
      [
        "Ġg",
        "re"
      ],
      [
        "Ġdat",
        "asets"
      ],
      [
        "Ġposit",
        "ive"
      ],
      [
        "g",
        "et"
      ],
      [
        "Ġpro",
        "p"
      ],
      [
        "Ġle",
        "ak"
      ],
      [
        "Ġr",
        "nns"
      ],
      [
        "pp",
        "ens"
      ],
      [
        "Ġparamet",
        "ric"
      ],
      [
        "Ġha",
        "ppens"
      ],
      [
        "Ġunderstand",
        "ing"
      ],
      [
        "Ġsh",
        "ar"
      ],
      [
        "Ġbias",
        "es"
      ],
      [
        "Ġdy",
        "ing"
      ],
      [
        "Ġiss",
        "ue"
      ],
      [
        "Ġleak",
        "y"
      ],
      [
        "Ġcont",
        "ra"
      ],
      [
        "ire",
        "d"
      ],
      [
        "network",
        "s"
      ],
      [
        "h",
        "ip"
      ],
      [
        "re",
        "ction"
      ],
      [
        "di",
        "rection"
      ],
      [
        "ol",
        "ve"
      ],
      [
        "ations",
        "hip"
      ],
      [
        "Ġpredict",
        "ing"
      ],
      [
        "Ġapproxim",
        "ates"
      ],
      [
        "Ġaver",
        "ages"
      ],
      [
        "Ġaverag",
        "ing"
      ],
      [
        "Ġmask",
        "ing"
      ],
      [
        "Ġcontra",
        "st"
      ],
      [
        "direction",
        "al"
      ],
      [
        "d",
        "at"
      ],
      [
        "Ġm",
        "ore"
      ],
      [
        "Ġrel",
        "ationship"
      ],
      [
        "i",
        "pping"
      ],
      [
        "Ġcl",
        "ipping"
      ],
      [
        "'",
        "s"
      ],
      [
        "Ġin",
        "d"
      ],
      [
        "Ġdecreas",
        "ing"
      ],
      [
        "t",
        "e"
      ],
      [
        "Ġlearn",
        "ed"
      ],
      [
        "od",
        "er"
      ],
      [
        "Ġk",
        "e"
      ],
      [
        "Ġupd",
        "ate"
      ],
      [
        "Ġsig",
        "mo"
      ],
      [
        "Ġdepen",
        "d"
      ],
      [
        "Ġsigmo",
        "id"
      ],
      [
        "re",
        "te"
      ],
      [
        "Ġdisc",
        "rete"
      ],
      [
        "Ġke",
        "y"
      ],
      [
        "s",
        "p"
      ],
      [
        "Ġ",
        "id"
      ],
      [
        "Ġs",
        "olving"
      ],
      [
        "or",
        "y"
      ],
      [
        "Ġcon",
        "st"
      ],
      [
        "Ġv",
        "ery"
      ],
      [
        "Ġbalan",
        "cing"
      ],
      [
        "Ġqu",
        "ery"
      ],
      [
        "Ġdirect",
        "ly"
      ],
      [
        "Ġid",
        "ent"
      ],
      [
        "Ġt",
        "erm"
      ],
      [
        "Ġs",
        "c"
      ],
      [
        "Ġadd",
        "ing"
      ],
      [
        "t",
        "raining"
      ],
      [
        "Ġh",
        "elp"
      ],
      [
        "b",
        "ack"
      ],
      [
        "y",
        "s"
      ],
      [
        "or",
        "al"
      ],
      [
        "at",
        "h"
      ],
      [
        "Ġimp",
        "lements"
      ],
      [
        "Ġappro",
        "ach"
      ],
      [
        "Ġincreas",
        "ed"
      ],
      [
        "ort",
        "ional"
      ],
      [
        "Ġprop",
        "ortional"
      ],
      [
        "Ġp",
        "ath"
      ],
      [
        "is",
        "ed"
      ],
      [
        "Ġl",
        "ong"
      ],
      [
        "up",
        "erv"
      ],
      [
        "uperv",
        "ised"
      ],
      [
        "Ġwh",
        "ich"
      ],
      [
        "a",
        "i"
      ],
      [
        "e",
        "led"
      ],
      [
        "Ġin",
        "sp"
      ],
      [
        "Ġinsp",
        "ired"
      ],
      [
        "Ġe",
        "qu"
      ],
      [
        "r",
        "imin"
      ],
      [
        "Ġb",
        "rain"
      ],
      [
        "Ġdisc",
        "rimin"
      ],
      [
        "g",
        "an"
      ],
      [
        "Ġp",
        "h"
      ],
      [
        "Ġh",
        "e"
      ],
      [
        "Ġprevent",
        "s"
      ],
      [
        "Ġposit",
        "ional"
      ],
      [
        "Ġpredict",
        "s"
      ],
      [
        "s",
        "upervised"
      ],
      [
        "Ġs",
        "ent"
      ],
      [
        "Ġenab",
        "le"
      ],
      [
        "Ġtemp",
        "oral"
      ],
      [
        "b",
        "y"
      ],
      [
        "Ġan",
        "al"
      ],
      [
        "Ġdep",
        "th"
      ],
      [
        "requ",
        "ent"
      ],
      [
        "Ġident",
        "ity"
      ],
      [
        "Ġpath",
        "s"
      ],
      [
        "g",
        "ress"
      ],
      [
        "u",
        "dy"
      ],
      [
        "Ġst",
        "udy"
      ],
      [
        "Ġor",
        "gan"
      ],
      [
        "ms",
        "prop"
      ],
      [
        "her",
        "ent"
      ],
      [
        "Ġp",
        "ass"
      ],
      [
        "Ġpro",
        "ced"
      ],
      [
        "Ġlearn",
        "s"
      ],
      [
        "il",
        "l"
      ],
      [
        "Ġcomput",
        "ers"
      ],
      [
        "Ġerr",
        "ors"
      ],
      [
        "Ġt",
        "ra"
      ],
      [
        "Ġco",
        "l"
      ],
      [
        "Ġex",
        "amples"
      ],
      [
        "Ġtransform",
        "er"
      ],
      [
        "o",
        "ff"
      ],
      [
        "Ġde",
        "gra"
      ],
      [
        "de",
        "off"
      ],
      [
        "vari",
        "ance"
      ],
      [
        "ys",
        "is"
      ],
      [
        "Ġanal",
        "ysis"
      ],
      [
        "Ġtra",
        "deoff"
      ],
      [
        "Ġdegra",
        "dation"
      ],
      [
        "i",
        "ous"
      ],
      [
        "Ġc",
        "orrect"
      ],
      [
        "ut",
        "er"
      ],
      [
        "mp",
        "uter"
      ],
      [
        "Ġprev",
        "ious"
      ],
      [
        "co",
        "mputer"
      ],
      [
        "Ġval",
        "ues"
      ],
      [
        "Ġco",
        "st"
      ],
      [
        "ag",
        "e"
      ],
      [
        "Ġknow",
        "n"
      ],
      [
        "Ġth",
        "en"
      ],
      [
        "Ġupd",
        "ating"
      ],
      [
        "Ġd",
        "iv"
      ],
      [
        "Ġcaus",
        "es"
      ],
      [
        "m",
        "ory"
      ],
      [
        "at",
        "ial"
      ],
      [
        "ing",
        "s"
      ],
      [
        "er",
        "gence"
      ],
      [
        "Ġre",
        "ad"
      ],
      [
        "Ġme",
        "mory"
      ],
      [
        "st",
        "ep"
      ],
      [
        "Ġsp",
        "atial"
      ],
      [
        "Ġactiv",
        "ations"
      ],
      [
        "lev",
        "el"
      ],
      [
        "Ġconst",
        "rain"
      ],
      [
        "Ġsent",
        "ences"
      ],
      [
        "Ġdiv",
        "ergence"
      ],
      [
        "Ġread",
        "ability"
      ],
      [
        "f",
        "ore"
      ],
      [
        "on",
        "ing"
      ],
      [
        "ar",
        "ly"
      ],
      [
        "Ġin",
        "ject"
      ],
      [
        "Ġfor",
        "ward"
      ],
      [
        "fer",
        "ence"
      ],
      [
        "Ġinc",
        "orrect"
      ],
      [
        "Ġbe",
        "fore"
      ],
      [
        "Ġstruct",
        "ures"
      ],
      [
        "Ġaccumul",
        "ation"
      ],
      [
        "Ġaccumul",
        "ating"
      ],
      [
        "Ġsimul",
        "ation"
      ],
      [
        "Ġsimul",
        "ates"
      ],
      [
        "back",
        "ward"
      ],
      [
        "Ġpass",
        "es"
      ],
      [
        "Ġconstrain",
        "ts"
      ],
      [
        "n",
        "i"
      ],
      [
        "p",
        "h"
      ],
      [
        "ra",
        "d"
      ],
      [
        "ra",
        "s"
      ],
      [
        "ag",
        "rad"
      ],
      [
        "Ġte",
        "ch"
      ],
      [
        "Ġch",
        "ange"
      ],
      [
        "Ġbrain",
        "s"
      ],
      [
        "er",
        "g"
      ],
      [
        "Ġre",
        "as"
      ],
      [
        "Ġdec",
        "ision"
      ],
      [
        "Ġk",
        "l"
      ],
      [
        "con",
        "d"
      ],
      [
        "Ġresp",
        "ons"
      ],
      [
        "gress",
        "ive"
      ],
      [
        "ni",
        "qu"
      ],
      [
        "Ġtech",
        "niqu"
      ],
      [
        "Ġreas",
        "oning"
      ],
      [
        "Ġe",
        "arly"
      ],
      [
        "Ġac",
        "quiring"
      ],
      [
        "em",
        "ent"
      ],
      [
        "ma",
        "king"
      ],
      [
        "Ġappl",
        "ication"
      ],
      [
        "olog",
        "y"
      ],
      [
        "i",
        "e"
      ],
      [
        "n",
        "ing"
      ],
      [
        "Ġa",
        "ch"
      ],
      [
        "Ġf",
        "act"
      ],
      [
        "Ġsy",
        "mb"
      ],
      [
        "Ġwith",
        "out"
      ],
      [
        "Ġrel",
        "ating"
      ],
      [
        "Ġnerv",
        "es"
      ],
      [
        "Ġnerv",
        "ous"
      ],
      [
        "Ġgo",
        "ver"
      ],
      [
        "Ġach",
        "ie"
      ],
      [
        "Ġsymb",
        "ol"
      ],
      [
        "r",
        "ing"
      ],
      [
        "Ġt",
        "arg"
      ],
      [
        "ing",
        "u"
      ],
      [
        "Ġe",
        "lements"
      ],
      [
        "as",
        "es"
      ],
      [
        "Ġen",
        "erg"
      ],
      [
        "ang",
        "ement"
      ],
      [
        "Ġma",
        "de"
      ],
      [
        "form",
        "ed"
      ],
      [
        "Ġac",
        "quire"
      ],
      [
        "Ġab",
        "ility"
      ],
      [
        "Ġbe",
        "ings"
      ],
      [
        "Ġconver",
        "ts"
      ],
      [
        "Ġsig",
        "ns"
      ],
      [
        "Ġstruct",
        "ural"
      ],
      [
        "Ġoccur",
        "ring"
      ],
      [
        "Ġnatural",
        "ly"
      ],
      [
        "Ġprodu",
        "ced"
      ],
      [
        "Ġarr",
        "angement"
      ],
      [
        "Ġrat",
        "her"
      ],
      [
        "Ġph",
        "ras"
      ],
      [
        "Ġgover",
        "ning"
      ],
      [
        "Ġsymbol",
        "s"
      ],
      [
        "Ġenerg",
        "y"
      ],
      [
        "Ġphras",
        "es"
      ],
      [
        "Ġre",
        "pl"
      ],
      [
        "Ġre",
        "ference"
      ],
      [
        "Ġimpro",
        "ve"
      ],
      [
        "Ġcol",
        "lected"
      ],
      [
        "Ġfact",
        "s"
      ],
      [
        "o",
        "ur"
      ],
      [
        "s",
        "c"
      ],
      [
        "t",
        "o"
      ],
      [
        "x",
        "av"
      ],
      [
        "er",
        "ing"
      ],
      [
        "Ġf",
        "ir"
      ],
      [
        "mp",
        "t"
      ],
      [
        "Ġmult",
        "i"
      ],
      [
        "xav",
        "ier"
      ],
      [
        "Ġfir",
        "st"
      ],
      [
        "l",
        "p"
      ],
      [
        "p",
        "lex"
      ],
      [
        "s",
        "um"
      ],
      [
        "t",
        "rue"
      ],
      [
        "Ġ",
        "xavier"
      ],
      [
        "Ġb",
        "lo"
      ],
      [
        "Ġan",
        "im"
      ],
      [
        "Ġst",
        "able"
      ],
      [
        "pre",
        "d"
      ],
      [
        "Ġper",
        "plex"
      ],
      [
        "Ġstr",
        "ong"
      ],
      [
        "Ġform",
        "ul"
      ],
      [
        "op",
        "s"
      ],
      [
        "iven",
        "ess"
      ],
      [
        "Ġtechniqu",
        "es"
      ],
      [
        "Ġblo",
        "ck"
      ],
      [
        "Ġanim",
        "al"
      ],
      [
        "Ġperplex",
        "ity"
      ],
      [
        "le",
        "ms"
      ],
      [
        "Ġthe",
        "ir"
      ],
      [
        "pl",
        "ication"
      ],
      [
        "Ġtrans",
        "l"
      ],
      [
        "Ġcontain",
        "s"
      ],
      [
        "val",
        "u"
      ],
      [
        "Ġproced",
        "ure"
      ],
      [
        "Ġformul",
        "a"
      ],
      [
        "e",
        "fficient"
      ],
      [
        "en",
        "ing"
      ],
      [
        "Ġa",
        "ut"
      ],
      [
        "Ġd",
        "amp"
      ],
      [
        "Ġp",
        "ast"
      ],
      [
        "ent",
        "al"
      ],
      [
        "Ġo",
        "sc"
      ],
      [
        "Ġco",
        "efficient"
      ],
      [
        "Ġr",
        "anges"
      ],
      [
        "ex",
        "p"
      ],
      [
        "Ġoutput",
        "s"
      ],
      [
        "Ġarchitect",
        "ures"
      ],
      [
        "Ġaccumul",
        "ates"
      ],
      [
        "Ġjacobi",
        "an"
      ],
      [
        "Ġjacobi",
        "ans"
      ],
      [
        "Ġsemant",
        "ics"
      ],
      [
        "ill",
        "ations"
      ],
      [
        "Ġrespons",
        "iveness"
      ],
      [
        "Ġmulti",
        "plication"
      ],
      [
        "valu",
        "ed"
      ],
      [
        "Ġdamp",
        "ening"
      ],
      [
        "Ġosc",
        "illations"
      ],
      [
        "in",
        "ed"
      ],
      [
        "en",
        "g"
      ],
      [
        "Ġad",
        "agrad"
      ],
      [
        "Ġcomput",
        "e"
      ],
      [
        "re",
        "sh"
      ],
      [
        "Ġth",
        "resh"
      ],
      [
        "ra",
        "ct"
      ],
      [
        "Ġdist",
        "ingu"
      ],
      [
        "Ġsqu",
        "are"
      ],
      [
        "Ġro",
        "ot"
      ],
      [
        "Ġsto",
        "pping"
      ],
      [
        "abil",
        "izing"
      ],
      [
        "Ġthresh",
        "old"
      ],
      [
        "Ġdistingu",
        "ish"
      ],
      [
        "l",
        "ic"
      ],
      [
        "or",
        "ient"
      ],
      [
        "Ġit",
        "er"
      ],
      [
        "ore",
        "s"
      ],
      [
        "Ġrequire",
        "s"
      ],
      [
        "Ġrelationship",
        "s"
      ],
      [
        "Ġsc",
        "ores"
      ],
      [
        "our",
        "ces"
      ],
      [
        "orient",
        "ed"
      ],
      [
        "d",
        "am"
      ],
      [
        "w",
        "ord"
      ],
      [
        "at",
        "ib"
      ],
      [
        "Ġc",
        "are"
      ],
      [
        "Ġw",
        "as"
      ],
      [
        "Ġcomp",
        "atib"
      ],
      [
        "Ġfun",
        "dam"
      ],
      [
        "Ġsimp",
        "lic"
      ],
      [
        "Ġdeterm",
        "ined"
      ],
      [
        "Ġsum",
        "s"
      ],
      [
        "Ġcare",
        "ful"
      ],
      [
        "Ġcompatib",
        "ility"
      ],
      [
        "Ġfundam",
        "ental"
      ],
      [
        "Ġsimplic",
        "ity"
      ],
      [
        "b",
        "ased"
      ],
      [
        "o",
        "c"
      ],
      [
        "Ġs",
        "amples"
      ],
      [
        "Ġp",
        "ul"
      ],
      [
        "le",
        "y"
      ],
      [
        "le",
        "ver"
      ],
      [
        "ic",
        "es"
      ],
      [
        "Ġgener",
        "ation"
      ],
      [
        "Ġprob",
        "lems"
      ],
      [
        "Ġpredi",
        "ction"
      ],
      [
        "Ġstructure",
        "d"
      ],
      [
        "Ġpul",
        "ley"
      ],
      [
        "'",
        "("
      ],
      [
        "(",
        "-"
      ],
      [
        ")",
        "("
      ],
      [
        "/",
        "("
      ],
      [
        "o",
        "oth"
      ],
      [
        "s",
        "ig"
      ],
      [
        "an",
        "ing"
      ],
      [
        "Ġre",
        "le"
      ],
      [
        "ure",
        "d"
      ],
      [
        "st",
        "ruct"
      ],
      [
        "Ġun",
        "struct"
      ],
      [
        "ff",
        "ers"
      ],
      [
        "Ġse",
        "arch"
      ],
      [
        "Ġse",
        "cond"
      ],
      [
        "Ġsu",
        "ffers"
      ],
      [
        "Ġsm",
        "ooth"
      ],
      [
        "Ġnumb",
        "ers"
      ],
      [
        "Ġderiv",
        "ative"
      ],
      [
        "Ġmap",
        "s"
      ],
      [
        "Ġextre",
        "me"
      ],
      [
        "sig",
        "ma"
      ],
      [
        "Ġunstruct",
        "ured"
      ],
      [
        "l",
        "ish"
      ],
      [
        "w",
        "eigh"
      ],
      [
        "Ġ",
        "ross"
      ],
      [
        "Ġs",
        "ens"
      ],
      [
        "or",
        "ph"
      ],
      [
        "Ġm",
        "orph"
      ],
      [
        "ab",
        "ases"
      ],
      [
        "Ġv",
        "an"
      ],
      [
        "Ġsp",
        "anish"
      ],
      [
        "Ġres",
        "ources"
      ],
      [
        "Ġcre",
        "ated"
      ],
      [
        "sent",
        "ence"
      ],
      [
        "Ġinclu",
        "ding"
      ],
      [
        "Ġdev",
        "ices"
      ],
      [
        "Ġ1",
        "99"
      ],
      [
        "Ġinst",
        "ance"
      ],
      [
        "Ġform",
        "ation"
      ],
      [
        "me",
        "aning"
      ],
      [
        "Ġguid",
        "o"
      ],
      [
        "Ġev",
        "olve"
      ],
      [
        "Ġorgan",
        "ically"
      ],
      [
        "eng",
        "lish"
      ],
      [
        "Ġrele",
        "ased"
      ],
      [
        "weigh",
        "t"
      ],
      [
        "Ġross",
        "um"
      ],
      [
        "Ġmorph",
        "ology"
      ],
      [
        "Ġ199",
        "1"
      ],
      [
        "l",
        "i"
      ],
      [
        "v",
        "es"
      ],
      [
        "Ġa",
        "i"
      ],
      [
        "Ġthe",
        "y"
      ],
      [
        "Ġre",
        "quiring"
      ],
      [
        "Ġpar",
        "a"
      ],
      [
        "dat",
        "abases"
      ],
      [
        "Ġsu",
        "pp"
      ],
      [
        "Ġcre",
        "ating"
      ],
      [
        "ativ",
        "ely"
      ],
      [
        "Ġengine",
        "ering"
      ],
      [
        "Ġiter",
        "atively"
      ],
      [
        "a",
        "ult"
      ],
      [
        "g",
        "ms"
      ],
      [
        "s",
        "e"
      ],
      [
        "or",
        "ts"
      ],
      [
        "di",
        "gms"
      ],
      [
        "Ġma",
        "x"
      ],
      [
        "Ġfunction",
        "al"
      ],
      [
        "ne",
        "ural"
      ],
      [
        "amp",
        "le"
      ],
      [
        "Ġens",
        "ures"
      ],
      [
        "Ġmitig",
        "ates"
      ],
      [
        "Ġdef",
        "ault"
      ],
      [
        "00",
        "0"
      ],
      [
        "Ġsens",
        "it"
      ],
      [
        "Ġpara",
        "digms"
      ],
      [
        "Ġsupp",
        "orts"
      ],
      [
        "Ġn",
        "lp"
      ],
      [
        "ed",
        "y"
      ],
      [
        "Ġst",
        "e"
      ],
      [
        "Ġgre",
        "edy"
      ],
      [
        "Ġsensit",
        "ivity"
      ],
      [
        "r",
        "ate"
      ],
      [
        "Ġt",
        "uning"
      ],
      [
        "Ġp",
        "atch"
      ],
      [
        "ep",
        "est"
      ],
      [
        "Ġdec",
        "oding"
      ],
      [
        "Ġbe",
        "am"
      ],
      [
        "ne",
        "w"
      ],
      [
        "Ġspe",
        "ed"
      ],
      [
        "Ġsim",
        "il"
      ],
      [
        "Ġsemant",
        "ic"
      ],
      [
        "Ġste",
        "epest"
      ],
      [
        "Ġc",
        "le"
      ],
      [
        "it",
        "ies"
      ],
      [
        "Ġgener",
        "aliz"
      ],
      [
        "Ġtransl",
        "ation"
      ],
      [
        "Ġgeneraliz",
        "e"
      ],
      [
        "m",
        "ely"
      ],
      [
        "s",
        "olving"
      ],
      [
        "Ġp",
        "ract"
      ],
      [
        "Ġro",
        "b"
      ],
      [
        "Ġextre",
        "mely"
      ],
      [
        "'",
        "t"
      ],
      [
        "g",
        "d"
      ],
      [
        "t",
        "ies"
      ],
      [
        "Ġs",
        "gd"
      ],
      [
        "ic",
        "ates"
      ],
      [
        "ur",
        "ons"
      ],
      [
        "ne",
        "urons"
      ],
      [
        "Ġform",
        "al"
      ],
      [
        "Ġmon",
        "it"
      ],
      [
        "Ġt",
        "er"
      ],
      [
        "al",
        "ts"
      ],
      [
        "or",
        "ting"
      ],
      [
        "Ġm",
        "im"
      ],
      [
        "Ġof",
        "fer"
      ],
      [
        "Ġpro",
        "mo"
      ],
      [
        "Ġh",
        "alts"
      ],
      [
        "Ġst",
        "ops"
      ],
      [
        "Ġma",
        "xim"
      ],
      [
        "ol",
        "ates"
      ],
      [
        "rib",
        "es"
      ],
      [
        "ruct",
        "ing"
      ],
      [
        "Ġdesc",
        "ribes"
      ],
      [
        "Ġdis",
        "courag"
      ],
      [
        "Ġinst",
        "ructing"
      ],
      [
        "Ġproper",
        "ties"
      ],
      [
        "Ġadapt",
        "ation"
      ],
      [
        "Ġadapt",
        "ive"
      ],
      [
        "Ġvi",
        "olates"
      ],
      [
        "Ġadj",
        "us"
      ],
      [
        "Ġcle",
        "ar"
      ],
      [
        "Ġmonit",
        "ors"
      ],
      [
        "Ġter",
        "ms"
      ],
      [
        "Ġmim",
        "ic"
      ],
      [
        "Ġoffer",
        "ing"
      ],
      [
        "Ġpromo",
        "ting"
      ],
      [
        "Ġmaxim",
        "izing"
      ],
      [
        "Ġdiscourag",
        "e"
      ],
      [
        "act",
        "iv"
      ],
      [
        "Ġarr",
        "ange"
      ],
      [
        "Ġind",
        "icates"
      ],
      [
        "d",
        "ropout"
      ],
      [
        "Ġd",
        "on"
      ],
      [
        "Ġpro",
        "xim"
      ],
      [
        "Ġspa",
        "ces"
      ],
      [
        "Ġsimil",
        "arity"
      ],
      [
        "e",
        "om"
      ],
      [
        "Ġs",
        "ample"
      ],
      [
        "et",
        "ric"
      ],
      [
        "Ġg",
        "eom"
      ],
      [
        "Ġdesc",
        "ribe"
      ],
      [
        "Ġref",
        "lected"
      ],
      [
        "Ġproxim",
        "ity"
      ],
      [
        "Ġgeom",
        "etric"
      ],
      [
        "v",
        "ers"
      ],
      [
        "Ġs",
        "in"
      ],
      [
        "Ġs",
        "orting"
      ],
      [
        "el",
        "s"
      ],
      [
        "Ġh",
        "and"
      ],
      [
        "ens",
        "ion"
      ],
      [
        "Ġaverag",
        "e"
      ],
      [
        "activ",
        "ation"
      ],
      [
        "n",
        "et"
      ],
      [
        "Ġd",
        "im"
      ],
      [
        "Ġallow",
        "s"
      ],
      [
        "Ġdim",
        "ension"
      ],
      [
        "at",
        "ical"
      ],
      [
        "Ġfor",
        "cing"
      ],
      [
        "Ġ1",
        "000"
      ],
      [
        "Ġsto",
        "chastic"
      ],
      [
        "Ġintro",
        "duces"
      ],
      [
        "a",
        "p"
      ],
      [
        "Ġco",
        "herent"
      ],
      [
        "Ġlab",
        "els"
      ],
      [
        "Ġrob",
        "ust"
      ],
      [
        "h",
        "em"
      ],
      [
        "Ġmat",
        "hem"
      ],
      [
        "Ġus",
        "ed"
      ],
      [
        "Ġzer",
        "os"
      ],
      [
        "Ġhelp",
        "ing"
      ],
      [
        "h",
        "ic"
      ],
      [
        "abil",
        "ities"
      ],
      [
        "Ġmethod",
        "s"
      ],
      [
        "ion",
        "ized"
      ],
      [
        "Ġre",
        "volut"
      ],
      [
        "Ġr",
        "msprop"
      ],
      [
        "Ġdet",
        "ect"
      ],
      [
        "Ġra",
        "w"
      ],
      [
        "Ġfast",
        "er"
      ],
      [
        "sh",
        "ot"
      ],
      [
        "Ġhand",
        "le"
      ],
      [
        "Ġrevolut",
        "ionized"
      ],
      [
        "d",
        "w"
      ],
      [
        "Ġd",
        "l"
      ],
      [
        "Ġgener",
        "ator"
      ],
      [
        "Ġfe",
        "w"
      ],
      [
        "Ġsched",
        "ules"
      ],
      [
        "Ġenc",
        "oding"
      ],
      [
        "Ġdiscrimin",
        "ator"
      ],
      [
        "Ġmathem",
        "atical"
      ],
      [
        "m",
        "ach"
      ],
      [
        "Ġb",
        "ased"
      ],
      [
        "Ġpro",
        "mpt"
      ],
      [
        "Ġdecreas",
        "es"
      ],
      [
        "Ġcaus",
        "al"
      ],
      [
        "Ġadjus",
        "ting"
      ],
      [
        "i",
        "directional"
      ],
      [
        "Ġun",
        "idirectional"
      ],
      [
        "ore",
        "gressive"
      ],
      [
        "Ġon",
        "ly"
      ],
      [
        "con",
        "text"
      ],
      [
        "Ġparallel",
        "ization"
      ],
      [
        "Ġaut",
        "oregressive"
      ],
      [
        "a",
        "cing"
      ],
      [
        "f",
        "ter"
      ],
      [
        "i",
        "ating"
      ],
      [
        "Ġa",
        "fter"
      ],
      [
        "ent",
        "iating"
      ],
      [
        "Ġexpon",
        "entiating"
      ],
      [
        "Ġcommon",
        "ly"
      ],
      [
        "Ġlog",
        "its"
      ],
      [
        "Ġguid",
        "e"
      ],
      [
        "Ġadj",
        "ust"
      ],
      [
        "Ġ",
        "esc"
      ],
      [
        "Ġs",
        "up"
      ],
      [
        "Ġl",
        "ine"
      ],
      [
        "Ġminim",
        "a"
      ],
      [
        "Ġscal",
        "e"
      ],
      [
        "Ġminimiz",
        "ing"
      ],
      [
        "Ġgo",
        "od"
      ],
      [
        "Ġshar",
        "p"
      ],
      [
        "Ġinject",
        "ion"
      ],
      [
        "ap",
        "e"
      ],
      [
        "Ġesc",
        "ape"
      ],
      [
        "Ġline",
        "ar"
      ],
      [
        "m",
        "ar"
      ],
      [
        "Ġtransform",
        "ations"
      ],
      [
        "Ġdependenc",
        "y"
      ],
      [
        "-",
        "-"
      ],
      [
        "g",
        "ular"
      ],
      [
        "r",
        "ange"
      ],
      [
        "t",
        "on"
      ],
      [
        "y",
        "on"
      ],
      [
        "re",
        "gular"
      ],
      [
        "du",
        "ce"
      ],
      [
        "Ġbe",
        "yon"
      ],
      [
        "Ġintro",
        "duce"
      ],
      [
        "Ġrepl",
        "acing"
      ],
      [
        "regular",
        "ization"
      ],
      [
        "Ġbeyon",
        "d"
      ],
      [
        "i",
        "an"
      ],
      [
        "at",
        "ast"
      ],
      [
        "Ġc",
        "ur"
      ],
      [
        "Ġc",
        "atast"
      ],
      [
        "Ġfor",
        "get"
      ],
      [
        "rop",
        "hic"
      ],
      [
        "Ġtrans",
        "fer"
      ],
      [
        "Ġpract",
        "ical"
      ],
      [
        "Ġcatast",
        "rophic"
      ],
      [
        "Ġforget",
        "ting"
      ],
      [
        "s",
        "cal"
      ],
      [
        "t",
        "ically"
      ],
      [
        "v",
        "ature"
      ],
      [
        "Ġl",
        "im"
      ],
      [
        "Ġh",
        "ess"
      ],
      [
        "Ġdeterm",
        "ine"
      ],
      [
        "eri",
        "or"
      ],
      [
        "Ġtheore",
        "tically"
      ],
      [
        "Ġcontext",
        "ual"
      ],
      [
        "Ġnew",
        "ton"
      ],
      [
        "Ġsup",
        "erior"
      ],
      [
        "Ġcur",
        "vature"
      ],
      [
        "scal",
        "e"
      ],
      [
        "Ġlim",
        "its"
      ],
      [
        "Ġhess",
        "ian"
      ],
      [
        "c",
        "y"
      ],
      [
        "Ġto",
        "get"
      ],
      [
        "Ġh",
        "ist"
      ],
      [
        "ow",
        "n"
      ],
      [
        "Ġtoget",
        "her"
      ],
      [
        "e",
        "ver"
      ],
      [
        "Ġ",
        "att"
      ],
      [
        "Ġd",
        "own"
      ],
      [
        "iv",
        "ely"
      ],
      [
        "Ġhow",
        "ever"
      ],
      [
        "Ġeffect",
        "ively"
      ],
      [
        "Ġprodu",
        "ct"
      ],
      [
        "c",
        "nns"
      ],
      [
        "c",
        "oder"
      ],
      [
        "Ġp",
        "ot"
      ],
      [
        "de",
        "coder"
      ],
      [
        "Ġon",
        "es"
      ],
      [
        "Ġca",
        "pt"
      ],
      [
        "Ġsum",
        "mar"
      ],
      [
        "Ġenc",
        "oder"
      ],
      [
        "Ġpot",
        "ential"
      ],
      [
        "Ġsummar",
        "ization"
      ],
      [
        "en",
        "ding"
      ],
      [
        "Ġf",
        "an"
      ],
      [
        "ic",
        "it"
      ],
      [
        "Ġst",
        "abilizing"
      ],
      [
        "Ġexpl",
        "icit"
      ],
      [
        "qu",
        "ence"
      ],
      [
        "Ġprocess",
        "es"
      ],
      [
        "Ġgener",
        "ates"
      ],
      [
        "Ġnorm",
        "s"
      ],
      [
        "Ġconnect",
        "ivity"
      ],
      [
        "Ġexce",
        "l"
      ],
      [
        "Ġscal",
        "ing"
      ],
      [
        "Ġshar",
        "ing"
      ],
      [
        "se",
        "quence"
      ],
      [
        "Ġatt",
        "ending"
      ],
      [
        "Ġ",
        "est"
      ],
      [
        "at",
        "ic"
      ],
      [
        "er",
        "t"
      ],
      [
        "al",
        "ity"
      ],
      [
        "Ġadd",
        "ress"
      ],
      [
        "Ġim",
        "age"
      ],
      [
        "Ġlab",
        "eled"
      ],
      [
        "========",
        "========"
      ],
      [
        "Ġcapt",
        "ure"
      ],
      [
        "Ġest",
        "im"
      ],
      [
        "p",
        "us"
      ],
      [
        "Ġg",
        "pus"
      ],
      [
        "Ġgroup",
        "s"
      ],
      [
        "mach",
        "ine"
      ],
      [
        "Ġestim",
        "ates"
      ],
      [
        "o",
        "chastic"
      ],
      [
        "re",
        "am"
      ],
      [
        "Ġr",
        "ich"
      ],
      [
        "st",
        "ochastic"
      ],
      [
        "st",
        "ream"
      ],
      [
        "Ġbi",
        "directional"
      ],
      [
        "ou",
        "gh"
      ],
      [
        "Ġmask",
        "ed"
      ],
      [
        "Ġobject",
        "ive"
      ],
      [
        "Ġachie",
        "ve"
      ],
      [
        "Ġdown",
        "stream"
      ],
      [
        "g",
        "g"
      ],
      [
        "l",
        "ab"
      ],
      [
        "al",
        "ly"
      ],
      [
        "or",
        "ical"
      ],
      [
        "Ġth",
        "ough"
      ],
      [
        "Ġun",
        "lab"
      ],
      [
        "Ġhist",
        "orical"
      ],
      [
        "Ġunlab",
        "eled"
      ],
      [
        "f",
        "requent"
      ],
      [
        "m",
        "ature"
      ],
      [
        "o",
        "mp"
      ],
      [
        "on",
        "ically"
      ],
      [
        "Ġc",
        "al"
      ],
      [
        "Ġin",
        "frequent"
      ],
      [
        "Ġf",
        "il"
      ],
      [
        "Ġf",
        "requent"
      ],
      [
        "Ġpre",
        "mature"
      ],
      [
        "Ġdec",
        "omp"
      ],
      [
        "ot",
        "onically"
      ],
      [
        "Ġcaus",
        "e"
      ],
      [
        "Ġmagnitu",
        "des"
      ],
      [
        "Ġadapt",
        "s"
      ],
      [
        "Ġmon",
        "otonically"
      ],
      [
        "##",
        "#"
      ],
      [
        "l",
        "ing"
      ],
      [
        "m",
        "ent"
      ],
      [
        "Ġp",
        "l"
      ],
      [
        "Ġe",
        "d"
      ],
      [
        "Ġgra",
        "du"
      ],
      [
        "Ġinst",
        "ability"
      ],
      [
        "Ġincreas",
        "es"
      ],
      [
        "Ġgradu",
        "ally"
      ],
      [
        "p",
        "ar"
      ],
      [
        "s",
        "een"
      ],
      [
        "ar",
        "m"
      ],
      [
        "Ġun",
        "seen"
      ],
      [
        "Ġpl",
        "us"
      ],
      [
        "t",
        "ers"
      ],
      [
        "ar",
        "tificial"
      ],
      [
        "Ġw",
        "arm"
      ],
      [
        "Ġto",
        "o"
      ],
      [
        "Ġmod",
        "er"
      ],
      [
        "Ġstep",
        "s"
      ],
      [
        "ura",
        "cy"
      ],
      [
        "Ġspecial",
        "ized"
      ],
      [
        "Ġfil",
        "ters"
      ],
      [
        "Ġwarm",
        "up"
      ],
      [
        "re",
        "s"
      ],
      [
        "re",
        "li"
      ],
      [
        "iv",
        "ing"
      ],
      [
        "Ġun",
        "supervised"
      ],
      [
        "Ġun",
        "reli"
      ],
      [
        "Ġinitial",
        "ized"
      ],
      [
        "Ġqu",
        "ality"
      ],
      [
        "Ġtarg",
        "et"
      ],
      [
        "Ġaddress",
        "es"
      ],
      [
        "Ġmoder",
        "n"
      ],
      [
        "Ġunreli",
        "able"
      ],
      [
        "a",
        "ir"
      ],
      [
        "t",
        "erm"
      ],
      [
        "Ġs",
        "om"
      ],
      [
        "ar",
        "t"
      ],
      [
        "Ġev",
        "en"
      ],
      [
        "Ġsom",
        "e"
      ],
      [
        "c",
        "ross"
      ],
      [
        "g",
        "es"
      ],
      [
        "Ġlearn",
        "able"
      ],
      [
        "Ġst",
        "ru"
      ],
      [
        "rain",
        "ed"
      ],
      [
        "gg",
        "le"
      ],
      [
        "Ġed",
        "ges"
      ],
      [
        "Ġstru",
        "ggle"
      ],
      [
        "le",
        "arn"
      ],
      [
        "Ġdepend",
        "s"
      ],
      [
        "e",
        "ad"
      ],
      [
        "al",
        "l"
      ],
      [
        "Ġto",
        "p"
      ],
      [
        "Ġact",
        "ual"
      ],
      [
        "res",
        "net"
      ],
      [
        "c",
        "ul"
      ],
      [
        "g",
        "ener"
      ],
      [
        "Ġt",
        "re"
      ],
      [
        "Ġf",
        "oc"
      ],
      [
        "Ġre",
        "ve"
      ],
      [
        "Ġco",
        "mb"
      ],
      [
        "Ġse",
        "en"
      ],
      [
        "Ġclass",
        "es"
      ],
      [
        "Ġinst",
        "ead"
      ],
      [
        "Ġcal",
        "cul"
      ],
      [
        "Ġfoc",
        "us"
      ],
      [
        "Ġreve",
        "aling"
      ],
      [
        "il",
        "ib"
      ],
      [
        "ri",
        "um"
      ],
      [
        "Ġequ",
        "ilib"
      ],
      [
        "Ġequilib",
        "rium"
      ],
      [
        "c",
        "l"
      ],
      [
        "Ġc",
        "ate"
      ],
      [
        "Ġb",
        "en"
      ],
      [
        "iz",
        "e"
      ],
      [
        "amet",
        "er"
      ],
      [
        "Ġbe",
        "co"
      ],
      [
        "Ġtarg",
        "ets"
      ],
      [
        "par",
        "ameter"
      ],
      [
        "cl",
        "ass"
      ],
      [
        "Ġcate",
        "gor"
      ],
      [
        "r",
        "iving"
      ],
      [
        "s",
        "ity"
      ],
      [
        "v",
        "ol"
      ],
      [
        "Ġs",
        "low"
      ],
      [
        "Ġd",
        "imin"
      ],
      [
        "Ġd",
        "riving"
      ],
      [
        "Ġc",
        "umul"
      ],
      [
        "ar",
        "sity"
      ],
      [
        "Ġin",
        "vol"
      ],
      [
        "Ġex",
        "cess"
      ],
      [
        "Ġex",
        "act"
      ],
      [
        "od",
        "e"
      ],
      [
        "Ġsp",
        "arsity"
      ],
      [
        "Ġdistribut",
        "es"
      ],
      [
        "Ġacc",
        "uracy"
      ],
      [
        "Ġdecreas",
        "e"
      ],
      [
        "ish",
        "ing"
      ],
      [
        "Ġembedding",
        "s"
      ],
      [
        "Ġuse",
        "ful"
      ],
      [
        "Ġeven",
        "ly"
      ],
      [
        "Ġdimin",
        "ishing"
      ],
      [
        "Ġcumul",
        "ative"
      ],
      [
        "Ġinvol",
        "ves"
      ],
      [
        "Ġexcess",
        "ive"
      ],
      [
        "Ġexact",
        "ly"
      ],
      [
        "d",
        "s"
      ],
      [
        "t",
        "rained"
      ],
      [
        "er",
        "ical"
      ],
      [
        "Ġco",
        "ver"
      ],
      [
        "os",
        "e"
      ],
      [
        "Ġnum",
        "erical"
      ],
      [
        "Ġfin",
        "ding"
      ],
      [
        "d",
        "ent"
      ],
      [
        "r",
        "it"
      ],
      [
        "en",
        "dent"
      ],
      [
        "Ġa",
        "ss"
      ],
      [
        "ep",
        "endent"
      ],
      [
        "Ġdis",
        "co"
      ],
      [
        "ress",
        "ion"
      ],
      [
        "Ġgre",
        "at"
      ],
      [
        "Ġind",
        "ependent"
      ],
      [
        "learn",
        "ing"
      ],
      [
        "Ġcover",
        "age"
      ],
      [
        "Ġindependent",
        "ly"
      ],
      [
        "c",
        "ision"
      ],
      [
        "k",
        "s"
      ],
      [
        "p",
        "ect"
      ],
      [
        "Ġp",
        "air"
      ],
      [
        "Ġre",
        "cal"
      ],
      [
        "iv",
        "es"
      ],
      [
        "Ġh",
        "yp"
      ],
      [
        "du",
        "c"
      ],
      [
        "pre",
        "cision"
      ],
      [
        "Ġres",
        "emb"
      ],
      [
        "Ġposit",
        "ives"
      ],
      [
        "Ġas",
        "pect"
      ],
      [
        "Ġrepresent",
        "ing"
      ],
      [
        "Ġca",
        "p"
      ],
      [
        "Ġdiscrimin",
        "ative"
      ],
      [
        "gener",
        "ative"
      ],
      [
        "Ġpair",
        "s"
      ],
      [
        "Ġrecal",
        "l"
      ],
      [
        "Ġresemb",
        "ling"
      ],
      [
        "Ġaspect",
        "s"
      ],
      [
        "d",
        "ates"
      ],
      [
        "e",
        "fit"
      ],
      [
        "o",
        "un"
      ],
      [
        "Ġs",
        "pl"
      ],
      [
        "es",
        "es"
      ],
      [
        "Ġm",
        "is"
      ],
      [
        "it",
        "ting"
      ],
      [
        "Ġf",
        "oun"
      ],
      [
        "Ġg",
        "pt"
      ],
      [
        "di",
        "dates"
      ],
      [
        "Ġexpl",
        "oring"
      ],
      [
        "Ġse",
        "lect"
      ],
      [
        "Ġover",
        "all"
      ],
      [
        "Ġcan",
        "didates"
      ],
      [
        "Ġhigh",
        "est"
      ],
      [
        "Ġenc",
        "ode"
      ],
      [
        "oth",
        "eses"
      ],
      [
        "Ġachie",
        "ves"
      ],
      [
        "Ġpatch",
        "es"
      ],
      [
        "Ġsin",
        "ce"
      ],
      [
        "Ġtre",
        "ating"
      ],
      [
        "Ġben",
        "efit"
      ],
      [
        "Ġhyp",
        "otheses"
      ],
      [
        "Ġcap",
        "abilities"
      ],
      [
        "Ġspl",
        "itting"
      ],
      [
        "Ġmis",
        "s"
      ],
      [
        "Ġfoun",
        "dation"
      ],
      [
        "Ġselect",
        "s"
      ],
      [
        "Ġbenefit",
        "s"
      ],
      [
        "Ġv",
        "ision"
      ],
      [
        "out",
        "put"
      ],
      [
        "Ġreg",
        "ression"
      ],
      [
        "class",
        "ification"
      ],
      [
        "r",
        "um"
      ],
      [
        "ect",
        "rum"
      ],
      [
        "Ġal",
        "ong"
      ],
      [
        "Ġac",
        "co"
      ],
      [
        "Ġsp",
        "ectrum"
      ],
      [
        "Ġwhere",
        "as"
      ],
      [
        "Ġcomb",
        "ine"
      ],
      [
        "Ġcategor",
        "ies"
      ],
      [
        "Ġdisco",
        "vers"
      ],
      [
        "Ġacco",
        "un"
      ],
      [
        "o",
        "od"
      ],
      [
        "Ġa",
        "g"
      ],
      [
        "Ġconcept",
        "s"
      ],
      [
        "Ġaccoun",
        "t"
      ],
      [
        "r",
        "msprop"
      ],
      [
        "ar",
        "y"
      ],
      [
        "Ġwh",
        "y"
      ],
      [
        "g",
        "nit"
      ],
      [
        "n",
        "am"
      ],
      [
        "p",
        "ose"
      ],
      [
        "re",
        "cur"
      ],
      [
        "Ġs",
        "olve"
      ],
      [
        "Ġp",
        "ur"
      ],
      [
        "Ġb",
        "oth"
      ],
      [
        "Ġb",
        "ert"
      ],
      [
        "un",
        "d"
      ],
      [
        "wh",
        "en"
      ],
      [
        "Ġon",
        "e"
      ],
      [
        "Ġnois",
        "ier"
      ],
      [
        "Ġprevious",
        "ly"
      ],
      [
        "Ġpur",
        "pose"
      ],
      [
        "o",
        "id"
      ],
      [
        "ic",
        "ations"
      ],
      [
        "Ġmeas",
        "ure"
      ],
      [
        "*",
        "*"
      ],
      [
        "n",
        "ific"
      ],
      [
        "o",
        "or"
      ],
      [
        "p",
        "ython"
      ],
      [
        "w",
        "are"
      ],
      [
        "en",
        "c"
      ],
      [
        "Ġp",
        "oor"
      ],
      [
        "ant",
        "ly"
      ],
      [
        "Ġsig",
        "nific"
      ],
      [
        "Ġappl",
        "ications"
      ],
      [
        "Ġ*",
        "*"
      ],
      [
        "**",
        ":"
      ],
      [
        "Ġsignific",
        "antly"
      ],
      [
        "b",
        "it"
      ],
      [
        "d",
        "z"
      ],
      [
        "r",
        "ary"
      ],
      [
        "s",
        "ive"
      ],
      [
        "Ġ",
        "ut"
      ],
      [
        "re",
        "ds"
      ],
      [
        "or",
        "ter"
      ],
      [
        "Ġd",
        "z"
      ],
      [
        "Ġin",
        "herent"
      ],
      [
        "Ġf",
        "requ"
      ],
      [
        "Ġh",
        "und"
      ],
      [
        "il",
        "ize"
      ],
      [
        "us",
        "oid"
      ],
      [
        "Ġar",
        "bit"
      ],
      [
        "Ġcomput",
        "es"
      ],
      [
        "Ġsh",
        "orter"
      ],
      [
        "Ġposit",
        "ion"
      ],
      [
        "Ġrecur",
        "sive"
      ],
      [
        "Ġdepth",
        "s"
      ],
      [
        "Ġsin",
        "usoid"
      ],
      [
        "Ġencoding",
        "s"
      ],
      [
        "enc",
        "ies"
      ],
      [
        "Ġut",
        "ilize"
      ],
      [
        "Ġfrequ",
        "encies"
      ],
      [
        "Ġhund",
        "reds"
      ],
      [
        "Ġarbit",
        "rary"
      ],
      [
        "Ġsinusoid",
        "al"
      ],
      [
        "Ġm",
        "ust"
      ],
      [
        "Ġe",
        "l"
      ],
      [
        "e",
        "ous"
      ],
      [
        "k",
        "l"
      ],
      [
        "x",
        "ed"
      ],
      [
        "|",
        "|"
      ],
      [
        "Ġs",
        "erv"
      ],
      [
        "al",
        "s"
      ],
      [
        "al",
        "ent"
      ],
      [
        "Ġd",
        "ue"
      ],
      [
        "an",
        "eous"
      ],
      [
        "Ġe",
        "ig"
      ],
      [
        "Ġre",
        "co"
      ],
      [
        "iv",
        "alent"
      ],
      [
        "Ġh",
        "ard"
      ],
      [
        "ab",
        "ular"
      ],
      [
        "ult",
        "aneous"
      ],
      [
        "Ġfi",
        "xed"
      ],
      [
        "Ġsim",
        "ultaneous"
      ],
      [
        "ib",
        "le"
      ],
      [
        "Ġsequential",
        "ly"
      ],
      [
        "Ġequ",
        "als"
      ],
      [
        "Ġequ",
        "ivalent"
      ],
      [
        "oc",
        "abular"
      ],
      [
        "Ġserv",
        "es"
      ],
      [
        "Ġeig",
        "en"
      ],
      [
        "Ġhard",
        "ware"
      ],
      [
        "Ġsimultaneous",
        "ly"
      ],
      [
        "ocabular",
        "y"
      ],
      [
        "c",
        "er"
      ],
      [
        "Ġc",
        "orre"
      ],
      [
        "Ġv",
        "ocabulary"
      ],
      [
        "Ġun",
        "cer"
      ],
      [
        "con",
        "volutional"
      ],
      [
        "Ġmat",
        "ric"
      ],
      [
        "val",
        "ues"
      ],
      [
        "gnit",
        "ion"
      ],
      [
        "recur",
        "rent"
      ],
      [
        "Ġreco",
        "gnition"
      ],
      [
        "Ġeigen",
        "values"
      ],
      [
        "Ġuncer",
        "tain"
      ],
      [
        "Ġmatric",
        "es"
      ],
      [
        "h",
        "ood"
      ],
      [
        "i",
        "o"
      ],
      [
        "i",
        "hood"
      ],
      [
        "k",
        "el"
      ],
      [
        "m",
        "ing"
      ],
      [
        "m",
        "oment"
      ],
      [
        "m",
        "atic"
      ],
      [
        "s",
        "y"
      ],
      [
        "u",
        "ations"
      ],
      [
        "w",
        "s"
      ],
      [
        "w",
        "rit"
      ],
      [
        "Ġd",
        "ra"
      ],
      [
        "Ġd",
        "est"
      ],
      [
        "ro",
        "ws"
      ],
      [
        "Ġf",
        "a"
      ],
      [
        "Ġg",
        "rows"
      ],
      [
        "Ġpro",
        "gressive"
      ],
      [
        "ol",
        "idation"
      ],
      [
        "cal",
        "es"
      ],
      [
        "Ġover",
        "writ"
      ],
      [
        "Ġres",
        "cales"
      ],
      [
        "Ġoptim",
        "izer"
      ],
      [
        "Ġrepresent",
        "s"
      ],
      [
        "Ġcons",
        "olidation"
      ],
      [
        "Ġlow",
        "er"
      ],
      [
        "Ġrat",
        "io"
      ],
      [
        "Ġrepl",
        "ay"
      ],
      [
        "li",
        "kel"
      ],
      [
        "Ġcalcul",
        "ated"
      ],
      [
        "Ġbeco",
        "ming"
      ],
      [
        "Ġgreat",
        "er"
      ],
      [
        "Ġel",
        "astic"
      ],
      [
        "Ġcorre",
        "ction"
      ],
      [
        "moment",
        "um"
      ],
      [
        "Ġdra",
        "matic"
      ],
      [
        "Ġdest",
        "abilizing"
      ],
      [
        "Ġoverwrit",
        "es"
      ],
      [
        "likel",
        "ihood"
      ],
      [
        "s",
        "ing"
      ],
      [
        "Ġd",
        "om"
      ],
      [
        "an",
        "h"
      ],
      [
        "Ġdy",
        "nam"
      ],
      [
        "Ġdynam",
        "ic"
      ],
      [
        "m",
        "emb"
      ],
      [
        "t",
        "anh"
      ],
      [
        "Ġre",
        "memb"
      ],
      [
        "us",
        "er"
      ],
      [
        "us",
        "sing"
      ],
      [
        "ist",
        "ic"
      ],
      [
        "Ġprob",
        "abilities"
      ],
      [
        "Ġdo",
        "t"
      ],
      [
        "Ġas",
        "ks"
      ],
      [
        "Ġscal",
        "es"
      ],
      [
        "Ġdisc",
        "ussing"
      ],
      [
        "Ġrel",
        "ated"
      ],
      [
        "Ġrelev",
        "ance"
      ],
      [
        "dat",
        "a"
      ],
      [
        "Ġproduct",
        "s"
      ],
      [
        "Ġrememb",
        "er"
      ],
      [
        "Ġt",
        "rain"
      ],
      [
        "Ġh",
        "as"
      ],
      [
        "Ġma",
        "ke"
      ],
      [
        "Ġprodu",
        "ce"
      ],
      [
        "Ġdecomp",
        "osition"
      ],
      [
        "g",
        "pt"
      ],
      [
        "l",
        "anguag"
      ],
      [
        "Ġqu",
        "est"
      ],
      [
        "languag",
        "e"
      ],
      [
        "n",
        "ot"
      ],
      [
        "t",
        "al"
      ],
      [
        "u",
        "mpt"
      ],
      [
        "Ġ",
        "ir"
      ],
      [
        "re",
        "duc"
      ],
      [
        "Ġf",
        "lu"
      ],
      [
        "ct",
        "uations"
      ],
      [
        "Ġto",
        "tal"
      ],
      [
        "ain",
        "st"
      ],
      [
        "Ġgener",
        "ate"
      ],
      [
        "os",
        "es"
      ],
      [
        "Ġres",
        "net"
      ],
      [
        "Ġsystem",
        "atic"
      ],
      [
        "Ġdecomp",
        "oses"
      ],
      [
        "Ġass",
        "umpt"
      ],
      [
        "Ġag",
        "ainst"
      ],
      [
        "Ġir",
        "reduc"
      ],
      [
        "Ġflu",
        "ctuations"
      ],
      [
        "Ġassumpt",
        "ions"
      ],
      [
        "Ġirreduc",
        "ible"
      ],
      [
        "s",
        "w"
      ],
      [
        "Ġ",
        "i"
      ],
      [
        "ar",
        "ial"
      ],
      [
        "Ġan",
        "sw"
      ],
      [
        "Ġad",
        "vers"
      ],
      [
        "--",
        "--"
      ],
      [
        "Ġadvers",
        "arial"
      ],
      [
        "Ġgener",
        "ative"
      ],
      [
        "================",
        "================"
      ],
      [
        "Ġdom",
        "ain"
      ],
      [
        "i",
        "ence"
      ],
      [
        "Ġquest",
        "ions"
      ],
      [
        "f",
        "ect"
      ],
      [
        "al",
        "gorith"
      ],
      [
        "is",
        "ual"
      ],
      [
        "Ġn",
        "as"
      ],
      [
        "Ġw",
        "ork"
      ],
      [
        "Ġg",
        "ans"
      ],
      [
        "Ġg",
        "am"
      ],
      [
        "Ġper",
        "fect"
      ],
      [
        "Ġcan",
        "not"
      ],
      [
        "Ġminim",
        "ax"
      ],
      [
        "Ġreal",
        "istic"
      ],
      [
        "Ġsc",
        "ience"
      ],
      [
        "sy",
        "ntax"
      ],
      [
        "Ġfa",
        "ke"
      ],
      [
        "Ġnas",
        "h"
      ],
      [
        "Ġgam",
        "e"
      ],
      [
        "v",
        "ision"
      ],
      [
        "Ġv",
        "isual"
      ],
      [
        "m",
        "ents"
      ],
      [
        "Ġ",
        "\""
      ],
      [
        "c",
        "ial"
      ],
      [
        "b",
        "ert"
      ],
      [
        "t",
        "elligence"
      ],
      [
        "in",
        "telligence"
      ],
      [
        "Ġinter",
        "a"
      ],
      [
        "gra",
        "mmar"
      ],
      [
        "is",
        "ions"
      ],
      [
        "Ġo",
        "th"
      ],
      [
        "Ġdec",
        "isions"
      ],
      [
        "Ġdetect",
        "ion"
      ],
      [
        "Ġdomain",
        "s"
      ],
      [
        "Ġoth",
        "er"
      ],
      [
        "h",
        "av"
      ],
      [
        "Ġa",
        "mo"
      ],
      [
        "Ġb",
        "as"
      ],
      [
        "un",
        "ts"
      ],
      [
        "Ġbe",
        "hav"
      ],
      [
        "Ġminimiz",
        "e"
      ],
      [
        "Ġamo",
        "unts"
      ],
      [
        "Ġbehav",
        "i"
      ],
      [
        "et",
        "her"
      ],
      [
        "ig",
        "n"
      ],
      [
        "Ġwh",
        "ether"
      ],
      [
        "Ġimp",
        "ort"
      ],
      [
        "Ġaut",
        "om"
      ],
      [
        "Ġimport",
        "ant"
      ],
      [
        "in",
        "for"
      ],
      [
        "Ġd",
        "es"
      ],
      [
        "ce",
        "ment"
      ],
      [
        "Ġe",
        "duc"
      ],
      [
        "de",
        "ep"
      ],
      [
        "Ġpract",
        "ice"
      ],
      [
        "infor",
        "cement"
      ],
      [
        "Ġeduc",
        "ation"
      ],
      [
        "e",
        "c"
      ],
      [
        "g",
        "r"
      ],
      [
        "p",
        "ro"
      ],
      [
        "in",
        "k"
      ],
      [
        "es",
        "ts"
      ],
      [
        "Ġprogra",
        "ms"
      ],
      [
        "Ġblock",
        "s"
      ],
      [
        "e",
        "gr"
      ],
      [
        "r",
        "ans"
      ],
      [
        "t",
        "rans"
      ],
      [
        "Ġco",
        "ding"
      ],
      [
        "Ġint",
        "egr"
      ],
      [
        "Ġbeco",
        "me"
      ],
      [
        "Ġintera",
        "ction"
      ],
      [
        "c",
        "are"
      ],
      [
        "h",
        "ow"
      ],
      [
        "n",
        "atural"
      ],
      [
        "o",
        "ts"
      ],
      [
        "Ġ",
        "ent"
      ],
      [
        "Ġt",
        "uring"
      ],
      [
        "al",
        "th"
      ],
      [
        "Ġn",
        "am"
      ],
      [
        "Ġw",
        "e"
      ],
      [
        "id",
        "er"
      ],
      [
        "Ġsp",
        "am"
      ],
      [
        "Ġcons",
        "ider"
      ],
      [
        "Ġhe",
        "alth"
      ],
      [
        "trans",
        "form"
      ],
      [
        "Ġhealth",
        "care"
      ],
      [
        "l",
        "d"
      ],
      [
        "re",
        "inforcement"
      ],
      [
        "or",
        "ld"
      ],
      [
        "Ġd",
        "ates"
      ],
      [
        "Ġde",
        "b"
      ],
      [
        "Ġsu",
        "ch"
      ],
      [
        "Ġredu",
        "ce"
      ],
      [
        "d",
        "it"
      ],
      [
        "t",
        "ime"
      ],
      [
        "re",
        "e"
      ],
      [
        "Ġf",
        "ree"
      ],
      [
        "Ġne",
        "xt"
      ],
      [
        "if",
        "ies"
      ],
      [
        "cept",
        "ion"
      ],
      [
        "Ġfe",
        "el"
      ],
      [
        "Ġ1",
        "9"
      ],
      [
        "Ġdevelop",
        "ment"
      ],
      [
        "Ġorgan",
        "ization"
      ],
      [
        "mach",
        "ines"
      ],
      [
        "Ġfocus",
        "es"
      ],
      [
        "algorith",
        "m"
      ],
      [
        "algorith",
        "ms"
      ],
      [
        "transform",
        "ers"
      ],
      [
        "Ġdeb",
        "ated"
      ],
      [
        "c",
        "um"
      ],
      [
        "n",
        "ess"
      ],
      [
        "n",
        "lp"
      ],
      [
        "at",
        "ically"
      ],
      [
        "Ġw",
        "rit"
      ],
      [
        "Ġcon",
        "dit"
      ],
      [
        "Ġdo",
        "cum"
      ],
      [
        "Ġhum",
        "ans"
      ],
      [
        "Ġefficient",
        "ly"
      ],
      [
        "Ġadjus",
        "ts"
      ],
      [
        "Ġansw",
        "ers"
      ],
      [
        "Ġautom",
        "atically"
      ],
      [
        "Ġwrit",
        "ing"
      ],
      [
        "v",
        "ir"
      ],
      [
        "Ġ",
        "&"
      ],
      [
        "Ġ",
        "Ġ"
      ],
      [
        "Ġt",
        "ests"
      ],
      [
        "at",
        "her"
      ],
      [
        "on",
        "ents"
      ],
      [
        "al",
        "se"
      ],
      [
        "Ġc",
        "atch"
      ],
      [
        "Ġf",
        "alse"
      ],
      [
        "ut",
        "e"
      ],
      [
        "Ġre",
        "us"
      ],
      [
        "Ġex",
        "ec"
      ],
      [
        "un",
        "derstand"
      ],
      [
        "Ġen",
        "vir"
      ],
      [
        "Ġcomp",
        "onents"
      ],
      [
        "Ġlo",
        "ops"
      ],
      [
        "ail",
        "s"
      ],
      [
        "Ġtr",
        "y"
      ],
      [
        "Ġvari",
        "ous"
      ],
      [
        "Ġdif",
        "f"
      ],
      [
        "Ġperform",
        "ing"
      ],
      [
        "Ġtyp",
        "es"
      ],
      [
        "eth",
        "ics"
      ],
      [
        "Ġstate",
        "ments"
      ],
      [
        "Ġph",
        "ys"
      ],
      [
        "Ġorgan",
        "ize"
      ],
      [
        "Ġass",
        "ist"
      ],
      [
        "Ġbas",
        "e"
      ],
      [
        "Ġdes",
        "ign"
      ],
      [
        "Ġexec",
        "ute"
      ],
      [
        "understand",
        "ing"
      ],
      [
        "Ġenvir",
        "on"
      ],
      [
        "'",
        "m"
      ],
      [
        "e",
        "ch"
      ],
      [
        "e",
        "val"
      ],
      [
        "k",
        "es"
      ],
      [
        "Ġ",
        "2"
      ],
      [
        "on",
        "om"
      ],
      [
        "ing",
        "ly"
      ],
      [
        "Ġp",
        "ow"
      ],
      [
        "Ġf",
        "ut"
      ],
      [
        "Ġpro",
        "gress"
      ],
      [
        "im",
        "ate"
      ],
      [
        "Ġma",
        "kes"
      ],
      [
        "Ġfin",
        "ds"
      ],
      [
        "Ġincreas",
        "ingly"
      ],
      [
        "Ġsubs",
        "et"
      ],
      [
        "Ġansw",
        "ering"
      ],
      [
        "Ġfut",
        "ure"
      ],
      [
        "\"",
        ":"
      ],
      [
        "a",
        "c"
      ],
      [
        "e",
        "ck"
      ],
      [
        "o",
        "y"
      ],
      [
        "u",
        "g"
      ],
      [
        "v",
        "el"
      ],
      [
        "Ġ",
        "["
      ],
      [
        "en",
        "cy"
      ],
      [
        "er",
        "ful"
      ],
      [
        "Ġs",
        "oc"
      ],
      [
        "Ġth",
        "ink"
      ],
      [
        "Ġc",
        "ases"
      ],
      [
        "Ġf",
        "air"
      ],
      [
        "Ġthe",
        "ory"
      ],
      [
        "Ġre",
        "p"
      ],
      [
        "Ġre",
        "t"
      ],
      [
        "ic",
        "ult"
      ],
      [
        "pl",
        "oy"
      ],
      [
        "if",
        "y"
      ],
      [
        "Ġr",
        "is"
      ],
      [
        "id",
        "e"
      ],
      [
        "Ġcont",
        "ent"
      ],
      [
        "gra",
        "mming"
      ],
      [
        "Ġch",
        "eck"
      ],
      [
        "====",
        "=="
      ],
      [
        "Ġrequire",
        "ments"
      ],
      [
        "ad",
        "agrad"
      ],
      [
        "Ġconsist",
        "ing"
      ],
      [
        "Ġhelp",
        "s"
      ],
      [
        "Ġproced",
        "ures"
      ],
      [
        "Ġcol",
        "le"
      ],
      [
        "================================",
        "================================"
      ],
      [
        "pro",
        "gramming"
      ],
      [
        "Ġintegr",
        "ation"
      ],
      [
        "Ġwe",
        "ather"
      ],
      [
        "Ġdiff",
        "icult"
      ],
      [
        "Ġphys",
        "ical"
      ],
      [
        "Ġpow",
        "erful"
      ],
      [
        "Ġfair",
        "ness"
      ],
      [
        "ploy",
        "ment"
      ],
      [
        "================================================================",
        "======"
      ],
      [
        "5",
        "0"
      ],
      [
        "c",
        "uracy"
      ],
      [
        "e",
        "hic"
      ],
      [
        "g",
        "ood"
      ],
      [
        "u",
        "ip"
      ],
      [
        "Ġ",
        "7"
      ],
      [
        "Ġ",
        "if"
      ],
      [
        "Ġt",
        "ri"
      ],
      [
        "er",
        "ai"
      ],
      [
        "Ġc",
        "ru"
      ],
      [
        "an",
        "ical"
      ],
      [
        "Ġm",
        "atch"
      ],
      [
        "ra",
        "ction"
      ],
      [
        "Ġn",
        "av"
      ],
      [
        "Ġl",
        "ist"
      ],
      [
        "Ġw",
        "orld"
      ],
      [
        "Ġe",
        "m"
      ],
      [
        "ig",
        "ation"
      ],
      [
        "im",
        "ent"
      ],
      [
        "ul",
        "ation"
      ],
      [
        "Ġv",
        "ide"
      ],
      [
        "Ġv",
        "ehic"
      ],
      [
        "ri",
        "eval"
      ],
      [
        "ip",
        "ulation"
      ],
      [
        "Ġtrans",
        "par"
      ],
      [
        "Ġimp",
        "act"
      ],
      [
        "Ġcre",
        "ative"
      ],
      [
        "Ġspe",
        "ech"
      ],
      [
        "ot",
        "ics"
      ],
      [
        "Ġmech",
        "anical"
      ],
      [
        "Ġext",
        "ract"
      ],
      [
        "Ġman",
        "ipulation"
      ],
      [
        "Ġsent",
        "iment"
      ],
      [
        "by",
        "e"
      ],
      [
        "Ġaut",
        "onom"
      ],
      [
        "Ġaccount",
        "ability"
      ],
      [
        "Ġfa",
        "cial"
      ],
      [
        "Ġent",
        "ity"
      ],
      [
        "Ġnam",
        "ed"
      ],
      [
        "Ġdocum",
        "ents"
      ],
      [
        "ac",
        "curacy"
      ],
      [
        "Ġret",
        "rieval"
      ],
      [
        "Ġcolle",
        "ction"
      ],
      [
        "good",
        "bye"
      ],
      [
        "uip",
        "erai"
      ],
      [
        "Ġtri",
        "es"
      ],
      [
        "Ġcru",
        "cial"
      ],
      [
        "Ġnav",
        "igation"
      ],
      [
        "Ġvehic",
        "les"
      ],
      [
        "Ġtranspar",
        "ency"
      ],
      [
        "Ġautonom",
        "ous"
      ],
      [
        "\"",
        ","
      ],
      [
        "b",
        "ots"
      ],
      [
        "b",
        "otics"
      ],
      [
        "i",
        "et"
      ],
      [
        "o",
        "k"
      ],
      [
        "r",
        "in"
      ],
      [
        "t",
        "ual"
      ],
      [
        "t",
        "op"
      ],
      [
        "u",
        "pl"
      ],
      [
        "v",
        "ed"
      ],
      [
        "w",
        "w"
      ],
      [
        "w",
        "ar"
      ],
      [
        "y",
        "es"
      ],
      [
        "at",
        "bots"
      ],
      [
        "Ġa",
        "ctions"
      ],
      [
        "Ġs",
        "ets"
      ],
      [
        "es",
        "ting"
      ],
      [
        "Ġp",
        "ers"
      ],
      [
        "Ġp",
        "sy"
      ],
      [
        "ro",
        "botics"
      ],
      [
        "it",
        "ion"
      ],
      [
        "it",
        "ut"
      ],
      [
        "ce",
        "iving"
      ],
      [
        "Ġl",
        "if"
      ],
      [
        "Ġw",
        "av"
      ],
      [
        "Ġre",
        "ward"
      ],
      [
        "Ġre",
        "ceiving"
      ],
      [
        "ch",
        "ology"
      ],
      [
        "as",
        "et"
      ],
      [
        "un",
        "supervised"
      ],
      [
        "Ġcon",
        "vers"
      ],
      [
        "Ġh",
        "old"
      ],
      [
        "Ġgra",
        "ph"
      ],
      [
        "Ġde",
        "ployment"
      ],
      [
        "Ġv",
        "ir"
      ],
      [
        "qu",
        "est"
      ],
      [
        "qu",
        "ality"
      ],
      [
        "Ġal",
        "an"
      ],
      [
        "ol",
        "ved"
      ],
      [
        "mm",
        "ed"
      ],
      [
        "Ġlo",
        "ok"
      ],
      [
        "Ġar",
        "t"
      ],
      [
        "os",
        "ed"
      ],
      [
        "Ġper",
        "ception"
      ],
      [
        "Ġk",
        "uiperai"
      ],
      [
        "Ġcl",
        "imate"
      ],
      [
        "Ġch",
        "atbots"
      ],
      [
        "Ġprogra",
        "mmed"
      ],
      [
        "Ġens",
        "uring"
      ],
      [
        "Ġim",
        "mens"
      ],
      [
        "Ġhuman",
        "ity"
      ],
      [
        "Ġpenalt",
        "ies"
      ],
      [
        "Ġext",
        "raction"
      ],
      [
        "Ġset",
        "back"
      ],
      [
        "Ġguid",
        "ance"
      ],
      [
        "Ġev",
        "olved"
      ],
      [
        "Ġiss",
        "ues"
      ],
      [
        "Ġprop",
        "osed"
      ],
      [
        "Ġconst",
        "itut"
      ],
      [
        "back",
        "propagation"
      ],
      [
        "Ġcorrect",
        "ed"
      ],
      [
        "Ġrespons",
        "ible"
      ],
      [
        "se",
        "cond"
      ],
      [
        "Ġrob",
        "ots"
      ],
      [
        "ap",
        "s"
      ],
      [
        "Ġhist",
        "ory"
      ],
      [
        "Ġtop",
        "ic"
      ],
      [
        "Ġcomb",
        "ines"
      ],
      [
        "Ġag",
        "ent"
      ],
      [
        "Ġbehavi",
        "oral"
      ],
      [
        "Ġconsider",
        "ation"
      ],
      [
        "Ġ19",
        "50"
      ],
      [
        "Ġassist",
        "ants"
      ],
      [
        "Ġdesign",
        "ed"
      ],
      [
        "Ġenviron",
        "ment"
      ],
      [
        "Ġsoc",
        "iet"
      ],
      [
        "Ġris",
        "ks"
      ],
      [
        "top",
        "ic"
      ],
      [
        "Ġpers",
        "on"
      ],
      [
        "Ġpsy",
        "chology"
      ],
      [
        "Ġwav",
        "es"
      ],
      [
        "Ġreward",
        "s"
      ],
      [
        "Ġhold",
        "s"
      ],
      [
        "Ġvir",
        "tual"
      ],
      [
        "quest",
        "ion"
      ],
      [
        "Ġimmens",
        "e"
      ],
      [
        "Ġsetback",
        "s"
      ],
      [
        "Ġsociet",
        "al"
      ],
      [
        "'",
        "d"
      ],
      [
        "'",
        "re"
      ],
      [
        "/",
        "/"
      ],
      [
        "0",
        "2"
      ],
      [
        "0",
        "4"
      ],
      [
        ":",
        "//"
      ],
      [
        "]",
        "("
      ],
      [
        "c",
        "ations"
      ],
      [
        "f",
        "i"
      ],
      [
        "h",
        "t"
      ],
      [
        "h",
        "ell"
      ],
      [
        "k",
        "ely"
      ],
      [
        "m",
        "it"
      ],
      [
        "o",
        "ver"
      ],
      [
        "p",
        "s"
      ],
      [
        "p",
        "ort"
      ],
      [
        "t",
        "ps"
      ],
      [
        "u",
        "able"
      ],
      [
        "w",
        "ay"
      ],
      [
        "y",
        "ou"
      ],
      [
        "Ġ",
        "99"
      ],
      [
        "in",
        "ant"
      ],
      [
        "Ġt",
        "rained"
      ],
      [
        "Ġa",
        "id"
      ],
      [
        "Ġth",
        "ose"
      ],
      [
        "Ġd",
        "i"
      ],
      [
        "Ġd",
        "ay"
      ],
      [
        "Ġd",
        "ail"
      ],
      [
        "Ġc",
        "ra"
      ],
      [
        "Ġm",
        "us"
      ],
      [
        "ar",
        "act"
      ],
      [
        "et",
        "y"
      ],
      [
        "Ġl",
        "ingu"
      ],
      [
        "Ġw",
        "el"
      ],
      [
        "Ġw",
        "ay"
      ],
      [
        "Ġw",
        "ere"
      ],
      [
        "Ġw",
        "ill"
      ],
      [
        "Ġan",
        "yth"
      ],
      [
        "Ġan",
        "oth"
      ],
      [
        "Ġe",
        "ls"
      ],
      [
        "Ġre",
        "war"
      ],
      [
        "Ġpro",
        "ject"
      ],
      [
        "Ġco",
        "me"
      ],
      [
        "as",
        "e"
      ],
      [
        "Ġst",
        "ill"
      ],
      [
        "ul",
        "y"
      ],
      [
        "ul",
        "ts"
      ],
      [
        "us",
        "e"
      ],
      [
        "Ġv",
        "ast"
      ],
      [
        "th",
        "ink"
      ],
      [
        "Ġr",
        "ang"
      ],
      [
        "Ġr",
        "ange"
      ],
      [
        "igh",
        "ts"
      ],
      [
        "st",
        "art"
      ],
      [
        "Ġun",
        "des"
      ],
      [
        "Ġlo",
        "cations"
      ],
      [
        "Ġac",
        "cess"
      ],
      [
        "ru",
        "ction"
      ],
      [
        "ari",
        "es"
      ],
      [
        "Ġte",
        "ach"
      ],
      [
        "co",
        "me"
      ],
      [
        "Ġtr",
        "uly"
      ],
      [
        "Ġtrans",
        "mit"
      ],
      [
        "Ġtrans",
        "port"
      ],
      [
        "Ġres",
        "ults"
      ],
      [
        "Ġch",
        "aract"
      ],
[...]
