{
  "metadata": {
    "vocab_size": 26613,
    "algorithm": "BPE",
    "created_at": "2026-04-25 19:04:46",
    "special_tokens": [
      "<PAD>",
      "<SOS>",
      "<EOS>",
      "<UNK>",
      "<MASK>"
    ]
  },
  "vocab": {
    "Ġmincer": 14364,
    "Ġreproofs": 24891,
    "Ġdivin": 13269,
    "catherine": 7126,
    "Ġformality": 22827,
    "ras": 21034,
    "Ġrevealed": 6751,
    "behaved": 24463,
    "Ġtraveller": 8047,
    "Ġgash": 15667,
    "Ġforbid": 7863,
    "person": 7744,
    "Ġdeclaring": 19417,
    "Ġgives": 5018,
    "urry": 13992,
    "Ġominous": 12421,
    "correct": 24483,
    "Ġsurp": 9635,
    "Ġturtle": 4200,
    "Ġarduous": 26530,
    "rem": 1525,
    "data": 2086,
    "Ġebb": 21618,
    "Ġunde": 11711,
    "Ġdisplayed": 10609,
    "Ġnod": 1890,
    "Ġzones": 22816,
    "reject": 21234,
    "Ġdocuments": 10023,
    "etuous": 21579,
    "Ġcontracting": 16008,
    "Ġpossible": 2587,
    "Ġalleged": 17289,
    "natural": 2330,
    "Ġfarewell": 9519,
    "Ġpostpone": 17305,
    "Ġbraided": 16580,
    "Ġtreacle": 14595,
    "hole": 5586,
    "abroad": 18108,
    "Ġfanatic": 23390,
    "ifiable": 18163,
    "Ġeasily": 3888,
    "Ġgoal": 10302,
    "ouring": 6419,
    "vity": 7814,
    "Ġmischief": 8541,
    "Ġseizing": 7875,
    "Ġincivility": 18571,
    "Ġinns": 17929,
    "lead": 10166,
    "!_âĢĿ": 11378,
    "Ġalterations": 19867,
    "Ġpanelled": 19651,
    "Ġhopeful": 19032,
    "Ġwrung": 14469,
    "consternation": 16924,
    "Ġapply": 1778,
    "Ġevidence": 5269,
    "Ġlabrador": 23330,
    "Ġmirth": 15541,
    "Ġgrate": 12959,
    "swimming": 24258,
    "Ġhousekeeper": 7455,
    "Ġsuits": 22079,
    "Ġminister": 18751,
    "Ġfeels": 6882,
    "Ġpassed": 2011,
    "diversity": 25896,
    "Ġnecessity": 7295,
    "class": 4094,
    "endent": 15919,
    "infliction": 25923,
    "bolt": 25135,
    "Ġweapon": 7774,
    "Ġenraptured": 26499,
    "Ġmadam": 5663,
    "awed": 10392,
    "numerous": 17429,
    "Ġcoincidence": 25483,
    "ald": 15621,
    "Ġconfidence": 6590,
    "Ġlens": 8436,
    "sur": 4522,
    "Ġcivilized": 8665,
    "_:": 17477,
    "Ġbest": 1976,
    "tu": 12508,
    "bib": 17490,
    "Ġrelieve": 8222,
    "present": 1134,
    "poverty": 22904,
    "Ġmakest": 25435,
    "Ġduncan": 13458,
    "Ġtelescopes": 25689,
    "Ġsepulchre": 20557,
    "Ġalle": 11666,
    "iantly": 13737,
    "Ġsanctioned": 26348,
    "transp": 24512,
    "iferous": 17290,
    "Ġattacked": 10568,
    "Ġoutstretched": 14195,
    "Ġtribe": 10752,
    "Ġpredef": 18514,
    "Ġswept": 7976,
    "spread": 8387,
    "declined": 25174,
    "Ġhogshead": 26366,
    "Ġexercise": 8356,
    "ioneer": 15628,
    "Ġedged": 23435,
    "ù": 186,
    "willing": 6592,
    "pivot": 21029,
    "ford": 2822,
    "mag": 6507,
    "Ġcomstock": 21847,
    "Ġdecisive": 18488,
    "Ġsuperlative": 26073,
    "Ġbackwards": 12917,
    "Ġmeal": 9697,
    "Ą": 197,
    "Ġallowed": 4055,
    "seems": 10876,
    "Ġmuttering": 10500,
    "Ġcarpet": 9357,
    "Ġthumb": 6981,
    "igger": 21697,
    "Ġsettee": 22918,
    "Ġsulk": 15045,
    "Ġreadiness": 13045,
    "Ġhonestly": 19968,
    "Ġuses": 1209,
    "Ġroman": 8321,
    "Ġgenerates": 3662,
    "Ġfancy": 3743,
    "volous": 18598,
    "Ġrelu": 1045,
    "Ġtolerable": 6949,
    "Ġowl": 20080,
    "Ġinforming": 18741,
    "Ġstones": 9222,
    "Ġdome": 15585,
    "Ġmouldings": 24735,
    "Ġasyl": 12731,
    "athan": 2958,
    ",âĢĻ": 2329,
    "Ġdefici": 22940,
    "Ġdespairing": 14772,
    "Ó": 148,
    "cre": 4248,
    "Ġstretched": 5919,
    "Ġcommunications": 16352,
    "Ġtalking": 3855,
    "ils": 3180,
    "Ġlexic": 15720,
    "Ġgap": 21595,
    "Ġnets": 21520,
    "Ġblack": 2034,
    "Ġspade": 9259,
    "direful": 25895,
    "Ġ52": 24321,
    "dish": 12449,
    "Ġchiswick": 25560,
    "Ġcylinders": 25942,
    "Ġtin": 15461,
    "Ġkindest": 23292,
    "Ġoppressed": 11191,
    "Ġord": 3733,
    "Ġboundless": 10496,
    "Ġswallow": 8951,
    "sweep": 24613,
    "Ġguinea": 8948,
    "significant": 25081,
    "Ġsisters": 3639,
    "Ġdisturbed": 8672,
    "queness": 18147,
    "Ġdimly": 9487,
    "Ġthirst": 7588,
    "Ġtremble": 6906,
    "Ġrefine": 3200,
    "Ġdestroying": 14728,
    "Ġmemorand": 23403,
    "gentleness": 24843,
    "Ġheroines": 19748,
    "Ġroanoke": 22403,
    "Ġtranscend": 25674,
    "Ġseries": 7059,
    "Ġmist": 2877,
    "typewritten": 26037,
    "Ġwat": 1287,
    "Ġdaggoo": 5441,
    "tap": 17675,
    "ulous": 4450,
    "Ġappar": 7410,
    "Ġabrid": 22268,
    "representing": 25271,
    "Ġprivileged": 20109,
    "Ġfruit": 12323,
    "Ġnaturalists": 10363,
    "Ġconstitution": 20105,
    "laugh": 10109,
    "Ġtyphoon": 12386,
    "uting": 15656,
    "Ġwrote": 5011,
    "Ġbuttons": 12777,
    "delirious": 19503,
    "Ġprotecting": 24684,
    "Ġbespe": 19240,
    "Ġliter": 8812,
    "oldened": 22635,
    "Ġdictator": 20150,
    "smallest": 23909,
    "Ġoscillations": 2898,
    "uine": 13797,
    "Ġhastily": 5763,
    "Ġwh": 328,
    "Ġboys": 5194,
    "Ġlearning": 386,
    "Ġdisplay": 6427,
    "Ö": 151,
    "Ġnarrower": 24354,
    "de": 459,
    "Ġhedgehog": 10645,
    "Ġlodged": 11254,
    "ed": 293,
    "Ġsuggest": 5417,
    "Ġentic": 16143,
    "among": 6256,
    "fr": 4804,
    "Ġfasc": 12594,
    "unob": 21872,
    "Ġexceeding": 1581,
    "riers": 18185,
    "Ġag": 684,
    "Ġcontemplate": 19889,
    "rable": 11633,
    "Ġcompass": 4406,
    "Ġcompute": 2906,
    "idable": 8144,
    "liament": 16215,
    "Ġarsac": 11741,
    "Ġunwaning": 25170,
    "Ġlikely": 3597,
    "Ġwon": 1660,
    "Ġsorrows": 13351,
    "Ġoutskirts": 17455,
    "Ġupbraid": 18317,
    "Ġfly": 3867,
    "Ġplowdon": 26446,
    "Ġfavours": 23280,
    "rip": 9241,
    "factories": 19839,
    "scruple": 26043,
    "Ġcommis": 22667,
    "Ġslight": 3118,
    "iter": 4389,
    "lovel": 22507,
    "Ô": 149,
    "fl": 3599,
    "chambers": 25454,
    "Ġrows": 10562,
    "Ġderive": 10395,
    "Ġch": 513,
    "Ġselling": 21222,
    "Ġeverywhere": 9796,
    "narrow": 11509,
    "Ġrussian": 14350,
    "ity": 417,
    "phants": 9320,
    "icuous": 10836,
    "Ġdiscol": 12948,
    "ning": 952,
    "Ġcomrades": 9554,
    "Ġsleeper": 8601,
    "Ġgros": 14821,
    "Ġmonsie": 11449,
    "Ġilliter": 23467,
    "Ġdecks": 6900,
    "Ġfollows": 7671,
    "Ġever": 1181,
    "oul": 4698,
    "Ġticklish": 25033,
    "¥": 103,
    "Ġtortured": 14923,
    "Ġmonths": 3455,
    "acted": 11011,
    "Ġlocket": 22109,
    "Ġ1828": 25719,
    "intolerable": 22935,
    "Ġbuckle": 17032,
    "Ġminded": 23231,
    "Ġapproaching": 6283,
    "icle": 10835,
    "Ġhammers": 13237,
    "knives": 14912,
    "iates": 13735,
    "meant": 7919,
    "ighb": 10424,
    "Ġstage": 7388,
    "strils": 10459,
    "Ġunharmed": 15138,
    "Ġbanish": 15566,
    "Ġholes": 16405,
    "Ġimplac": 24873,
    "riage": 2126,
    "rosings": 15640,
    "Ġner": 1643,
    "Ġtall": 4035,
    "goose": 19100,
    "Ġunusual": 6552,
    "Ġmines": 21306,
    "Ġtreatment": 12068,
    "aught": 2680,
    "known": 3567,
    "listened": 15043,
    "whom": 8183,
    "Ġdirector": 18919,
    "racted": 4774,
    "Ġinstantaneously": 23659,
    "Ġpartners": 11854,
    "ildad": 3530,
    "Ġdiligently": 11407,
    "Ġbackground": 18632,
    "Ġpenn": 11113,
    "customary": 25894,
    "Ġlinks": 13953,
    "Ġrepeat": 7998,
    "Ġentering": 6284,
    "Ġfolk": 10376,
    "Ġrehears": 15696,
    "Ġsickness": 10539,
    "Ġdem": 11674,
    "Ġrabbit": 4286,
    "how": 1641,
    "heim": 17746,
    "Ġexceptionable": 25503,
    "Ġreaches": 18031,
    "eth": 619,
    "ī": 236,
    "twenty": 6607,
    "sher": 5217,
    "Ġsupre": 10270,
    "positive": 20565,
    "feed": 9293,
    "crew": 7543,
    "Ġpinioned": 21479,
    "Ġdecently": 22447,
    "so": 891,
    "ishness": 22338,
    "helmsman": 24287,
    "avish": 22590,
    "Ġphysi": 9988,
    "Ġfarther": 5953,
    "Ġlieuten": 13322,
    "uer": 21098,
    "Ġfrontispiece": 23911,
    "Ġdisenc": 22522,
    "Ġgans": 5821,
    "Ġgurgling": 17444,
    "Ġfashioned": 13316,
    "Ġfortune": 4238,
    "omn": 15678,
    "Ġmetrics": 19057,
    "kes": 3676,
    "ighbour": 3389,
    "Ġzigzag": 26271,
    "Ġbreathing": 9444,
    "Ġlouder": 13465,
    "step": 2455,
    "Ġfairest": 20459,
    "Ġsavoury": 23875,
    "Ġsevere": 6030,
    "Ġhelp": 1638,
    "Ġstalked": 20425,
    "Ġcowards": 12569,
    "Ġexpon": 971,
    "Ġnetherfield": 3927,
    "Ġpeddling": 24798,
    "Ġsharply": 9402,
    "Ġvan": 1085,
    "Ġlived": 3988,
    "intelligence": 5882,
    "Ġsystematically": 4088,
    "Ġball": 3622,
    "Ġundoubtedly": 8311,
    "exhibited": 18476,
    "Ġcouple": 5423,
    "Ġ114": 24438,
    "Ġfunny": 7636,
    "Ġswelling": 11923,
    "une": 2784,
    "Ġrefresh": 10346,
    "Ġda": 5150,
    "Ġreasonably": 11090,
    "Ġmarvel": 23032,
    "Ġ84": 19706,
    "Ġsimultaneous": 22584,
    "hastened": 16844,
    "waste": 21132,
    "onsensical": 18575,
    "nigh": 13761,
    "dataset": 23218,
    "aim": 2757,
    "deliber": 17424,
    "contented": 14634,
    "Ġcorresponds": 19818,
    "considered": 9581,
    "Ġlie": 4404,
    "Ġwick": 2006,
    "Ġbarrel": 23790,
    "Ġdece": 6996,
    "rob": 5534,
    "rushed": 10585,
    "fire": 6356,
    "Ġtails": 9902,
    "Ġenh": 2786,
    "ities": 1828,
    "Ġattraction": 18618,
    "Ġrequired": 7226,
    "Ġslapped": 23169,
    "ahab": 4287,
    "Ġslo": 15504,
    "Ġstepfather": 7220,
    "obed": 14445,
    "tout": 21063,
    "Ġcontest": 18472,
    "Ġwarsaw": 26166,
    "fthand": 26385,
    "Ġadler": 8172,
    "lested": 14882,
    "Ġcorners": 18873,
    "Ġstaid": 21731,
    "loa": 18535,
    "gorith": 553,
    "these": 3241,
    "somerset": 26321,
    "Ġhates": 21482,
    "rior": 12737,
    "Ġjour": 11762,
    "Ġwilliam": 3481,
    "Ġcucumber": 21353,
    "Ġhailed": 6406,
    "Ġincor": 2611,
    "Ġfeatures": 1433,
    "Ġdart": 4584,
    "Ġforests": 13590,
    "Ġtraverse": 18888,
    "ued": 7560,
    "glancing": 11216,
    "commanding": 24751,
    "sensibility": 25022,
    "Ġsheep": 10927,
    "Ġmourn": 8704,
    "Ġplun": 6281,
    "Ġwelcome": 5604,
    "Ġtap": 12522,
    "Ġpeels": 22687,
    "spring": 7230,
    "Ġworsh": 12995,
    "shortened": 24746,
    "Ġtranspired": 16783,
    "Ġdisregarded": 22526,
    "Ġfid": 10804,
    "Ġquietude": 19357,
    "Ġmoney": 3418,
    "Ġmissionary": 25695,
    "Ġturkey": 19218,
    "Ġsticking": 13424,
    "Ġhousehold": 8567,
    "Ġpenal": 1774,
    "Ġkissed": 10045,
    "Ġhaven": 8472,
    "Ġpersonality": 16475,
    "Ġhovers": 19077,
    "oga": 22704,
    "Ġdevious": 22720,
    "Ġrue": 11865,
    "neville": 22456,
    "Ġapprehens": 5682,
    "ondescript": 22913,
    "Ġprecisely": 6465,
    "baned": 17494,
    "Ġdouble": 4940,
    "beg": 22483,
    "know": 2319,
    "Ġmethinks": 10391,
    "Ġvindictive": 20466,
    "Ġnetwork": 453,
    "Ġgri": 17987,
    "Ġweave": 21917,
    "Ġadorned": 15245,
    "restored": 18977,
    "Ġby": 383,
    "achment": 5464,
    "Ġaccuracy": 1098,
    "Ġkneel": 14806,
    "Ġplatonian": 25117,
    "Ġinwards": 15617,
    "were": 2561,
    "che": 3170,
    "Ġamend": 16032,
    "Ġanytime": 12881,
    "incess": 15480,
    "Ġscrib": 22294,
    "Ġsuspected": 9063,
    "Ġperverseness": 13652,
    "):": 11463,
    "crown": 13696,
    "urmount": 13994,
    "Ġhorses": 6384,
    "understanding": 1171,
    "Ġaust": 4871,
    "Ġattention": 1170,
    "Ġdrab": 13067,
    "Ġhorns": 11124,
    "Ġpersuasion": 10499,
    "Ġjoist": 19230,
    "Ġgot": 2281,
    "Ġemper": 9861,
    "Ġcatastrophic": 3540,
    "Ġcause": 2410,
    "Ġreigned": 13985,
    "Ġmug": 21310,
    "Ġflour": 8945,
    "philosop": 9567,
    "south": 8759,
    "Ġrelations": 5852,
    "Ġmuff": 8112,
    "Ġwisely": 13268,
    "smoking": 23908,
    "ra": 314,
    "Ġpatriot": 23294,
    "Ġseason": 5237,
    "leaves": 12574,
    "eyes": 5684,
    "Ġsavor": 23873,
    "Ġund": 4117,
    "Ġbarrow": 12066,
    "Ġraised": 4660,
    "Ġstreat": 15717,
    "thanking": 24330,
    "Ġjovial": 19232,
    "complacency": 19911,
    "Ġdre": 1744,
    "affectionate": 24920,
    "Ġworsted": 19991,
    "Ġmurmur": 14589,
    "Ġcloser": 8660,
    "Ġsleepers": 13146,
    "Ġnorthward": 13317,
    "Ġhauling": 14085,
    "ciousness": 20815,
    "Ġcanals": 22158,
    "Ġadditional": 7934,
    "Ġcrane": 23438,
    "Ġ106": 24414,
    "luyt": 18453,
    "oard": 4809,
    "Ġhollow": 5648,
    "Ġcheered": 16366,
    "Ġinvade": 19141,
    "Ġretain": 7861,
    "lotte": 3332,
    "Ġmemorable": 16425,
    "Ġgnawed": 25164,
    "Ġextinguish": 14327,
    "retion": 9363,
    "94": 4803,
    "Ġmostly": 7662,
    "anging": 3549,
    "Ġsharpened": 17363,
    "Ġconfines": 23304,
    "Ġhatchway": 13522,
    "del": 4072,
    "Ġuplifted": 11647,
    "whence": 23215,
    "Ġspr": 4022,
    "Ġgibe": 25958,
    "Ġbanks": 6814,
    "Ġherd": 7886,
    "rimin": 2424,
    "caused": 25519,
    "ahawk": 23315,
    "Ġwarmed": 12021,
    "Ġdivinest": 25721,
    "Ġsoaked": 15859,
    "Ġsupervised": 3283,
    "Ġlinear": 3432,
    "Ġpanthe": 19650,
    "Ġvocabulary": 4995,
    "Ġfancied": 7325,
    "Ġexcept": 3314,
    "invol": 12526,
    "Ġsomething": 1798,
    "Ġgallantry": 15102,
    "yingly": 23113,
    "Ġfewer": 16219,
    "inform": 10144,
    "Ġarrang": 2467,
    "Ġreturned": 2891,
    "Ġeas": 2354,
    "Ġwail": 21284,
    "Ġauthentic": 20533,
    "Ġcircumvent": 25063,
    "Ġflattened": 26046,
    "aus": 1504,
    "Ġspark": 6689,
    "Ġcigaret": 16974,
    "Ġdavis": 25951,
    "Ġclapped": 9745,
    "Ġworld": 1596,
    "imprudent": 14651,
    "expression": 10548,
    "Ġincarn": 11813,
    "Ġinfamy": 14502,
    "odecimo": 11446,
    "difference": 13706,
    "staff": 21652,
    "Ġbehavioral": 11398,
    "atory": 6125,
    "make": 5793,
    "Ġlob": 7626,
    "Ġarrested": 9560,
    "Ġcaring": 23088,
    "Ġunb": 10908,
    "Ġunconcern": 14116,
    "Ġestates": 16457,
    "Ġindel": 12999,
    "Ġbeings": 2489,
    "Ġperpetual": 12300,
    "stall": 21642,
    "Ġcru": 2823,
    "counterpart": 26358,
    "oin": 17616,
    "invest": 11561,
    "sent": 757,
    "Ġbears": 6829,
    "sand": 21050,
    "Ġgraves": 11707,
    "gee": 15971,
    "mix": 20972,
    "eral": 9160,
    "Ġblend": 14398,
    "Ġappeared": 2775,
    "Ġsweep": 8264,
    "thodox": 21985,
    "Ġgathering": 14976,
    "Ġeditions": 19119,
    "bennet": 5352,
    "shrugged": 22441,
    "Ġpreservation": 24626,
    "ariously": 18529,
    "Ġseals": 11694,
    "prevailed": 17343,
    "Ġrepugnant": 26589,
    "fortunes": 6331,
    "Ġabove": 2937,
    "ornamented": 26594,
    "sherlock": 5422,
    "comfortable": 7319,
    "Ġspinal": 12299,
    "divided": 25017,
    "Ġpennies": 17269,
    "Ġtrusted": 10518,
    "Ġintim": 6838,
    "Ġsch": 13833,
    "kick": 20934,
    "Ġliver": 14227,
    "whispering": 26102,
    "Ġmonoman": 7937,
    "Ġoverjoyed": 17456,
    "Ġclosing": 11771,
    "Ġpractical": 3163,
    "water": 4868,
    "Ġpatagonian": 20532,
    "Ġlancaster": 26339,
    "Ġsurmisings": 26592,
    "igantic": 5539,
    "Ġindispens": 22951,
    "Ġnumer": 3637,
    "Ġsystemat": 18438,
    "Ġgraceful": 11298,
    "accustomed": 13154,
    "Ġinscrutable": 10673,
    "ĝ": 222,
    "arded": 5029,
    "added": 11659,
    "parameter": 2959,
    "Ġautumn": 14509,
    "share": 14234,
    "ential": 828,
    "Ġscandinavian": 26343,
    "pencil": 18826,
    "Ġeffectual": 18726,
    "Ġbustle": 17226,
    "slouched": 24557,
    "fluke": 25204,
    "violent": 14580,
    "restoration": 23236,
    "Ġbless": 4339,
    "Ġshillings": 15832,
    "Ġcast": 3605,
    "indisc": 22369,
    "someone": 14564,
    "Ġantelope": 24179,
    "ren": 549,
    "hosmer": 25901,
    "Ġwear": 6029,
    "thither": 21980,
    "Ġdash": 8120,
    "Ġbreaking": 6309,
    "Ġdespond": 14667,
    "Ġcomputing": 2220,
    "Ġcarn": 17821,
    "Ġsuperl": 16444,
    "Ġxxxii": 24969,
    "morland": 24153,
    "try": 7811,
    "Ġmuscles": 12085,
    "legs": 13179,
    "Ġconvention": 25546,
    "Ġleg": 2337,
    "contact": 23727,
    "Ġblackness": 9392,
    "Ġunpleasant": 7190,
    "Ġchilly": 25562,
    "pidation": 18892,
    "Ġushered": 18355,
    "Ġgoing": 2067,
    "Ġsolution": 9805,
    "Ġmonster": 3791,
    "fugitive": 26130,
    "Ġdelayed": 9517,
    "bearance": 22490,
    "Ġarguments": 8035,
    "ights": 8474,
    "Ġtyph": 10008,
    "ceptibly": 22359,
    "Ġwhims": 12688,
    "Ġsurprising": 14597,
    "Ġvane": 22873,
    ")âĢĶâĢľ": 20741,
    "Ġaccording": 5508,
    "Ġhing": 11605,
    "Ġtrumpet": 9573,
    "Ġboat": 1278,
    "Ġmen": 1435,
    "size": 15423,
    "individual": 18435,
    "example": 16010,
    "Ġcharing": 14180,
    "Ġrelated": 3712,
    "Ġpagans": 16920,
    "shrouded": 26360,
    "Ġsaviour": 20711,
    "alization": 733,
    "brevi": 24072,
    "Ġrepe": 3281,
    "Ġplaymate": 23636,
    "Ġfest": 10805,
    "Ġmoot": 22426,
    "abez": 10223,
    "Ġshudderings": 25200,
    "Ġwhosoever": 21715,
    "Ġneedless": 19228,
    "umb": 3477,
    "erringly": 16209,
    "ge": 560,
    "shazz": 14239,
    "Ġkeys": 11994,
    "Ġrustic": 14963,
    "lin": 9604,
    "Ġledger": 19399,
    "thanked": 24331,
    "injury": 25213,
    "esu": 17901,
    "henomen": 10495,
    "Ġsecondly": 14519,
    "Ġcrackling": 24957,
    "ctor": 13958,
    "Ġrainy": 24341,
    "Ġsinusoidal": 4801,
    "block": 11472,
    "Ġfoundations": 11074,
    "Ġsimple": 1621,
    "Ġearning": 23938,
    "Ġspeakest": 23484,
    "Ġheeded": 13400,
    "Ġquest": 2002,
    "hend": 13248,
    "clouds": 25496,
    "âĢĶâĢĻâĢĿ": 20060,
    "Ġfluctu": 5267,
    "ompl": 4535,
    "least": 8785,
    "----âĢĻ": 24097,
    "superstitiousness": 25507,
    "Ġshoulders": 5566,
    "proceeding": 20138,
    "larger": 24202,
    "Ġdistrusted": 13539,
    "Ġcalculated": 4475,
    "hered": 5623,
    "?--": 15301,
    "Ġfoss": 9850,
    "Ġrec": 898,
    "Ġsurvived": 14933,
    "Ġemployment": 8629,
    "iger": 8445,
    "Ġconveyed": 8333,
    "wer": 8393,
    "project": 16422,
    "sal": 8758,
    "announcement": 24562,
    "Ġwid": 4632,
    "phon": 4125,
    "gradient": 2274,
    "Ġsorely": 17255,
    "Ġcensus": 15095,
    "Ġgrows": 4985,
    "rents": 5308,
    "Ġyears": 1894,
    "osy": 11757,
    "entle": 1739,
    "Ġpound": 12612,
    "nes": 6961,
    "contempl": 13188,
    "Ġserviceable": 24716,
    "overed": 2853,
    "Ġprocedure": 2809,
    "barn": 17481,
    "Ġglances": 10373,
    "inished": 17733,
    "Ġcertainly": 2497,
    "Ġverte": 9440,
    "rodden": 21531,
    "analy": 17838,
    "anity": 9655,
    "Ġindependence": 12101,
    "Ġpivot": 13921,
    "writ": 16552,
    "chiefly": 14845,
    "attempt": 9361,
    "cele": 21621,
    "tumultuous": 20395,
    "Ġaglow": 22510,
    "abama": 12705,
    "Ġcoarse": 14273,
    "Ġexam": 3708,
    "Ġhandy": 12931,
    "Ġroots": 11187,
    "Ġtrinity": 22363,
    "yden": 21141,
    "zeal": 16260,
    "Ġ38": 24077,
    "Ġnatures": 16504,
    "Ġbruited": 25772,
    "Ġoversight": 22354,
    "Ġbarbarously": 24818,
    "Ġmead": 8836,
    "nelson": 25619,
    "consp": 18501,
    "rab": 7595,
    "Ġpulled": 5660,
    "geneva": 13728,
    "Ġhoisting": 9862,
    "mole": 22700,
    "Ġpetrified": 19593,
    "Ġclumsy": 9580,
    "agues": 8159,
    "ribbed": 16410,
    "Ġunbounded": 18259,
    "Ġglued": 20586,
    "attachment": 13047,
    "redible": 15801,
    "Ġsin": 1518,
    "Ġspeedily": 7710,
    "Ġcup": 5697,
    "ol": 362,
    "Ġthou": 1811,
    "Ġintroduces": 3270,
    "Ġarchipelagoes": 14348,
    "Ġherbage": 25995,
    "barbaric": 26357,
    "Ġstraits": 7992,
    "gratification": 24348,
    "anzas": 17840,
    "Ġenem": 4707,
    "Ġcom": 368,
    "ps": 4573,
    "tered": 2231,
    "Ġcompan": 2174,
    "daggoo": 13705,
    "Ġgesture": 11401,
    "Ġsmaller": 1885,
    "Ġlimb": 9401,
    "Ġtool": 21507,
    "Ġcastaways": 19425,
    "Ġwager": 17792,
    "Ġcontinuously": 23203,
    "grace": 5846,
    "housekeeping": 24103,
    "based": 2963,
    "increased": 20267,
    "experience": 17157,
    "Ġ87": 19707,
    "Ġinsane": 19267,
    "speptic": 23943,
    "Ġprocedural": 12028,
    "Ġtheoretic": 23310,
    "Ġglo": 1714,
    "Ġescaping": 13132,
    "Ġnocturnal": 20713,
    "between": 5071,
    "Ġinnermost": 12157,
    "Ġcaptured": 7244,
    "Ġdan": 8793,
    "Ġforlorn": 14013,
    "Ġparty": 3508,
    "epilogue": 22099,
    "Ġmajor": 13288,
    "Ġcond": 3872,
    "ilations": 21718,
    "iting": 2159,
    "Ġtomb": 8808,
    "Ġwhoa": 22418,
    "Ġlees": 18075,
    "Ġcontingency": 26243,
    "problems": 11436,
    "vol": 732,
    "Ġwoodlands": 23518,
    "Ġvinegar": 20096,
    "Ġprocesses": 3632,
    "intern": 23735,
    "ersed": 10260,
    "brink": 23575,
    "Ġsling": 21218,
    "Ġflurry": 18860,
    "gy": 2097,
    "seemingly": 25362,
    "Ġtolerably": 8066,
    "Ġac": 844,
    "Ġseen": 1369,
    "happen": 19329,
    "reposed": 24492,
    "Ġslyness": 25266,
    "leviathans": 19934,
    "Ġradiating": 24335,
    "Ġegg": 8819,
    "nowledge": 10290,
    "Ġsubsided": 14550,
    "enhall": 13848,
    "Ġsolicitude": 10040,
    "vari": 1521,
    "Ġglasses": 9474,
    "Ġpalsied": 25778,
    "Ġinfirm": 19019,
    "vengeance": 13353,
    "Ġprisoner": 8673,
    "amore": 21839,
    "simon": 16971,
    "Ġproof": 6153,
    "circumamb": 26086,
    "Ġprofoundly": 16858,
    "greg": 6647,
    "osely": 9265,
    "Ġlent": 21543,
    "treasures": 26151,
    "lins": 2027,
    "Ġworthy": 7240,
    "pitch": 13295,
    "riages": 10244,
    "Ġrokovoko": 22402,
    "ske": 13780,
    "passing": 14811,
    "Ġfireplace": 13142,
    "Ġsteamer": 17187,
    "Ġepid": 18004,
    "afric": 19177,
    "jah": 17580,
    "Ġdanced": 7841,
    "Ġbear": 3656,
    "Ġproclaim": 18131,
    "Ġcas": 8409,
    "bless": 22308,
    "tedious": 22629,
    "partly": 14602,
    "Ġblacksmiths": 19870,
    "odd": 21805,
    "Ġbrother": 2750,
    "Ġstorm": 4298,
    "##": 2317,
    "quid": 18146,
    "iver": 2050,
    "Ġembatt": 18847,
    "Ġdistinguished": 8271,
    "Ġprev": 6264,
    "400": 20753,
    "fal": 17535,
    "Ġessence": 13402,
    "apprehens": 17404,
    "Ġsuite": 18277,
    "Ġdisconsol": 18555,
    "Ġmerchant": 6466,
    "Ġrecklessness": 24743,
    "Ġfo": 1649,
    "Ġglu": 15664,
    "Ġuseless": 7036,
    "Ġdives": 17890,
    "Ġfriendly": 9820,
    "Ġparading": 23710,
    "Ġadmire": 5263,
    "ounds": 4155,
    "Ġmeddle": 19489,
    "Ġrank": 6258,
    "reed": 6372,
    "convers": 6566,
    "irted": 14070,
    "Ġauthors": 10417,
    "Ġsplintered": 11420,
    "multiple": 15106,
    "Ġcling": 11770,
    "Ġquiver": 15999,
    "Ġmaria": 7123,
    "Ġpon": 10176,
    "Ġslipper": 24265,
    "als": 2043,
    "uled": 11538,
    "apology": 22329,
    "Ġfaultless": 24540,
    "Ġ115": 24439,
    "Ġinstead": 2790,
    "Ġdisobey": 18557,
    "difficulty": 12387,
    "Ġcomforter": 20503,
    "Ġjew": 9467,
    "Ġethere": 23948,
    "Ġlanguor": 12843,
    "Ġblackest": 19097,
    "Ġrumpled": 24600,
    "Ġafghan": 22626,
    "beneath": 9534,
    "Ġcubic": 20084,
    "pass": 4288,
    "without": 4846,
    "Ġweighty": 16029,
    "Ġrecklessly": 16981,
    "icable": 6387,
    "'m": 9583,
    "unctuous": 21879,
    "savor": 25023,
    "Ġunex": 11712,
    "Ġhollowly": 24526,
    "Ġretrogress": 23070,
    "anite": 17837,
    "Ġmaj": 3923,
    "Ġeffusions": 18526,
    "Ġadvocate": 13674,
    "Ġottoman": 17376,
    "calmly": 20136,
    "Ġstrengthen": 20698,
    "Ġcomprise": 18582,
    "Ġtea": 5041,
    "bellies": 19970,
    "Ġdestabilizing": 5053,
    "Ġbreat": 3460,
    "Ġslowly": 3617,
    "bohemia": 20729,
    "Ġrequested": 14308,
    "Ġreligions": 20104,
    "Åĵuv": 15181,
    "Ġdamps": 23473,
    "Ġostrich": 26429,
    "interview": 19297,
    "Ġwouldn": 6044,
    "Ġinvoking": 19144,
    "Ġberry": 19743,
    "Ġprehens": 22227,
    "Ġintense": 6157,
    "hide": 10704,
    "Ġbite": 10798,
    "Ġdistributed": 18660,
    "Ġgowns": 25359,
    "made": 4808,
    "Ġdried": 7366,
    "Ġsmallest": 6429,
    "Ġt": 261,
    "travellers": 24318,
    "Ġbites": 23742,
    "Ġborders": 15568,
    "Ġdiscoloured": 15250,
    "Ġcetace": 14987,
    "Ġimbib": 22171,
    "function": 4381,
    "Ġimitate": 14157,
    "hit": 20887,
    "enstein": 5799,
    "Ġfame": 21403,
    "Ġfreshly": 23984,
    "Ġlearnable": 3993,
    "Ġworry": 18814,
    "complied": 19910,
    "Ġsuch": 792,
    "n": 82,
    "abouts": 9451,
    "Ġrum": 5923,
    "Ġnobler": 14175,
    "Ġinsanity": 12044,
    "Ġstables": 23656,
    "Ġpredicting": 2415,
    "Ġobserver": 11986,
    "culine": 19064,
    "ographical": 16785,
    "Ġferocious": 17417,
    "Ġglow": 7169,
    "Ġtoil": 6530,
    "Ġflogged": 23623,
    "Ġirresistible": 13109,
    "Ġresist": 7914,
    "Ġack": 5622,
    "condition": 7058,
    "Ġloudly": 7311,
    "unimportant": 18159,
    "Ġparting": 9784,
    "Ġfrosts": 19799,
    "matical": 13126,
    "Ġdrugged": 12598,
    "Ġconsidering": 4614,
    "nlp": 8751,
    "Ġlover": 7192,
    "Ġbass": 17855,
    "whel": 7663,
    "į": 240,
    "Ġsixty": 7721,
    "ameter": 2905,
    "perform": 15891,
    "took": 6164,
    "Ġless": 1936,
    "Ġstalk": 12693,
    "pped": 1999,
    "Ġcontract": 18474,
    "pleased": 8854,
    "Ġrepresent": 1211,
    "ind": 568,
    "Ġvariously": 18652,
    "Ġcommander": 8625,
    "osque": 22258,
    "period": 15892,
    "Ġirrespective": 23373,
    "Ġhopes": 4232,
    "Ġfortunate": 6214,
    "dying": 10695,
    "alid": 13933,
    "circuit": 24187,
    "þ": 191,
    "ģ": 228,
    "Ġdecline": 9288,
    "lled": 10108,
    "lighted": 23753,
    "inois": 17738,
    "Ġaccompanying": 11306,
    "despond": 19797,
    "Ġlaud": 17967,
    "Ġfumes": 21415,
    "Ġstudied": 11116,
    "aches": 6569,
    "exciting": 19665,
    "Ġdeplored": 20501,
    "undertaking": 23786,
    "Ġpathetic": 19031,
    "Ġimpute": 18330,
    "sembled": 7262,
    "Ġsure": 1866,
    "uous": 4142,
    "chase": 11645,
    "Ġsi": 21210,
    "Ġwanting": 6721,
    "Ġsquall": 7042,
    "gments": 12466,
    "Ġrecept": 1527,
    "alleled": 14428,
    "Ġridges": 16730,
    "culiarity": 11143,
    "Ġproceed": 3242,
    "Ġwickham": 2206,
    "Ġstick": 6024,
    "dry": 13701,
    "Ġmove": 5107,
    "Ġmoonshine": 19594,
    "Ġlowest": 11123,
    "isson": 23460,
    "Ġattaining": 15800,
    "Ġwill": 679,
    "Ġplaited": 14282,
    "assure": 9269,
    "Ġcompos": 22565,
    "Ġharvest": 13412,
    "Ġregions": 10324,
    "Ġalchemists": 26486,
    "Ġupbraiding": 26225,
    "stayed": 25290,
    "Ġhandkerchief": 8914,
    "Ġsumat": 14129,
    "simp": 17664,
    "Ġdup": 21424,
    "Ġmannish": 26236,
    "Ġdisputes": 25824,
    "Ġsternly": 16714,
    "Ġmonuments": 22974,
    "seeking": 17151,
    "fra": 8373,
    "Ġterti": 14538,
    "othing": 6995,
    "strang": 11185,
    "Ġdawn": 6816,
    "our": 534,
    "Ġfunctions": 1343,
    "Ġfinery": 23123,
    "Ġsibbald": 21228,
    "robe": 15638,
    "childhood": 16867,
    "Ġcomely": 21844,
    "Ġhover": 15616,
    "Ġbunch": 11327,
    "Ġkink": 22186,
    "Ġlearn": 364,
    "apse": 14198,
    "hamlet": 23262,
    "Ġscruple": 25047,
    "Ġbow": 3061,
    "Ġloitered": 26524,
    "Ġphiladelphia": 26603,
    "Ġprediction": 2197,
    "olet": 13764,
    "Ġjokes": 18402,
    "Ġjenny": 20159,
    "Ġextracts": 9352,
    "wam": 10136,
    "Ġflies": 13021,
    "Ġbell": 4635,
    "Ġabraham": 18394,
    "Ġauthority": 7747,
    "Ġken": 22184,
    "while": 2936,
    "Ġphrenolog": 12331,
    "Ġgovernment": 15175,
    "Ġdeserted": 8637,
    "Ġinsure": 13175,
    "Ġauthor": 4371,
    "ĠĠĠĠĠĠĠĠĠĠĠĠĠĠĠĠĠĠĠĠĠĠĠĠ": 5321,
    "cap": 8371,
    "networks": 2405,
    "Ġanom": 12607,
    "boy": 4738,
    "Ġrighteous": 18944,
    "Ġmurmuring": 23578,
    "jephro": 26391,
    "Ġperformed": 8546,
    "Ġalluded": 7883,
    "Ġdesper": 6176,
    "Ġxiv": 23406,
    "Ġunaccount": 22023,
    "gladness": 25194,
    "!--": 10678,
    "Ġproducing": 11897,
    "Ġclang": 15959,
    "ieged": 22574,
    "extreme": 11030,
    "Ġmilitary": 11260,
    "Ġin": 291,
    "Ġdinah": 9452,
    "Ġash": 4832,
    "Ġintend": 12760,
    "tland": 21071,
    "Ġern": 8395,
    "inside": 23062,
    "Ġdisgraceful": 15019,
    "Ġdiet": 13908,
    "Ġsuck": 15857,
    "back": 2017,
    "oundered": 14164,
    "Ġruled": 22783,
    "Ġbedside": 19120,
    "Ġdecl": 3589,
    "Ġabhor": 5467,
    "Ġlothario": 26183,
    "Ġclipping": 2440,
    "Ġhovel": 8252,
    "Ġsomehow": 4841,
    "Ġbreezes": 14868,
    "Ġnow": 691,
    "suspect": 9539,
    "istol": 6259,
    "main": 8086,
    "impenetrable": 26195,
    "Ġproxim": 3197,
    "Ġventilator": 8714,
    "Ġsimilitude": 19209,
    "Ġtim": 4577,
    "Ġlashing": 11617,
    "Ġarter": 22179,
    "Ġfainting": 16896,
    "Ġmott": 17803,
    "Ġjavan": 24995,
    "feeling": 6616,
    "twelvemonth": 25861,
    "Ġrefres": 14342,
    "Ġgazette": 19498,
    "Ġthorough": 6245,
    "Ġtogether": 1881,
    "Ġforce": 5092,
    "Ġjelly": 22286,
    "Ġpushing": 10820,
    "ashtego": 4100,
    "Ġbinnacle": 8117,
    "Ġengravings": 15064,
    "attery": 18494,
    "Ġplanets": 24053,
    "Ġforever": 14554,
    "Ġbatt": 13897,
    "down": 3468,
    "Ġlace": 13947,
    "quohog": 21854,
    "Ġslay": 16304,
    "concerted": 16670,
    "Ġegypt": 9679,
    "Ġbrew": 23342,
    "Ġoce": 3031,
    "Ġremnants": 22791,
    "Ġrely": 8821,
    "Ġflinging": 13583,
    "culous": 11142,
    "scand": 18848,
    "Ġclump": 15962,
    "Ġpropos": 7061,
    "Ġveter": 15808,
    "Ġdiffident": 23782,
    "inex": 14094,
    "Ġevil": 3803,
    "idav": 18092,
    "oms": 4592,
    "Ġdrunken": 12047,
    "Ġadmin": 23552,
    "Ġdoors": 6417,
    "Ġgroaned": 11268,
    "antage": 3876,
    "pad": 13766,
    "Ġdust": 5908,
    "bestowed": 12222,
    "Ġscott": 22292,
    "Ġthereby": 7642,
    "0": 20,
    "aloud": 17940,
    "Ġbirch": 26173,
    "lour": 15378,
    "suitableness": 26259,
    "utarch": 15658,
    "Ġdiscompose": 25578,
    "dripping": 16904,
    "Ġinches": 5845,
    "ĠmanÅĵuv": 18416,
    "Ġwriting": 4667,
    "beh": 5472,
    "hound": 20893,
    "Ġvict": 3760,
    "Ġstandards": 19018,
    "stri": 6249,
    "Ġsu": 432,
    "Ġlearnedly": 23384,
    "cheeks": 23806,
    "Ġslang": 23157,
    "Ġexcuse": 5861,
    "blooded": 20019,
    "whis": 7896,
    "consult": 24168,
    "Ġpistols": 17327,
    "Ġsentimental": 24753,
    "Ġstow": 21726,
    "longbourn": 9896,
    "passenger": 24166,
    "Ġadvertisement": 6941,
    "rised": 10124,
    "Ġsuitable": 18279,
    "Ġ104": 24412,
    "Ġseem": 910,
    "Ġcanal": 8180,
    "Ġhonourable": 10457,
    "acious": 5562,
    "Ġshocks": 16455,
    "Ġamuse": 5938,
    "apparat": 22843,
    "Ġplenty": 6708,
    "Ġsaf": 3999,
    "secondly": 16982,
    "ta": 13787,
    "proportion": 16176,
    "Ġminut": 2204,
    "Ġapprehen": 16828,
    "Ġbeside": 5192,
    "Ġpersisting": 18893,
    "Ġunfortunate": 5376,
    "length": 7133,
    "Ġgallows": 12142,
    "Ġforgot": 4683,
    "imprisonment": 23761,
    "affold": 16561,
    "Ġspain": 15877,
    "Ġmoody": 8199,
    "Ġstream": 5186,
    "Ġinvolve": 11044,
    "Ġpublisher": 24062,
    "Ġinsists": 23676,
    "Ġ4": 3983,
    "proof": 16421,
    "Ġimpenit": 22385,
    "Ġwhereof": 16099,
    "ultural": 22564,
    "weave": 22681,
    "Ġ31": 12127,
    "iz": 365,
    "Ġexped": 7649,
    "illum": 15866,
    "Ġbelow": 4058,
    "Ġsympath": 4861,
    "Ġmeant": 3548,
    "Ġlegendary": 20535,
    "Ġintercourse": 10999,
    "Ġcontrivances": 12354,
    "Ġdisturbance": 15012,
    "Ġelasticity": 19554,
    "Ġsenses": 8250,
    "Ġyoke": 18095,
    "Ġfiver": 22771,
    "precision": 4328,
    "yesterday": 10354,
    "Ġhapp": 1087,
    "Ġmarbles": 18871,
    "Ġassign": 11111,
    "Ġbalance": 2021,
    "faith": 15024,
    "returns": 23135,
    "Ġstrangers": 8312,
    "paus": 13771,
    "pleasing": 14741,
    "&": 10,
    "acceptable": 25184,
    "Ġobstin": 14978,
    "Ġshakespeare": 20304,
    "Ġmonica": 22975,
    "dy": 3859,
    "Ġtranslation": 3087,
    "Ġcabman": 14605,
    "mitting": 17601,
    "Ġspotted": 12135,
    "Ġnasty": 17441,
    "Ġenslaved": 26313,
    "Ġmystic": 7502,
    "Ġties": 12524,
    "Ġjeroboam": 10601,
    "<MASK>": 4,
    "jud": 4481,
    "nuts": 15396,
    "Ġappo": 8497,
    "Ġimple": 1789,
    "Ġfancying": 12109,
    "Ġconjoined": 21802,
    "banked": 25337,
    "Ġbenches": 18779,
    "Ġscheduling": 2351,
    "Ġlay": 585,
    "Ġshores": 8848,
    "Ġunlocking": 20704,
    "Ġuntimely": 16465,
    "Ġratio": 5066,
    "Ġnearing": 15795,
    "ithmetic": 18061,
    "Ġgoug": 17990,
    "Ġrepaid": 19081,
    "Ġdiver": 2533,
    "Ġdataset": 12816,
    "Ġprehensile": 26533,
    "Ġmarks": 6746,
    "number": 10115,
    "Ġtears": 4228,
    "Ġperturbed": 20436,
    "Ġnon": 1624,
    "accusations": 23598,
    "Ġclin": 14200,
    "Ġunav": 18240,
    "really": 6971,
    "atum": 21257,
    "Ġuninter": 18246,
    "Ġtastes": 15475,
    "curiosity": 8624,
    "departed": 24793,
    "execution": 20468,
    "Ġblame": 6445,
    "Ġlullaby": 20585,
    "Ġopposing": 12037,
    "Ġadmires": 19682,
    "Ġthom": 21512,
    "oat": 13762,
    "rie": 2785,
    "Ġtrees": 4199,
    "Ġnodded": 11967,
    "ine": 405,
    "proachable": 23396,
    "Ġpaced": 7582,
    "Ġvirtue": 4922,
    "Ġabandoned": 8350,
    "Ġperfume": 25664,
    "henomenon": 13612,
    "Ġbumpkin": 20197,
    "Ġconject": 6025,
    "ĕ": 214,
    "Ġbaboon": 19690,
    "Ġhil": 10822,
    "Ġannoyed": 17198,
    "Ġtows": 19558,
    "arp": 2028,
    "limping": 26392,
    "Ġfloat": 12029,
    "Ġanimals": 8979,
    "Ġjavel": 17083,
    "Ġsweetness": 9445,
    "Ġru": 950,
    "re": 266,
    "Ġforest": 9871,
    "Ġpoland": 23616,
    "stool": 23817,
    "Ġsurpasses": 25268,
    "Ġcontemptuous": 24676,
    "Ġnominally": 17230,
    "Ġcoachman": 15000,
    "Ġnind": 17949,
    "uy": 21097,
    "Ġexalted": 12409,
    "granting": 23412,
    "Ġambitious": 18513,
    "upid": 6582,
    "Ġwhispered": 5337,
    "Ġinclu": 1097,
    "obedience": 17408,
    "Ġpolicy": 10458,
    "Ġwrap": 24594,
    "education": 20298,
    "great": 3515,
    "Ġplainer": 23703,
    "Ġtops": 14586,
    "aried": 10988,
    "Ġsuspic": 4470,
    "Ġgrip": 11628,
    "ean": 20838,
    "wonted": 13490,
    "Ġbiggest": 24566,
    "Ġpyramids": 15113,
    "Ġidentified": 19149,
    "Ġshiver": 12763,
    "Ġtreatise": 19342,
    "Ġabreast": 18393,
    "sky": 12507,
    "Ġhon": 2541,
    "creat": 20798,
    "hawks": 24692,
    "Ġcasement": 25091,
    "elihood": 4622,
    "Ġmah": 15537,
    "Ġrobes": 16262,
    "ippi": 20241,
    "Ġquite": 1741,
    "terr": 8152,
    "Ġpromontory": 11938,
    "Ġenters": 11026,
    "Ġintegrity": 12310,
    "Ġpuppy": 12402,
    "Ġschedule": 2373,
    "Ġover": 555,
    "Ġbenevolent": 7771,
    "Ġcollege": 11426,
    "ume": 4835,
    "ivates": 18274,
    "Ġanalyze": 1595,
    "Ġeyeing": 6459,
    "Ġdisposing": 19372,
    "io": 3799,
    "Ġbundles": 26174,
    "Ġmaking": 1780,
    "ryder": 18639,
    "Ġlast": 1122,
    "Ġding": 12595,
    "ounder": 11743,
    "ignor": 8962,
    "Ġfluttered": 16245,
    "Ġstupidity": 15049,
    "Ġunite": 9254,
    "Ġuninterrupted": 22042,
    "iners": 4937,
    "Ġregular": 936,
    "Ġmarking": 16467,
    "Ġwinter": 5220,
    "Ġsimplest": 16330,
    "Ġpatchwork": 24141,
    "Ġskull": 6287,
    "Ġwrithing": 11943,
    "footed": 19686,
    "Ġkeenly": 9484,
    "Ġcabinets": 23860,
    "sequ": 2401,
    "Ġdowncast": 18651,
    "Ġjackets": 19599,
    "Ġirresolute": 24915,
    "Ġaddition": 1144,
    "probably": 10020,
    "Ġunobserved": 18249,
    "Ġmusty": 22676,
    "Ġtemper": 958,
    "sterdam": 19088,
    "ature": 517,
    "Ġtract": 21163,
    "č": 206,
    "Ġsamples": 2965,
    "keen": 12778,
    "Ġinverted": 12633,
    "Ġnib": 13938,
    "Ġcolleg": 22852,
    "dishonourable": 26364,
    "knowing": 10438,
    "Ġarid": 22178,
    "Ġguilty": 7249,
    "Ġslide": 10394,
    "Ġgossip": 18470,
    "ish": 550,
    "Ġimplements": 2485,
    "adie": 18088,
    "itors": 2915,
    "Ġcurling": 9347,
    "Ġrele": 2918,
    "Ġtenderness": 12212,
    "Ġimpud": 18444,
    "Ġlambton": 10658,
    "ascending": 24705,
    "Ġelij": 8909,
    "amusement": 15280,
    "Ġsaintly": 25930,
    "Ġcuvier": 9166,
    "Ġrivals": 20268,
    "ł": 259,
    "Ġaperture": 26159,
    "moonlight": 25375,
    "Ġshoes": 7070,
    "till": 6965,
    "Ġearned": 19402,
    "clear": 9024,
    "aned": 5147,
    "Ġpositions": 2058,
    "aft": 9584,
    "quarried": 24944,
    "bull": 13688,
    "but": 592,
    "steep": 19416,
    "illuminated": 17451,
    "whips": 22234,
    "Ġtides": 13819,
    "iline": 21717,
    "swiftly": 20549,
    "Ġconsider": 2571,
    "shoulder": 16582,
    "esteem": 26007,
    "ar": 285,
    "Ġsquire": 16179,
    "Ġdinners": 23979,
    "Ġswart": 14433,
    "Ġconfess": 3764,
    "Ġrecovering": 11861,
    "rote": 4591,
    "prise": 7725,
    "Ġtheir": 642,
    "Ġsaratoga": 26422,
    "careful": 14865,
    "ications": 4445,
    "similar": 13450,
    "Ġaccumul": 1414,
    "Ġelemental": 19916,
    "Ġtwist": 11849,
    "Ġdrooping": 9419,
    "list": 7550,
    "Ġvindication": 25364,
    "Ġstraining": 11328,
    "Ġy": 341,
    "Ġundesired": 12775,
    "carpet": 25202,
    "Ġcomplaints": 12261,
    "Ġdevelop": 1646,
    "rible": 3226,
    "Ġtransp": 4770,
    "Ġdignified": 15594,
    "Ġeber": 18003,
    "Ġnoticed": 5549,
    "Ġpalpable": 15205,
    "crack": 19836,
    "Ġreflection": 6439,
    "Ġfree": 3375,
    "stript": 21653,
    "Ġsalisbury": 24060,
    "Ġdangers": 12351,
    "sample": 12503,
    "Ġassertion": 13486,
    "Ġidentifies": 12012,
    "murderers": 25727,
    "Ġcuriosities": 26288,
    "confusion": 13366,
    "Ġrout": 7401,
    "Ġforbidding": 17078,
    "Ġcooking": 16645,
    "Ĝ": 221,
    "soundest": 24796,
    "entrance": 12653,
    "Ġinstinct": 6574,
    "Ġstyle": 6946,
    "ily": 1031,
    "Ġnursed": 16884,
    "knot": 13743,
    "Ġfatig": 6756,
    "Ġcosmetic": 23470,
    "iloqu": 11648,
    "ckled": 9257,
    "il": 329,
    "Ġport": 3311,
    "Ġeduc": 4785,
    "tom": 15433,
    "Ġes": 8769,
    "Ġgaz": 4040,
    "Ġrecourse": 22740,
    "tumbled": 21088,
    "Ġslighter": 18938,
    "wont": 21130,
    "Ġreleased": 2980,
    "my": 1317,
    "Ġmounttop": 19974,
    "Ġbashee": 19845,
    "pat": 10117,
    "Ġrowing": 10301,
    "Ġcrushed": 9422,
    "Ġdiverse": 19208,
    "ribes": 23364,
    "Ġforehead": 5261,
    "rifice": 12500,
    "Ġhilarious": 20295,
    "Ġindec": 13926,
    "Ġshake": 6032,
    "Ġassizes": 11110,
    "Ġrequires": 1047,
    "Ġpatted": 16373,
    "Ġanimate": 23421,
    "Ġdiameter": 19863,
    "Ġprofits": 16487,
    "Ġanvil": 11598,
    "Ġlimber": 16477,
    "Ġprudential": 17919,
    "Ġshine": 12762,
    "osc": 18386,
    "readers": 23845,
    "flowing": 14552,
    "Ġcord": 5222,
    "Ġencodings": 4776,
    "Ġtradesmen": 17104,
    "Ġinvari": 6528,
    "Ġdrowsy": 26443,
    "Ġconceived": 8148,
    "Ġfate": 4754,
    "Ġessential": 7522,
    "Ġroughly": 17039,
    "friends": 8304,
    "supplement": 14796,
    "ce": 313,
    "opard": 9291,
    "Ġlouis": 8355,
    "ety": 3519,
    "Ġpaid": 5015,
    "Ġbeggars": 20627,
    "Ġemigrant": 25858,
    "Ġmembrane": 20500,
    "Ġtwisted": 7227,
    "terday": 4704,
    "te": 997,
    "Ġpref": 14171,
    "Ġdigging": 14937,
    "Ġschemes": 11132,
    "Ġintric": 9246,
    "Ġhemisphere": 26477,
    "barrel": 17059,
    "fred": 20853,
    "Ġthirds": 16707,
    "Ġcircum": 8256,
    "Ġche": 1764,
    "Ġrattle": 10900,
    "Ġfacts": 2289,
    "Ġpreprocess": 22229,
    "descried": 11927,
    "causing": 25518,
    "enjoyment": 17256,
    "Ġlengthened": 25957,
    "Ġsane": 21219,
    "Ġbrig": 11048,
    "grinder": 23413,
    "Ġliveliest": 24774,
    "Ġmilky": 9947,
    "still": 4216,
    "Ġ150": 22823,
    "Ġsteadfast": 8679,
    "arness": 11671,
    "Ġforeboding": 20380,
    "Ġoutputs": 2886,
    "Ġcategories": 4477,
    "Ġpreparing": 8648,
    "Ġspam": 7629,
    "Ġcondescension": 10619,
    "Ġmathematics": 12070,
    "Ġveritable": 19378,
    "Ġgoblet": 25822,
    "humour": 7497,
    "conjecture": 15121,
    "Ġderived": 8237,
    "encing": 21280,
    "vint": 21112,
    "cab": 7332,
    "utely": 8130,
    "asion": 5714,
    "scales": 22986,
    "Ġcounterpart": 24719,
    "secre": 18127,
    "Ġconcluded": 5658,
    "property": 19996,
    "Ġgreeks": 20009,
    "hopes": 15367,
    "Ġsubset": 9870,
    "leaned": 21366,
    "Ġhealed": 21679,
    "Ġphrenologists": 25607,
    "Ġinterruption": 9472,
    "Ġconveniently": 20075,
    "Ġunfaltering": 24113,
    "pondicherry": 26399,
    "Ġenvelopes": 24510,
    "dig": 4929,
    "notwithstanding": 22750,
    "llable": 6878,
    "deceit": 25556,
    "Ġregularizer": 2341,
    "Ġraiment": 22652,
    "Ġreciproc": 20619,
    "diver": 20829,
    "Ġbrimming": 22863,
    "Ġbounded": 16625,
    "Ġduration": 20350,
    "higher": 20403,
    "Ġstepdaughter": 22608,
    "abhor": 12703,
    "Ġriot": 14688,
    "Ġappl": 1685,
    "irth": 5634,
    "ength": 2314,
    "Ġfainted": 8792,
    "Ġrods": 9754,
    "Ġeucl": 24707,
    "Ġhurling": 19109,
    "tured": 13793,
    "Ġspeeches": 22658,
    "dread": 8729,
    "book": 4669,
    "Ġshrill": 12138,
    "Ġimmersed": 19482,
    "Ġbasement": 24700,
    "Ġimprecations": 25819,
    "apart": 15958,
    "shoals": 24715,
    "rad": 2255,
    "Ġdol": 9665,
    "Ġkneeling": 12139,
    "conqu": 14243,
    "oftentimes": 19418,
    "Ġeagerly": 4990,
    "Ġponder": 6819,
    "Ġexploded": 15907,
    "wealth": 22684,
    "Ġgames": 11627,
    "tiest": 21079,
    "aration": 12603,
    "Ġplaning": 22597,
    "rudently": 16709,
    "Ġunaware": 22055,
    "Ġdoth": 13906,
    "Ġpuffed": 14975,
    "Ġunfeeling": 14118,
    "Ġiceberg": 14715,
    "Ġwarmup": 3918,
    "Ġserve": 9368,
    "cutting": 23783,
    "quar": 7614,
    "threshold": 21984,
    "interrupted": 11419,
    "Ġpoky": 21476,
    "exact": 7908,
    "Ġget": 1623,
    "avating": 18604,
    "ree": 875,
    "Ġodor": 12146,
    "Ġaffright": 9332,
    "ooped": 17622,
    "ê": 171,
    "wet": 15450,
    "Ġspite": 4153,
    "Ġresides": 22536,
    "Ġretrogression": 26580,
    "Ġdirected": 5579,
    "Ġunderstand": 841,
    "Ġbestir": 13106,
    "Ġroods": 22400,
    "Ġgpt": 4347,
    "Ġhart": 17921,
    "Ġlook": 880,
    "Ġerad": 25027,
    "poke": 18796,
    "Ġensemble": 1610,
    "incible": 16495,
    "Ġz": 1000,
    "minutes": 7511,
    "Ġnoiselessly": 22860,
    "Ġhan": 15614,
    "ena": 11569,
    "cats": 17511,
    "Ġrush": 5924,
    "Ġmediocr": 24082,
    "Ġsig": 868,
    "Ġwitnessing": 19595,
    "Ġuniformity": 23482,
    "ites": 3895,
    "Ġdim": 4757,
    "Ġimagine": 3920,
    "Ġmustard": 12925,
    "Ġshuttle": 12123,
    "Ġindividually": 22954,
    "Ġhalf": 1666,
    "Ġimposs": 16615,
    "Ġfin": 1462,
    "Ġdenoted": 16564,
    "Ġwalking": 4321,
    "Ġfountains": 13500,
    "Ġcontribut": 12855,
    "tery": 14035,
    "Ġcenturies": 8623,
    "offers": 16392,
    "Ġslips": 23164,
    "Ġplayed": 9415,
    "Ġter": 2052,
    "Ġdau": 21422,
    "Ġimpose": 22379,
    "sword": 10727,
    "Ġrib": 4936,
    "Ġ1869": 19381,
    "Ġrect": 18025,
    "withdrawn": 23023,
    "Ġreflect": 6575,
    "Ġindisc": 16225,
    "Ġcracked": 8595,
    "Ġwine": 6810,
    "Ġfeebly": 24876,
    "caves": 20814,
    "itable": 5437,
    "remed": 18951,
    "sac": 7139,
    "ffy": 18315,
    "Ġlin": 10834,
    "Ġflavor": 16248,
    "Ġprofit": 14585,
    "Ġborn": 5224,
    "Ġgene": 15668,
    "alter": 10827,
    "Ġsquee": 7927,
    "!âĢĻâĢĿ": 16591,
    "Ġlicense": 20087,
    "Ġstartling": 14670,
    "Ġshelves": 14998,
    "Ġhapless": 15809,
    "Ġwhis": 3502,
    "Ġnour": 10831,
    "Ġfool": 4233,
    "Ġtune": 17724,
    "mat": 2200,
    "Ġwindibank": 7255,
    "Ġtantamount": 25624,
    "iage": 17572,
    "Ġalb": 14014,
    "coffin": 10663,
    "Ġxl": 11987,
    "Ġjupiter": 17454,
    "Ġwho": 614,
    "estruct": 22217,
    "Ġmassachusetts": 24019,
    "Ġpriv": 4180,
    "led": 582,
    "Ġserpentine": 11362,
    "Ġunrestingly": 20357,
    "Ġconfeder": 25707,
    "Ġlounging": 10022,
    "Ġsequ": 985,
    "Ġpurchase": 12256,
    "Ġvexatious": 19777,
    "meetings": 20374,
    "Ġpassers": 18756,
    "hemat": 3127,
    "behaviour": 11303,
    "plain": 1361,
    "duck": 22408,
    "oriously": 17874,
    "Ġpronounce": 16966,
    "arrow": 4177,
    "Ġpew": 9315,
    "coloured": 7290,
    "Ġhind": 9189,
    "Ġcounsel": 13613,
    "Ġprobable": 5570,
    "Ġhave": 444,
    "k": 79,
    "those": 4495,
    "shavings": 22444,
    "Ġpay": 3961,
    "Ġsickly": 16773,
    "zag": 17712,
    "Ġorbs": 22088,
    "Ġunconsciously": 10005,
    "during": 6787,
    "Ġbarbara": 24817,
    "Ġ126": 24471,
    "thyself": 19296,
    "Ġflint": 23007,
    "five": 6355,
    "fitzwilliam": 11354,
    "ners": 3272,
    "gradually": 12911,
    "Ġslip": 8955,
    "Ġprior": 11320,
    "Ġpanic": 11288,
    "rubbed": 22199,
    "Ġimpending": 22381,
    "ete": 9204,
    "Ġhandling": 8913,
    "Ġsegmentation": 17338,
    "Ġunostentatious": 22066,
    "istle": 15867,
    "Ġvoluntary": 14798,
    "Ġmisconduct": 22754,
    "Ġentailed": 11028,
    "Ġsigning": 22707,
    "Ġfullest": 14812,
    "Ġfeature": 744,
    "Ġkings": 7196,
    "Ġtrapped": 23074,
    "Ġnodes": 1969,
    "publ": 17637,
    "cular": 15326,
    "consider": 6347,
    "Ġjud": 3358,
    "Ġdivert": 23592,
    "Ġheartily": 6890,
    "Ġmysterious": 7526,
    "acter": 2507,
    "constantly": 24629,
    "Ġreserve": 9971,
    "uish": 5431,
    "ocations": 23707,
    "ided": 2783,
    "examine": 25477,
    "infant": 19824,
    "Ġpumps": 8425,
    "herent": 2532,
    "Ġcitadel": 25438,
    "Ġtranquo": 14842,
    "Ġblot": 9812,
    "Ġcommunicates": 24547,
    "Ġnoah": 10943,
    "_,": 2799,
    "princip": 17135,
    "Ġran": 3344,
    "nikin": 23248,
    "enial": 17780,
    "gris": 8258,
    "uniform": 18157,
    "Ġdue": 3842,
    "Ġearth": 2850,
    "Ġlurid": 19678,
    "Ġexpressions": 7704,
    "occurrences": 26330,
    "Ġsatisfy": 6912,
    "Ġagric": 22511,
    "and": 372,
    "Ġattractive": 25118,
    "Ġcart": 11584,
    "especially": 3571,
    "Ġdiabol": 11455,
    "axing": 18545,
    "Ġcousins": 9915,
    "Ġburden": 8608,
    "Ġpattern": 1302,
    "Ġprotectors": 9071,
    "vacancies": 25918,
    "Ġarmies": 16490,
    "Ġ123": 24468,
    "Ġheavy": 3741,
    "Ġfan": 2036,
    "lo": 682,
    "Ġlimits": 3453,
    "object": 6884,
    "Ġcardboard": 19975,
    "middle": 11312,
    "Ġnaturally": 2465,
    "verse": 9688,
    "Ġheaped": 18037,
    "Ġappearance": 3697,
    "poster": 11056,
    "Ġannoyance": 20660,
    "icular": 2023,
    "ot": 346,
    "Ġshavings": 14108,
    "Ġjun": 8504,
    "concluding": 19478,
    "unt": 2045,
    "Ġillinois": 19135,
    "iply": 22350,
    "Ġquarters": 8620,
    "Ġcircumnavigating": 25613,
    "Ġmilk": 6484,
    "Ġshrivelled": 19700,
    "ie": 729,
    "Ġinc": 702,
    "ket": 17581,
    "Ġrepressed": 21664,
    "Ġeyed": 12663,
    "iah": 14415,
    "Ġblossom": 26311,
    "Ġtut": 8770,
    "overcome": 19051,
    "Ġ61": 24364,
    "neurons": 3133,
    "Ġbonds": 17869,
    "Ġbar": 3146,
    "Ġbattle": 5907,
    "Ġhorizont": 6937,
    "contr": 12054,
    "pilot": 25907,
    "Ġpredecessor": 26252,
    "Ġob": 861,
    "Ġtargets": 4201,
    "Ġlets": 18076,
    "Ġalmighty": 18104,
    "speech": 10667,
    "Ġgeor": 3388,
    "Ġintimidated": 24804,
    "Ġcapstan": 9099,
    "irection": 2388,
    "Ġshipmate": 8929,
    "rary": 4574,
    "Ġmightiest": 12956,
    "Ġostentatiously": 20465,
    "Ġmarried": 3408,
    "rooms": 10433,
    "Ġsanguinary": 25928,
    "Ġaustrian": 24300,
    "anyth": 5438,
    "Ġquant": 6423,
    "Ġcircling": 19091,
    "Ġcommands": 16588,
    "Ġembellish": 25847,
    "Ġscare": 18404,
    "Ġate": 8840,
    "Ġcarefully": 6303,
    "Ġangry": 5498,
    "holder": 13279,
    "ep": 442,
    "iana": 7047,
    "buncle": 13690,
    "europe": 20663,
    "Ġforster": 5230,
    "Ġsecret": 3717,
    "Ġc": 277,
    "Ġdidst": 11847,
    "another": 5439,
    "Ġdiscu": 4360,
    "==": 944,
    "Ġbracing": 16579,
    "Ġheath": 15698,
    "hounds": 20905,
    "achable": 14137,
    "ollion": 19712,
    "Ġwre": 5077,
    "Ġincognit": 22550,
    "Ġflexible": 23774,
    "J": 46,
    "sin": 21046,
    "worshipping": 16609,
    "Ġunintermitted": 26218,
    "Ġeast": 5370,
    "Ġvilla": 14746,
    "Ġcoolness": 16885,
    "magnitude": 17247,
    "Ġhesitating": 16946,
    "Ġrender": 8303,
    "india": 22367,
    "Ġcolder": 22851,
    "Ġcommons": 22668,
    "approve": 19933,
    "\"]": 17469,
    "ĠâĢľâĢĺ": 8502,
    "vere": 4883,
    "Ġoverbearing": 12839,
    "haz": 17563,
    "rum": 3415,
    "ropy": 1101,
    "Ġdwelt": 12601,
    "Ġpanting": 11604,
    "Ġdescribes": 3120,
    "ars": 904,
    "rippa": 11342,
    "Ġchewed": 16367,
    "Ġinviting": 19142,
    "Ġvomit": 21945,
    "Ġhearing": 4761,
    "Ġowning": 18743,
    "Ġcomprising": 16065,
    "Ġflanks": 11913,
    "windlass": 16720,
    "Ġsingle": 1691,
    "Ġracket": 22654,
    "ickering": 22666,
    "Ġimpatiently": 8336,
    "Ġappal": 18357,
    "Ġangles": 23587,
    "Ġhampshire": 15240,
    "Ġpistol": 7845,
    "ops": 5246,
    "barbar": 20235,
    "Ġraising": 8910,
    "acknowledged": 15201,
    "Ġandes": 12637,
    "riot": 18184,
    "Ġostr": 21322,
    "ighted": 8475,
    "leave": 7836,
    "icher": 9203,
    "sat": 4810,
    "covered": 11479,
    "relics": 24012,
    "ple": 455,
    "Ġreplied": 2264,
    "Ġmagnanimous": 17409,
    "Ġwants": 5742,
    "rifled": 21045,
    "understand": 1146,
    "Ġawaiting": 11392,
    "stand": 630,
    "Ġbecome": 3157,
    "Ġfidelity": 15239,
    "australian": 20559,
    "Ġwitt": 17783,
    "Ġunlock": 18243,
    "Ġunimpeachable": 26521,
    "Ġnailing": 21523,
    "network": 1943,
    "maybe": 23988,
    "scorched": 25696,
    "Ġentitled": 8538,
    "Ġglowing": 12279,
    "Ġdz": 4756,
    "Ġrust": 6407,
    "linearity": 1648,
    "elled": 3990,
    "Ġpublished": 11244,
    "ways": 1443,
    "eks": 4728,
    "Ġladder": 8599,
    "G": 43,
    "trampled": 26332,
    "Ġdeliverance": 15156,
    "wail": 21123,
    "obtain": 23091,
    "corrob": 24485,
    "twill": 21072,
    "Ġhunsford": 6300,
    "minute": 11276,
    "Ġ1778": 25729,
    "Ġtypewritten": 16419,
    "tone": 8763,
    "rimsh": 17026,
    "X": 60,
    "Ġobtained": 7432,
    "Ġtemples": 18638,
    "does": 6194,
    "Ġslabs": 13056,
    "Ġappear": 2484,
    "malice": 17603,
    "unities": 15767,
    "Ġmilan": 19533,
    "Ġalche": 21779,
    "Ġstaple": 26197,
    "Ġdedu": 5583,
    "inting": 9814,
    "ward": 705,
    "Ġfrighten": 13274,
    "Ġrelation": 2143,
    "Ġcrouched": 23440,
    "Ġreceives": 20351,
    "Ġview": 2762,
    "copyright": 5277,
    "Ġskil": 14353,
    "along": 6011,
    "listen": 13511,
    "Ġknees": 6928,
    "Ġfreshe": 13066,
    "Ġflood": 7714,
    "Ġaccidentally": 9504,
    "Ġburying": 19250,
    "Ġimbecile": 17390,
    "Ġformed": 3881,
    "Ġhawaiian": 25366,
    "Ġcarpenter": 4684,
    "Ġstand": 1736,
    "Ġvener": 8162,
    "Ġsturgeon": 20589,
    "Ġsemi": 11966,
    "Ġdere": 21830,
    "Ġunman": 12770,
    "Ġbeast": 7178,
    "Ġcarved": 7945,
    "room": 2179,
    "Ġshutters": 9937,
    "silly": 24422,
    "Ġtempor": 2367,
    "thrusting": 20256,
    "abst": 21784,
    "Ġpunct": 8661,
    "Ġlan": 5820,
    "Ġemploys": 19428,
    "Ġga": 4446,
    "fury": 17546,
    "uding": 16146,
    "Ġanchored": 17438,
    "gue": 12464,
    "Ġnobleman": 19389,
    "halloa": 17089,
    "Ġindispensable": 11898,
    "Ġannoy": 17197,
    "Ġaccept": 4408,
    "confidence": 16807,
    "Ġall": 421,
    "Ġtropic": 17063,
    "accepting": 20132,
    "adel": 15725,
    "tail": 8762,
    "Ġincrease": 9369,
    "masts": 19422,
    "Ġrevenge": 5452,
    "Ġdesperately": 24656,
    "alog": 8805,
    "Ġimpenitent": 26547,
    "dimensional": 2350,
    "Ġowen": 15093,
    "isticated": 1659,
    "Ġpleated": 16295,
    "Ġbomb": 17867,
    "Ġscound": 12833,
    "Ġswimmer": 19456,
    "Ġeffectively": 2496,
    "Ġdeath": 2044,
    "influences": 25250,
    "allowance": 16823,
    "acetti": 13393,
    "olets": 21006,
    "Ġwidely": 8031,
    "Ġdampening": 2895,
    "âĢľ_": 5720,
    "Ġsnarled": 25715,
    "offer": 19061,
    "Ġquick": 2584,
    "ead": 2601,
    "Ġstaggered": 9538,
    "uning": 1313,
    "Ġmeadow": 17150,
    "Ġsuperfluous": 17412,
    "wantonly": 25149,
    "Ġconfronted": 23307,
    "Ġportent": 12078,
    "pth": 2382,
    "cul": 1901,
    "Ġpersistence": 3215,
    "ipagos": 22352,
    "Ġseaman": 8639,
    "Ġclimbing": 20066,
    "Ġrecommend": 7101,
    "oing": 15399,
    "Ġdraw": 3669,
    "Ġimprudence": 10298,
    "Ġobserving": 6080,
    "Ġruminated": 24599,
    "resting": 23235,
    "bears": 22486,
    "Ġnewcomers": 26040,
    "Ġimpatience": 7508,
    "Ġrefusing": 11029,
    "stat": 21640,
    "Ġaccused": 8506,
    "prit": 19339,
    "Ġshrouded": 14967,
    "Ġunwarranted": 25171,
    "image": 9686,
    "Ġappe": 1542,
    "long": 2913,
    "Ġdundee": 16996,
    "chapter": 1406,
    "creatures": 7516,
    "Ġabandon": 12254,
    "igh": 2030,
    "aded": 3547,
    "Ġarrogance": 26230,
    "ourage": 2450,
    "Ġmoment": 993,
    "eric": 3469,
    "Ġopera": 23424,
    "Ġunflinching": 26511,
    "Ġdoings": 18375,
    "mense": 4780,
    "instances": 13324,
    "strongly": 24682,
    "hunsford": 24386,
    "congenial": 25399,
    "gird": 20877,
    "Ġquee": 1981,
    "Ġdivision": 19441,
    "mured": 6960,
    "thy": 2935,
    "Ġcontro": 1686,
    "emper": 18180,
    "perishing": 22173,
    "Ġcaptivating": 26048,
    "Ġbrings": 11878,
    "Ġequilibrium": 4138,
    "Ġflattening": 26047,
    "Ġflowers": 8941,
    "isco": 12577,
    "Ġbucket": 8788,
    "remarks": 23187,
    "Ġpour": 13912,
    "fanc": 20862,
    "Ġincluded": 8931,
    "Ġsubl": 7234,
    "awned": 19457,
    "Ġcheerily": 13304,
    "Ġread": 1450,
    "Ġsolitude": 6876,
    "Ġshifted": 14105,
    "Ġirrad": 19092,
    "Ġbe": 336,
    "Ġpupp": 10821,
    "Ġtormented": 8675,
    "Ġcalamities": 25698,
    "y": 93,
    "flag": 14710,
    "Ġencoder": 3634,
    "Ġdiscre": 2416,
    "Ġknowingly": 18479,
    "Ġundergo": 23237,
    "Ġcircular": 13107,
    "Ġarchy": 14347,
    "Ġsensitivity": 3070,
    "gerine": 22885,
    "loving": 18539,
    "vely": 3864,
    "jam": 15369,
    "Ġpiercing": 13491,
    "Ġwarehouse": 20413,
    "Ġmystical": 12129,
    "Ġgrowl": 16536,
    "Ġobst": 6571,
    "Ġperilously": 24507,
    "Ġwrit": 8240,
    "Ġchild": 2260,
    "Ġoriginal": 6102,
    "Ġthackeray": 26454,
    "Ġscheming": 23270,
    "Ġcannon": 14153,
    "tch": 9142,
    "Ġbengal": 18781,
    "Ġcoffin": 4427,
    "Ġwelfare": 12555,
    "hamed": 6304,
    "icate": 9202,
    "Ġstep": 751,
    "insensibility": 23066,
    "away": 4625,
    "int": 1198,
    "obscure": 23095,
    "Ġpile": 8422,
    "ply": 6365,
    "Ġflourished": 15124,
    "sho": 6424,
    "Ġsidel": 9636,
    "Ġfilthy": 13244,
    "Ġhunters": 6299,
    "osed": 1963,
    "Ġcovari": 2340,
    "request": 21239,
    "Ġdemon": 7867,
    "principle": 10651,
    "cils": 20812,
    "Ġplaintiffs": 13607,
    "tawny": 26403,
    "dden": 1807,
    "dirty": 20832,
    "cher": 5786,
    "Ġsave": 4048,
    "Ġann": 4489,
    "Ġlux": 8814,
    "Ġbalanced": 12984,
    "bies": 15310,
    "Ġjane": 1758,
    "Ġpals": 13916,
    "attle": 4466,
    "Ġweighed": 8711,
    "Ġbarbary": 24216,
    "Ġfemales": 14936,
    "Ġmemb": 14028,
    "inition": 11558,
    "Ġemm": 18002,
    "Ġexceedingly": 4613,
    "tipt": 25082,
    "Ġmasoned": 20248,
    "tiness": 21069,
    "Ġattained": 14076,
    "ensions": 14258,
    "Ġknelt": 12155,
    "itious": 8780,
    "audible": 17131,
    "Ġsympt": 7010,
    "Ġnewsp": 9339,
    "fedallah": 25522,
    "Ġneuron": 1810,
    "ri": 390,
    "Ġdemoniacal": 20554,
    "soever": 11858,
    "inarticulate": 21193,
    "Ġunquestion": 18248,
    "Ġgour": 21594,
    "Ġconcl": 5095,
    "Ġleft": 1761,
    "ately": 1733,
    "fanning": 20864,
    "satisfaction": 9992,
    "Ġsubdiv": 16157,
    "Ġactive": 7913,
    "librarian": 26567,
    "voy": 7142,
    "Ġsharkish": 24506,
    "Ġindividuals": 24546,
    "Ġmodest": 15911,
    "instr": 12527,
    "ceptible": 10961,
    "Ġfel": 1522,
    "Ġsatir": 18792,
    "Ġinherent": 4590,
    "Ġblazing": 11894,
    "Ġabsolutely": 4857,
    "reduc": 5459,
    "Ġheiress": 20695,
    "Ġsuspend": 14608,
    "Ġdivulged": 16647,
    "Ġdisastrous": 16057,
    "Ġblank": 5949,
    "Ġindignation": 8345,
    "gent": 7128,
    "anyone": 16592,
    "Ġself": 1779,
    "Ġnantucketer": 6914,
    "nett": 16218,
    "Ġspars": 3807,
    "Ġrefined": 18700,
    "Ġexhausted": 8694,
    "ant": 439,
    "Ġalarming": 14778,
    "Ġhearsed": 25038,
    "Ġexasperate": 20094,
    "Ġice": 3603,
    "Ġexactness": 23603,
    "Ġslacked": 25188,
    "Ġcongratulate": 9064,
    "Ġecon": 9678,
    "Ġnom": 21515,
    "Ġblood": 3167,
    "oysius": 14366,
    "Ġlaure": 16908,
    "iration": 4539,
    "drop": 15335,
    "Ġeccentric": 13647,
    "Ġimaginative": 19245,
    "advancing": 14835,
    "Ġsap": 18322,
    "Ġjuggling": 20435,
    "Ġcontinued": 2924,
    "Ġingratitude": 17467,
    "ston": 15679,
    "Ġquiet": 3262,
    "Ġten": 2386,
    "awake": 14451,
    "leman": 21365,
    "dispositions": 25010,
    "ø": 185,
    "Ġwheelbarrow": 17203,
    "cri": 17504,
    "Ġinterposed": 20616,
    "Ġrag": 18641,
    "Ġhoist": 11974,
    "Ġfestival": 25445,
    "Ġschedu": 1825,
    "Ġsitt": 21215,
    "Ġcrowd": 6335,
    "qu": 369,
    "benevolently": 25599,
    "Ġrestore": 9380,
    "Ġtalk": 1971,
    "od": 351,
    "deceptive": 22144,
    "bol": 8718,
    "Ġinseparable": 20686,
    "appo": 3911,
    "Ġahab": 1216,
    "Ġterrify": 19358,
    "iour": 4034,
    "Ġdisent": 22519,
    "Ġcomplain": 6685,
    "accomplishment": 20220,
    "Ġelab": 22643,
    "Ġhorse": 4725,
    "^": 66,
    "Ġstanders": 19017,
    "Ġhelping": 3268,
    "Ġapplication": 2040,
    "Ġmastiff": 23724,
    "estion": 18361,
    "Ġseeing": 2885,
    "Ġlifts": 25358,
    "Ġviolence": 5961,
    "told": 7810,
    "Ġpent": 17903,
    "Ġblanket": 8341,
    "Ġsouth": 4911,
    "Ġmisanthrop": 22755,
    "Ġvest": 8161,
    "Ġforfeit": 21771,
    "trem": 17680,
    "Ġoh": 2176,
    "Ġpositively": 13026,
    "Ġceler": 15547,
    "suited": 22636,
    "gardiner": 12288,
    "Ġpreserved": 9262,
    "cely": 3573,
    "Ġthrough": 603,
    "Ġboasting": 19932,
    "Ġzone": 14361,
    "ident": 3379,
    "addition": 13381,
    "Ġgentle": 1892,
    "urons": 3129,
    "Ġescape": 2647,
    "Ġincreases": 3793,
    "Ġark": 10277,
    "rev": 17756,
    "Ġprettier": 23764,
    "Ġgay": 5535,
    "Ġwhenever": 5166,
    "forward": 2187,
    "Ġinstances": 5568,
    "Ġappointed": 20099,
    "Ġfairer": 20458,
    "omuch": 21636,
    "icism": 13954,
    "Ġpallid": 12296,
    "Ġexhaustion": 14959,
    "Ġconverts": 2805,
    "cable": 20795,
    "Ġhieroglyph": 11968,
    "Ġphysiognomical": 25610,
    "Ġerud": 20051,
    "roses": 17956,
    "000": 2564,
    "Ġjudging": 16594,
    "Ġplum": 11821,
    "screw": 9346,
    "Ġhumming": 12981,
    "Ġpeaking": 22686,
    "Ġbasin": 19844,
    "Ġdoubtfully": 23476,
    "conception": 22463,
    "traces": 24315,
    "smeer": 26146,
    "iciously": 17973,
    "Ġtough": 13813,
    "Ġcanaan": 22160,
    "Ġfumbled": 17881,
    "indef": 17734,
    "Ġyoungster": 23178,
    "Ġhosts": 19935,
    "Ġentertaining": 16925,
    "Ġtangle": 25759,
    "mont": 19167,
    "Ġcottage": 4734,
    "arned": 21813,
    "Ġproportion": 7280,
    "Ġfigures": 8630,
    "Ġbound": 3517,
    "Ġtaffrail": 15474,
    "ok": 573,
    "accomplishments": 25326,
    "repe": 8776,
    "houses": 9600,
    "forget": 11032,
    "Ġgabriel": 7594,
    "shunned": 22446,
    "Ġrecip": 16138,
    "Ġclearly": 6897,
    "Ġgradual": 20599,
    "describe": 1519,
    "ezing": 10574,
    "Ġemotions": 8970,
    "liter": 11503,
    "urg": 8140,
    "Ġeste": 6084,
    "Ġfashions": 17885,
    "Ġconsisted": 10420,
    "ourse": 8870,
    "Ġembattled": 26287,
    "score": 18849,
    "Ġknow": 631,
    "ures": 771,
    "risonment": 17373,
    "ĠĠĠĠĠĠĠĠĠĠĠĠĠĠĠĠĠĠĠĠĠĠĠĠĠĠĠĠĠĠĠĠĠĠĠĠ": 23665,
    "Ġrekindled": 21673,
    "col": 3102,
    "windows": 19532,
    "storm": 9682,
    "Ġeastern": 11630,
    "crier": 20818,
    "pent": 3491,
    "Ġgrasshopper": 24380,
    "Ġringed": 16749,
    "Ġcups": 16881,
    "Ġgouge": 26187,
    "repeat": 25151,
    "whiskers": 12308,
    "Ġdeposited": 25484,
    "bra": 6219,
    "Ġopportunity": 4786,
    "Ġpsalmody": 20582,
    "Ġupper": 5090,
    "ss": 398,
    "riend": 1186,
    "spermaceti": 12190,
    "Ġrichness": 19309,
    "nar": 12490,
    "Ġaudible": 19878,
    "Ġundisturbed": 19517,
    "Ġinsufficient": 9673,
    "Ġejac": 10204,
    "Ġwaterward": 23365,
    "Ġslave": 7453,
    "ape": 1906,
    "Ġcand": 3277,
    "unting": 21870,
    "Ġtore": 6529,
    "Ġsoul": 2727,
    "Ġshrimp": 24157,
    "esting": 7411,
    "asions": 12647,
    "Ġmonsieur": 12418,
    "royal": 11395,
    "comparatively": 25838,
    "ates": 520,
    "Ġprovid": 1007,
    "Ġuttering": 16460,
    "Ġlatterly": 24083,
    "Ġcatching": 9477,
    "string": 15682,
    "Ġwrinkled": 7263,
    "Ġflew": 5588,
    "Ġfonder": 17880,
    "Ġsettled": 3739,
    "Ġse": 401,
    "Ġfamine": 16325,
    "Ġdress": 4018,
    "Ġphilist": 16600,
    "altering": 12636,
    "Ġtrespass": 23599,
    "Ġsnapped": 9897,
    "Ġkins": 22187,
    "atically": 2660,
    "Ġniag": 21526,
    "opy": 4458,
    "expedition": 26077,
    "iated": 5889,
    "rity": 13774,
    "Ġmeals": 12707,
    "superiority": 20182,
    "england": 18927,
    "crowd": 25254,
    "irious": 15782,
    "Ġchuckled": 10648,
    "Ġbreathe": 9012,
    "Ġsubterraneous": 20262,
    "Ġshoving": 23487,
    "Ġturks": 14598,
    "Ġexhibited": 9543,
    "Ġblundering": 26282,
    "P": 52,
    "Ġimperson": 14219,
    "Ġcreeping": 18685,
    "Ġshad": 3847,
    "Ġvibration": 17098,
    "Ġoutsk": 15953,
    "although": 8806,
    "Ġbusily": 9385,
    "Ġlic": 8434,
    "Ġglobal": 2371,
    "round": 3368,
    "Ġkilburn": 18349,
    "Ġnarrated": 14870,
    "Ġinfancy": 10410,
    "Ġsacr": 7193,
    "Ġsits": 10769,
    "Ġbeale": 12695,
    "Ġstays": 16560,
    "emin": 8468,
    "admirably": 24943,
    "Ġabsurdities": 24877,
    "Ġpoet": 8206,
    "Ġconversation": 3331,
    "orney": 17873,
    "voyages": 24854,
    "obliv": 23094,
    "Ġfir": 17877,
    "Ġhel": 3784,
    "ex": 622,
    "Ġpledge": 11602,
    "ognit": 19206,
    "Ġslippery": 12163,
    "Ġforbidden": 17077,
    "dict": 15337,
    "forming": 15918,
    "Ġprinted": 11947,
    "ife": 1024,
    "Ġsignific": 3826,
    "Ġhit": 7162,
    "Ġpsal": 15612,
    "Ġcelebrate": 26356,
    "Ġkettle": 26231,
    "Ġacquisition": 18898,
    "Ġirreparable": 19995,
    "Ġigniting": 25069,
    "move": 11855,
    "thing": 1483,
    "Ġtwisting": 18657,
    "Ġadequately": 15197,
    "Ġsparks": 22128,
    "Ġreser": 5170,
    "ĠdÃ¦mon": 7843,
    "Ġgasping": 17037,
    "Ġhypotheses": 4383,
    "Ġpossesses": 19349,
    "zwilliam": 5074,
    "expected": 5780,
    "Ġprof": 2459,
    "Ġbriefly": 11369,
    "Ġflock": 21408,
    "Ġhare": 5157,
    "Ġslate": 11935,
    "Ġclerical": 25568,
    "twig": 23698,
    "Ġgardens": 16451,
    "uccas": 21104,
    "eminently": 25104,
    "Ġoverboard": 6043,
    "ĠĠĠĠĠĠĠĠĠĠĠĠĠĠĠĠĠĠĠĠĠĠĠĠĠĠĠĠĠĠĠĠĠĠĠĠĠĠĠĠĠĠĠ": 12151,
    "Ġpatch": 4178,
    "Ġbillow": 14777,
    "non": 9612,
    "Ġsmack": 9300,
    "gaining": 20120,
    "Ġagitation": 6865,
    "Ġquarrel": 7291,
    "species": 13252,
    "Ġmillion": 14986,
    "imprudence": 16556,
    "Ġits": 706,
    "Ġdoctrine": 24197,
    "hess": 4747,
    "Ġfrenz": 25446,
    "Ġmyself": 1457,
    "cks": 3080,
    "Ġpenalties": 10413,
    "Ġsensibly": 14516,
    "Ġcurrents": 13018,
    "connections": 14427,
    "iceland": 21562,
    "Ġstrictest": 17041,
    "ġ": 226,
    "Ġfret": 10807,
    "Ġrevel": 9215,
    "âĢĶâĢĿ": 3301,
    "ashion": 3856,
    "iom": 20913,
    "sided": 17663,
    "asc": 6385,
    "Ġswell": 8950,
    "Ġ62": 24365,
    "crawling": 16956,
    "fam": 5987,
    "Ġcoars": 14270,
    "ĠĠĠĠĠĠĠĠĠĠĠĠĠĠĠĠĠĠĠĠĠĠĠĠĠĠĠĠĠĠĠĠĠĠĠĠĠĠĠ": 19257,
    "seriously": 18903,
    "hush": 20904,
    "Ġsummoned": 9911,
    "Ġacceded": 22375,
    "Ġdistinctions": 18534,
    "Ġesc": 2251,
    "asy": 5294,
    "notches": 22749,
    "Ġswift": 3667,
    "up": 1284,
    "Ġextensive": 12936,
    "Ġperpendicularly": 11376,
    "Ġfaithfulness": 24446,
    "x": 92,
    "imes": 1301,
    "Ġpool": 5173,
    "Ġconverted": 16110,
    "Ġcrept": 11023,
    "ĠâĢľ_": 6696,
    "fearfully": 25115,
    "Ġlonely": 6823,
    "Ġdeference": 10882,
    "evenings": 19460,
    "Ġarguing": 25470,
    "Ġpapered": 20127,
    "Ġfossils": 20219,
    "pet": 4867,
    "Ġclaret": 22346,
    "ough": 471,
    "Ġspitz": 14148,
    "ste": 3583,
    "Ġmedium": 16680,
    "Ġinherited": 25353,
    "Ġharm": 5017,
    "Ġneglected": 10378,
    "animation": 16977,
    "Ġroll": 5381,
    "ispensable": 9096,
    "Ġsquared": 1383,
    "Ġrace": 5847,
    "Ġif": 697,
    "Ġcabs": 23639,
    "Ġchord": 22241,
    "Ġhaving": 1883,
    "Ġnumerical": 4243,
    "Ġtended": 21164,
    "Ġjenkinson": 11433,
    "Ġinevitably": 17229,
    "Ġbullion": 24982,
    "Ġgratify": 19500,
    "spell": 22733,
    "Ġox": 7152,
    "oton": 3606,
    "oke": 1861,
    "iliating": 12691,
    "Ġbas": 6379,
    "Ġdespaired": 14668,
    "Ġflashed": 11912,
    "Ġbreeze": 5681,
    "Ġtrunks": 15976,
    "ojo": 7348,
    "su": 800,
    "watches": 14946,
    "Ġbount": 15564,
    "Ġdiscrimination": 23604,
    "Ġbacks": 8527,
    "Ġclergyman": 8712,
    "Ġstrive": 23691,
    "resistible": 10644,
    "Ġbir": 17853,
    "venison": 22625,
    "Ġneg": 1336,
    "}": 97,
    "ready": 2361,
    "thouse": 21979,
    "Ġvolumes": 14799,
    "Ġgenius": 8044,
    "Ġestate": 6315,
    "Ġflights": 24752,
    "Ġenchanted": 9081,
    "appe": 2945,
    "Ġopal": 23624,
    "Ġcoiled": 11819,
    "Ġoffences": 18692,
    "quarrel": 20011,
    "Ġcleans": 18946,
    "Ġlav": 13948,
    "Ġholder": 6724,
    "Ġloftiest": 16873,
    "Ġfolio": 11916,
    "Ġyawning": 12297,
    "Ġblinded": 13266,
    "miss": 3172,
    "Ġexec": 19490,
    "Ġwronged": 24247,
    "Ġvocation": 10526,
    "build": 12184,
    "Ġwaldman": 11346,
    "links": 20956,
    "Ġpass": 1038,
    "Ġbury": 12038,
    "/`)": 13658,
    "receive": 12538,
    "Ġweighing": 20012,
    "Ġexcavating": 23314,
    "Ġdelineations": 26057,
    "Ġhedge": 8362,
    "mare": 17598,
    "other": 1315,
    "Ġkid": 9725,
    "Ġtriumphantly": 11289,
    "quely": 10232,
    "iliary": 21722,
    "Ġhousekeeping": 18942,
    "Ġvir": 7001,
    "illar": 5101,
    "fier": 9594,
    "Ġlub": 15645,
    "page": 13769,
    "Ġinstant": 2704,
    "Ġrecomm": 4996,
    "Ġrecital": 16139,
    "Ġembell": 14414,
    "Ġsinews": 20284,
    "equal": 14992,
    "Ġinconven": 7585,
    "ark": 847,
    "Ġanne": 1533,
    "Ġredundant": 16550,
    "Ġchannels": 26012,
    "Ġstriking": 6088,
    "Ġage": 3893,
    "Ġsuspicious": 9479,
    "Ġcircumstances": 3922,
    "shone": 22434,
    "waters": 11335,
    "Ġtrap": 7670,
    "Ġmayhew": 12945,
    "Ġenderby": 13649,
    "Ġarmchair": 8269,
    "escript": 18468,
    "consideration": 14953,
    "dor": 12448,
    "Ġsovere": 9256,
    "Ġpostp": 12140,
    "Ġmel": 4816,
    "sombre": 23852,
    "Ġwestern": 10655,
    "Ġlung": 7166,
    "Ġnew": 1196,
    "Ġyon": 9693,
    "Ġfarmhouse": 24983,
    "stochastic": 3771,
    "Ġendless": 7052,
    "ocris": 23708,
    "Ġturbulence": 26596,
    "Ġkills": 15899,
    "Ġequ": 1735,
    "Ġthinks": 6169,
    "Ġscre": 9737,
    "Ġrandom": 1587,
    "Ġcivilised": 24244,
    "become": 14246,
    "Ġstil": 15714,
    "ishment": 3503,
    "Ġthieves": 15632,
    "otent": 8832,
    "Ġbutter": 6842,
    "Ġdarker": 13116,
    "Ġchestnut": 19669,
    "eping": 5833,
    "Ġestablished": 9070,
    "distinction": 19568,
    "Ġfidel": 12592,
    "tains": 10962,
    "Ġexpost": 18623,
    "german": 11493,
    "Ġadmits": 23553,
    "embed": 18182,
    "Ġteach": 8553,
    "Ġgoble": 14230,
    "Ġtrif": 6270,
    "unc": 15765,
    "ĠĠĠĠĠĠĠĠĠĠĠĠĠĠĠĠĠĠĠĠĠĠĠĠĠĠĠĠĠĠĠĠĠĠĠĠĠĠĠĠ": 4516,
    "Ġadoption": 24947,
    "Ġluxury": 20128,
    "after": 2896,
    "anesc": 21357,
    "Ġbec": 1351,
    "Ġmeanwhile": 5736,
    "Ġbrightly": 13220,
    "Ġretiring": 16278,
    "Ġinspection": 14544,
    "Ġtransc": 12866,
    "Ġexcessively": 9439,
    "consist": 14814,
    "Ġinfinitely": 8964,
    "Ġgout": 21592,
    "Ġshrine": 19529,
    "Ġpicked": 6340,
    "Ġgrimly": 17051,
    "Ġinvariable": 13453,
    "fortun": 3537,
    "Ġjagged": 18401,
    "Ġfet": 5807,
    "drifting": 19821,
    "enance": 3371,
    "Ġdusty": 14924,
    "Ġtom": 15629,
    "lotts": 23823,
    "Ġconstitutes": 13550,
    "Ġprofane": 13149,
    "Ġbreathless": 12166,
    "Ġtearless": 24785,
    "Ġrisks": 9964,
    "Ġwherever": 8523,
    "Ġdiscrete": 2476,
    "Ġamounted": 18512,
    "Ġdiving": 12597,
    "Ġvultures": 25652,
    "Ġdepressed": 10883,
    "cooee": 12415,
    "Ġwharves": 13503,
    "Ġweeds": 21920,
    "Ġlimp": 19178,
    "Ġtomahawk": 7538,
    "Ġprodigious": 8055,
    "co": 2434,
    "inkled": 5477,
    "pane": 10121,
    "Ġprey": 6414,
    "Ġsupplied": 8944,
    "Ġinvisibly": 24816,
    "Ġcured": 21344,
    "lp": 899,
    "Ġpenet": 6888,
    "Ġcynical": 25769,
    "vi": 2376,
    "Ġwashes": 21857,
    "Ġassisted": 11112,
    "vial": 17696,
    "Ġfinally": 4666,
    "Ġyarman": 12701,
    "Ġelegance": 11334,
    "Ġoverl": 18426,
    "drawing": 10487,
    "lord": 3862,
    "Ġcarr": 23087,
    "invari": 21182,
    "Ġmag": 1430,
    "antee": 22093,
    "Ġtepid": 26411,
    "side": 2301,
    "Ġspecific": 2003,
    "Ġexacted": 23602,
    "persu": 8026,
    "3": 23,
    "Ġperfections": 23607,
    "irst": 879,
    "Ġmarines": 16256,
    "Ġburtons": 19251,
    "Ġrelating": 2705,
    "orses": 6051,
    "Ġconfining": 23305,
    "Ġultimately": 17163,
    "Ġexcellent": 4236,
    "Ġordered": 5832,
    "Ġpickle": 16721,
    "Ġbeholding": 8669,
    "Ġted": 13810,
    "Ġqueen": 3211,
    "Ġcelebrated": 13592,
    "Ġadequ": 10914,
    "Ġexult": 10229,
    "sof": 17656,
    "Ġhollows": 19738,
    "ration": 2005,
    "Ġruthless": 15283,
    "Ġsaint": 15505,
    "zor": 15456,
    "Ġincul": 22545,
    "ulnerable": 18150,
    "cherish": 24552,
    "Ġperfect": 2559,
    "Ġatmosphere": 10898,
    "awing": 18914,
    "Ġreassure": 21668,
    "Ġgirth": 13133,
    "adders": 24400,
    "Ġmelancholy": 5606,
    "activity": 22628,
    "plexy": 18574,
    "Ġresentful": 24631,
    "Ġintervals": 5598,
    "dining": 13703,
    "first": 3931,
    "Ġeddying": 16433,
    "Ġpipe": 4318,
    "Ġfished": 21407,
    "Ġarctic": 12807,
    "lyph": 10853,
    "Ġwalrus": 14971,
    "Ġsayest": 22770,
    "clouded": 20328,
    "Ġengraving": 17079,
    "Ġdogs": 7740,
    "magnetic": 20550,
    "Ġcentaurs": 23830,
    "Ġsqueezed": 20032,
    "Ġdecay": 1011,
    "Ġbox": 5109,
    "Ġcondemned": 7777,
    "Ġadapt": 991,
    "intercourse": 14638,
    "Ġvillains": 14748,
    "Ġsteep": 2889,
    "Ġstrangled": 24134,
    "Ġhundredth": 16516,
    "Ġbeheld": 4492,
    "grim": 19105,
    "Ġpiled": 8423,
    "removing": 17764,
    "Ġwhite": 1540,
    "Ġknighthood": 25298,
    "Ġpuff": 6525,
    "Ġbohem": 8526,
    "iate": 6504,
    "Ġcove": 22576,
    "Ġminority": 18752,
    "roofed": 26182,
    "Ġstandard": 14497,
    "resc": 21236,
    "horr": 14599,
    "mighty": 9466,
    "pon": 17624,
    "Ġpart": 860,
    "itic": 11579,
    "Ġincumbent": 16059,
    "Ġlatest": 16821,
    "Ġutility": 23511,
    "Ġstraight": 3700,
    "Ġgreenwich": 19319,
    "serv": 7450,
    "Ġcaptains": 7456,
    "Ġouthouse": 22310,
    "thinking": 9014,
    "engagements": 25852,
    "Ġunaffected": 14121,
    "whatever": 6694,
    "Ġshell": 11735,
    "Ġfolks": 14425,
    "Ġfourteen": 12007,
    "Ġhamper": 19386,
    "Ġseparating": 16684,
    "Ġvivacity": 14940,
    "Ġdepressions": 25797,
    "Ġunkindness": 22038,
    "Ġrequ": 826,
    "Ġtoward": 17946,
    "sailors": 9922,
    "Ġabused": 22265,
    "Ġfists": 15579,
    "Ġcontinuous": 1561,
    "Ġeither": 2605,
    "Ġbeque": 18080,
    "twist": 23700,
    "Ġnieces": 8431,
    "Ġexplanations": 15908,
    "onde": 21249,
    "\":": 9582,
    "Ġshy": 10904,
    "icip": 6388,
    "Ġinterview": 9770,
    "Ġspat": 2665,
    "suff": 4961,
    "ions": 449,
    "ushing": 5730,
    "Ġdrove": 4984,
    "Ġclutching": 24950,
    "Ġdifficulties": 11227,
    "ana": 15555,
    "fashion": 8079,
    "Ġintimate": 6548,
    "/*": 10071,
    "Ġoffers": 12941,
    "Ġuniverse": 14123,
    "handedness": 24919,
    "ħ": 232,
    "Ġtreating": 4281,
    "Ġai": 3126,
    "Ġwhile": 607,
    "burn": 8369,
    "uten": 11623,
    "useless": 14594,
    "Ġincredulous": 9987,
    "Ġslammed": 20444,
    "enchant": 21281,
    "Ġsymb": 2593,
    "Ġmacro": 25938,
    "Ġlab": 1874,
    "Ġcapacious": 19174,
    "ented": 4345,
    "Ġtallest": 15472,
    "Ġvoyages": 6908,
    "Ġuttermost": 19485,
    "Ġnotwithstanding": 9714,
    "Ġwonderland": 23423,
    "Ġdisordered": 16052,
    "Ġoaths": 13521,
    "Ġgroves": 16739,
    "Ġmish": 15534,
    "iled": 1766,
    "Ġtones": 8398,
    "Ġimperial": 9480,
    "depend": 9113,
    "attain": 21259,
    "Ġjustly": 11901,
    "there": 1425,
    "vib": 21113,
    "Ġtroubled": 6615,
    "Ġpromethe": 14467,
    "Ġblessed": 6931,
    "glances": 23851,
    "Ġadrift": 11721,
    "Ġstrong": 1790,
    "Ġdistribut": 840,
    "aid": 1921,
    "Ġserenity": 10028,
    "Ġtempest": 8212,
    "Ġtells": 9362,
    "Ġsacrilege": 26227,
    "pherd": 13642,
    "iminished": 19023,
    "Ġobstacles": 19868,
    "Ġentra": 18694,
    "Ġforced": 4349,
    "Ġyourselves": 9029,
    "tick": 17677,
    "speed": 19406,
    "others": 7668,
    "Ġmicrosc": 20674,
    "ĠĠĠĠĠĠĠĠĠĠĠĠĠĠĠĠĠĠĠĠĠĠĠĠĠĠĠĠĠĠĠĠĠĠĠĠĠĠĠĠĠĠĠĠ": 12150,
    "Ġaggreg": 12880,
    "Ġoverflowing": 17236,
    "Ġunholy": 26217,
    "Ġmu": 17795,
    "inter": 2949,
    "ust": 496,
    "Ġwapping": 21292,
    "doubt": 6782,
    "Ġflashes": 11914,
    "uber": 15443,
    "Ġalleg": 14015,
    "idays": 21766,
    "Ġadaptation": 3155,
    "inders": 15977,
    "knowledge": 7477,
    "erial": 4631,
    "Ġmetaphysical": 26066,
    "Ġced": 10785,
    "Ġsauc": 15885,
    "Ġpreviously": 3916,
    "mathemat": 19136,
    "Ġbabies": 19689,
    "Ġcritical": 7474,
    "popular": 26139,
    "Ġdimension": 3240,
    "sight": 5993,
    "sails": 7496,
    "Ġslaught": 23165,
    "Ġparson": 6687,
    "Ġheadsman": 13270,
    "Ġtransactions": 18505,
    "Ġberkshire": 16883,
    "admire": 24942,
    "Ġpulling": 5862,
    "deli": 15342,
    "athom": 12934,
    "vision": 5620,
    "Ġsuffer": 4722,
    "Ġcolumn": 9328,
    "Ġoutcast": 18413,
    "Ġdotted": 16791,
    "Ġdetection": 3384,
    "itoring": 21329,
    "Ġnearly": 3363,
    "Ġchopping": 24219,
    "ivering": 7696,
    "Ġfav": 1755,
    "Ġwhipcord": 20091,
    "iring": 1708,
    "ignific": 11953,
    "Ġsupplication": 25491,
    "Ġbarmaid": 19333,
    "read": 3276,
    "atives": 2236,
    "dropped": 12259,
    "crowded": 20187,
    "sixteen": 24852,
    "Ġpractised": 23319,
    "Ġly": 2268,
    "Ġcraggy": 23529,
    "omen": 4082,
    "attributed": 23118,
    "Ġphysiology": 25332,
    "nay": 7134,
    "vous": 2250,
    "Ġsalad": 19476,
    "unvarying": 21884,
    "daylight": 19054,
    "Ġshrunk": 16717,
    "utting": 17984,
    "charles": 14698,
    "shadows": 25479,
    "ounding": 22390,
    "Ġsupposing": 6729,
    "Ġstove": 6733,
    "ellations": 21939,
    "Ġstable": 2699,
    "Ġwomen": 4750,
    "Ġcent": 3255,
    "smith": 5669,
    "ray": 2437,
    "Ġheaved": 9383,
    "pence": 15407,
    "Ġworshipped": 25690,
    "Ġplying": 17913,
    "off": 1888,
    "Ġcask": 5527,
    "Ġoper": 2123,
    "Ġchildren": 3765,
    "Ġautumnal": 19035,
    "Ġsneer": 13444,
    "tumultuously": 25612,
    "dispute": 23497,
    "Ġinterest": 2247,
    "Ġbecoming": 4395,
    "Ġyet": 1028,
    "po": 1135,
    "necessary": 5881,
    "protected": 19918,
    "Ġpur": 2217,
    "Ġfaintly": 14914,
    "Ġide": 2125,
    "Ġlikes": 9407,
    "Ġavenues": 25429,
    "cushion": 20819,
    "fort": 1749,
    "Ġdecreases": 3409,
    "Ġfanning": 23388,
    "dation": 2615,
    "strength": 13978,
    "ineffectual": 26506,
    "Ġpromised": 5181,
    "Ġworshippers": 25692,
    "surely": 10570,
    "produce": 20279,
    "hears": 12529,
    "Ġpearl": 20373,
    "Ġorganisation": 23582,
    "Ġsharks": 4497,
    "Ġpeevish": 26556,
    "Ġphantoms": 13483,
    "Ġdeputation": 21835,
    "d": 72,
    "Ġsledge": 8109,
    "Ġchorus": 10947,
    "conquerable": 17397,
    "icial": 12651,
    "Ġii": 7384,
    "Ġdaft": 19660,
    "Ġshaped": 15831,
    "upright": 23014,
    "Ġmutually": 23954,
    "mm": 676,
    "featured": 24095,
    "Ġindebted": 8708,
    "Ġdil": 6382,
    "east": 9116,
    "Ġmuteness": 19414,
    "Ġ64": 24367,
    "drew": 7333,
    "Ġobjects": 5578,
    "olly": 3224,
    "Ġasia": 11683,
    "Ġcam": 10162,
    "Ġgur": 21588,
    "Ġclothe": 4711,
    "Ġsubstant": 14808,
    "Ġmalady": 24392,
    "Ġpilgr": 12177,
    "ĥ": 230,
    "apparently": 15203,
    "Ġrambling": 18644,
    "Ġdictated": 25218,
    "Ġmoved": 4839,
    "Ġhasn": 12922,
    "comparison": 25839,
    "eteenth": 20154,
    "eline": 2269,
    "spe": 3558,
    "Ġqueequeg": 2013,
    "flood": 19803,
    "Ġjumping": 13338,
    "Ġblacks": 23386,
    "servants": 15037,
    "insupportable": 21191,
    "Ġdissip": 10993,
    "ister": 1294,
    "Ġstingy": 25455,
    "Ġwavering": 23279,
    "isite": 15559,
    "Ġindicates": 3192,
    "usage": 12828,
    "het": 5435,
    "plainly": 11091,
    "Ġreefed": 20299,
    "Ġsickbed": 24246,
    "steel": 8296,
    "Ġbough": 13892,
    "Ġcandelab": 23846,
    "soc": 5175,
    "Ġterrible": 5327,
    "Ġuneasily": 24230,
    "utional": 17983,
    "Ġcellar": 8057,
    "Ġfing": 3755,
    "Ġcommonest": 23086,
    "r": 86,
    "Ġconsequ": 6254,
    "kne": 20933,
    "ambition": 13408,
    "Ġbrandy": 11050,
    "Ġaccommodate": 20514,
    "sory": 17658,
    "Ġmaintain": 856,
    "Ġlikelihood": 16498,
    "spoken": 11859,
    "iancy": 13004,
    "prof": 7697,
    "acet": 5476,
    "Ġlandlessness": 23378,
    "clay": 18929,
    "Ġimpregnable": 26022,
    "virtue": 20567,
    "Ġnewton": 3531,
    "Ġvictim": 6097,
    "tical": 10129,
    "Ġgrieved": 8295,
    "Ġdebt": 12164,
    "astron": 22165,
    "Ġburning": 5975,
    "naturedly": 24839,
    "strange": 6086,
    "Ġsuspicions": 9478,
    "lined": 12480,
    "Ġunrival": 22043,
    "Ġlinn": 13951,
    "Ġbushy": 16399,
    "Ġmodeling": 2096,
    "abhorred": 17334,
    "itically": 21327,
    "Ġabsolute": 6765,
    "mr": 1902,
    "top": 4485,
    "Ġunprincipled": 20706,
    "clock": 3929,
    "Ġkick": 5837,
    "Ġtranque": 14207,
    "Ġuntutored": 19164,
    "Ġcalmed": 16266,
    "Ġshaken": 10265,
    "Ġperplexed": 23660,
    "Ġaccompany": 9486,
    "Ġdock": 15927,
    "ast": 473,
    "Ġpredictions": 1458,
    "Ġinsertion": 26342,
    "Ġadapts": 3815,
    "Ġaided": 17745,
    "estone": 18362,
    "Ġthimble": 15633,
    "hereabouts": 23605,
    "onze": 21253,
    "oman": 2018,
    "Ġbrimstone": 25685,
    "Ġmaintains": 2147,
    "awe": 20763,
    "Ġoverspread": 14205,
    "Ġvapors": 19905,
    "Ġbuild": 6473,
    "ional": 1081,
    "repaid": 24491,
    "Ġpassion": 4556,
    "Ġplaint": 10326,
    "Ġdews": 21834,
    "summer": 11991,
    "Ġindia": 10371,
    "Ġchamp": 18380,
    "acting": 22627,
    "Ġnourishment": 15191,
    "dimens": 2318,
    "ilated": 18057,
    "Ġproceeds": 12074,
    "bright": 8990,
    "dissemble": 23490,
    "ertion": 12036,
    "Ġtoe": 13934,
    "Ġcottages": 14726,
    "ested": 3478,
    "Ġdeceived": 6543,
    "Ġdavy": 25950,
    "Ġpreside": 18364,
    "Ġnevertheless": 5040,
    "--": 1040,
    "Ġexagger": 12714,
    "better": 7118,
    "Ġprairie": 8713,
    "Ġrol": 3553,
    "Ġsurmount": 19997,
    "Ġbub": 8116,
    "Ġforthwith": 16617,
    "Ġsighing": 18677,
    "Ġsweating": 16461,
    "Ġstrugg": 3216,
    "standers": 18478,
    "Ġsyn": 15896,
    "Ġtried": 3646,
    "Ġoffices": 14337,
    "Ġanoint": 25537,
    "aying": 15746,
    "Ġunob": 14114,
    "stout": 21641,
    "rell": 11565,
    "diss": 17522,
    "prints": 23810,
    "may": 3677,
    "considerably": 13442,
    "Ġsmells": 8890,
    "Ġimplicate": 24875,
    "Ġinhuman": 13927,
    "Ġbanking": 19627,
    "prot": 6899,
    "Ġbiographical": 22760,
    "Ġstubb": 1788,
    "offered": 14518,
    "Ġwarring": 16864,
    "Ġreduced": 11922,
    "Ġamounts": 6704,
    "generally": 9434,
    "zes": 11550,
    "owe": 15704,
    "Ġdaughters": 4420,
    "Ġshivering": 10266,
    "Ġcandelabra": 26601,
    "bowed": 10684,
    "desc": 1393,
    "Ġric": 18209,
    "Ġretribution": 16279,
    "unwittingly": 25800,
    "Ġtort": 5901,
    "andy": 8156,
    "Ġstack": 21729,
    "Ġaff": 1116,
    "Ġbellies": 13352,
    "Ġacutely": 14313,
    "gale": 13722,
    "Ġinfinite": 8576,
    "humor": 19449,
    "Ġincorruption": 26308,
    "utch": 21582,
    "enorm": 17781,
    "Ġeldest": 6570,
    "Ġpilgrim": 25598,
    "ructive": 18565,
    "Ġregards": 16074,
    "highest": 20404,
    "Ġinsulted": 14991,
    "viv": 17697,
    "unctions": 18155,
    "?âĢĻ": 2641,
    "Ġrosings": 4606,
    "antingly": 22094,
    "Ġinject": 2711,
    "Ġsuppressing": 22998,
    "Ġlocker": 16910,
    "Ġcrisp": 12000,
    "Ġweeps": 24946,
    "Ġhack": 12752,
    "Ġproves": 14037,
    "Ġtrim": 15974,
    "Ġimpotently": 22387,
    "urch": 3991,
    "Ġdistressed": 8513,
    "elder": 21568,
    "Ġcooped": 22577,
    "har": 20888,
    "Ġagatha": 6866,
    "Ġgard": 2189,
    "Ġsummons": 13228,
    "stee": 21647,
    "et": 307,
    "Ġaccorded": 24088,
    "Ġcastors": 23973,
    "Ġtorpor": 25030,
    "Ġpermission": 9279,
    "Ġdisplaying": 16964,
    "Ġprice": 10404,
    "spersed": 22736,
    "Ġaristocratic": 20510,
    "clings": 23150,
    "Ġchips": 14181,
    "Ġadjust": 2157,
    "rs": 7806,
    "Ġforeheads": 23447,
    "Ġsymptom": 13480,
    "bug": 17491,
    "behold": 12874,
    "Ġrise": 5637,
    "volutional": 1933,
    "Ġmoul": 15540,
    "headers": 23106,
    "Ġdespite": 19350,
    "ignorant": 13561,
    "Ġrece": 11638,
    "Ġmarshal": 20216,
    "Ġstation": 5297,
    "Ġoptimizer": 5036,
    "rench": 3965,
    "w": 91,
    "Ġconvalescence": 23745,
    "Ġax": 7821,
    "Ġclean": 5652,
    "Ġsembl": 19060,
    "she": 1398,
    "ots": 3296,
    "Ġsickle": 24245,
    "Ġtot": 4183,
    "support": 9469,
    "ctors": 21586,
    "itude": 1420,
    "rarely": 21630,
    "Ġmerest": 14029,
    "Ġupd": 946,
    "Ġinquiring": 9000,
    "sincere": 16906,
    "fashioned": 9570,
    "Ġlot": 6678,
    "Ġnooks": 26010,
    "constantinople": 25508,
    "Ġdefinitions": 22941,
    "Ġrecurring": 23232,
    "vius": 23541,
    "Ġgretna": 26467,
    "flu": 9118,
    "squeezing": 25912,
    "Ġours": 4611,
    "Ġshroud": 6482,
    "flies": 19421,
    "Ġjudged": 12080,
    "Ġleast": 2065,
    "Ġsurest": 19055,
    "to": 714,
    "Ġexpressed": 4467,
    "Ġhardships": 14450,
    "Ġbump": 9660,
    "Ġfollowed": 1796,
    "Ġcrooked": 11283,
    "coo": 11172,
    "particulars": 11317,
    "Ġque": 4156,
    "Ġcorpora": 26579,
    "Ġout": 543,
    "Ġprogen": 14038,
    "Ġdepose": 22603,
    "condescended": 26247,
    "Ġalternately": 15031,
    "Ġmumbled": 17807,
    "Ġirregularly": 25323,
    "Ġprank": 23219,
    "hav": 20895,
    "terror": 18128,
    "Ġsupply": 6066,
    "Ġcommission": 6712,
    "oring": 1862,
    "cond": 1663,
    "stopping": 19347,
    "ounded": 9748,
    "Ġfought": 12589,
    "Ġletting": 10362,
    "reserve": 17765,
    "plentiful": 21959,
    "Ġclassical": 22617,
    "Ġsaved": 6690,
    "Ġtrappers": 23078,
    "Ġnervous": 2404,
    "Ġaccomplishments": 13376,
    "Ġwalks": 8967,
    "Ġcastles": 16638,
    "Ġchocks": 13342,
    "Ġrevolutions": 23839,
    "Ġnormalizing": 1823,
    "Ġseamen": 5063,
    "possess": 5982,
    "renew": 24450,
    "Ġcrumbs": 20638,
    "Ġdifferen": 934,
    "soup": 21056,
    "mond": 20971,
    "artificial": 949,
    "gl": 3292,
    "ail": 567,
    "ised": 1088,
    "Ġassistants": 9450,
    "rier": 9242,
    "stranger": 9883,
    "Ġsus": 18276,
    "Ġfatt": 15575,
    "thoughtfully": 24041,
    "gratulation": 24349,
    "ishe": 13889,
    "Ġeth": 17715,
    "Ġindelible": 25693,
    "izing": 1066,
    "izes": 885,
    "Ġcrowded": 8010,
    "Ġforgery": 25976,
    "Ġcol": 1059,
    "greenland": 10021,
    "Ġyell": 21773,
    "Ġprofile": 16486,
    "Ġcommunicated": 9062,
    "Ġseeming": 8539,
    "clearly": 25195,
    "Ġunexampled": 20356,
    "(_": 7539,
    "oice": 1384,
    "Ġcopied": 20004,
    "executed": 25738,
    "ishnoo": 10956,
    "collinses": 19920,
    "Ġweal": 21916,
    "exe": 11788,
    "Ġ94": 17716,
    "piece": 6655,
    "Ġpursuit": 4733,
    "weed": 14314,
    "Ġbowls": 23769,
    "Ġwatch": 2745,
    "Ġreadability": 2726,
    "ote": 4595,
    "Ġrealistic": 5860,
    "Ġemerg": 13421,
    "Ġocc": 887,
    "Ġadro": 15864,
    "retaining": 21243,
    "chants": 21688,
    "remarked": 12285,
    "ica": 10199,
    "impropriety": 21709,
    "Ġoriginate": 24122,
    "ols": 2412,
    "Ġserves": 4668,
    "Ġplaned": 24052,
    "anous": 21356,
    "singing": 24363,
    "Ġdoubt": 2224,
    "cart": 10689,
    "wr": 3029,
    "Ġagrippa": 11806,
    "Ġheredit": 9217,
    "Ġfears": 5729,
    "hitherto": 17282,
    "aulding": 11340,
    "Ě": 219,
    "Ġerie": 20050,
    "Ġsyrian": 18344,
    "Ġwrecks": 16817,
    "Ġsupp": 1266,
    "succeeded": 15174,
    "Ġreads": 23110,
    "Ġtumble": 16878,
    "Ġstruggles": 16577,
    "Ġhighly": 4844,
    "Ġscrupled": 25048,
    "Ġprofoundest": 16859,
    "third": 8166,
    "Ġtreas": 7357,
    "Ġdissu": 18548,
    "Ġ-": 1944,
    "ize": 775,
    "heavens": 19742,
    "Ġtombed": 25160,
    "Ġhistorical": 3644,
    "Ġcount": 1817,
    "Ġangrily": 9406,
    "Ġfisheries": 17436,
    "Ġwishes": 4795,
    "alvan": 21500,
    "distance": 12149,
    "Ġpaul": 12059,
    "Ġsuperior": 2754,
    "Ġconference": 15743,
    "oftener": 23962,
    "wers": 12516,
    "zealand": 26051,
    "doub": 6223,
    "Ġjustine": 4970,
    "Ġcitations": 25437,
    "Ġbasics": 13445,
    "alling": 6035,
    "Ġrivers": 9441,
    "rium": 3131,
    "Ġrestrain": 8965,
    "oud": 1939,
    "prop": 1014,
    "application": 12360,
    "Ġextremest": 19193,
    "prev": 12862,
    "Ġexerting": 21828,
    "Ġpry": 11601,
    "Ġsearch": 2592,
    "also": 7849,
    "gypt": 8259,
    "Ġsufficiently": 8974,
    "Ġsensibility": 14515,
    "rumours": 23897,
    "Ġshipping": 14102,
    "ims": 7175,
    "imod": 15706,
    "youn": 5690,
    "Ġannihil": 10175,
    "Ġdistinction": 8886,
    "ĠâĢĶ": 13809,
    "ince": 4336,
    "sweetly": 25134,
    "dun": 17515,
    "Ġcommitted": 7430,
    "related": 24010,
    "irresistible": 18173,
    "Ġdis": 693,
    "visit": 7753,
    "Ġtranquil": 7309,
    "Ġdangerously": 23934,
    "Ġrmsprop": 3355,
    "cork": 20794,
    "Ġcontempl": 6701,
    "Ġswitching": 23054,
    "Ġmoon": 4607,
    "evident": 25520,
    "Ġshrieks": 12196,
    "Ġtattooing": 15027,
    "Ġperceptibly": 25820,
    "advice": 12154,
    "Ġstayed": 7996,
    "Ġshepherd": 14152,
    "Ġdisquis": 22523,
    "Ġpossibly": 4513,
    "unken": 10237,
    "ag": 377,
    "Ġaccomp": 4712,
    "ires": 6036,
    "Ġlard": 13945,
    "danced": 20826,
    "flour": 23963,
    "excepting": 19703,
    "lording": 24047,
    "Ġallen": 5160,
    "Ġbelfry": 26437,
    "Ġoftener": 13563,
    "Ġextravagance": 17278,
    "embraces": 25802,
    "Ġfavourite": 5270,
    "Ġspoken": 4836,
    "throne": 25656,
    "foremost": 14252,
    "mens": 20967,
    "Ġplan": 3879,
    "mber": 7802,
    "seas": 14031,
    "tall": 17672,
    "Ġambergris": 8706,
    "Ġrisen": 9492,
    "county": 25396,
    "Ġfinancial": 23126,
    "Ġoutright": 18412,
    "cav": 17506,
    "Ġclutch": 15053,
    "Ġseaward": 22944,
    "Ġcomplicated": 14734,
    "Ġsteward": 6584,
    "Ġryder": 10259,
    "âĢĶâĢľ": 2973,
    "Ġimpetus": 25569,
    "Ġsweatings": 25709,
    "anoke": 21358,
    "Ġshreds": 12766,
    "Ġbal": 1131,
    "Ġprecious": 5760,
    "Ġgamming": 25542,
    "Ġferguson": 17468,
    "Ġpaddock": 25036,
    "Ġcreations": 18684,
    "Ġtone": 4036,
    "Ġwint": 15530,
    "pour": 17629,
    "Ġferoc": 14896,
    "altogether": 12635,
    "Ġspaniards": 25555,
    "Ġpoliceman": 15256,
    "Ġapparatus": 24907,
    "Ġparsonage": 7122,
    "Ġcrown": 5287,
    "ai": 2529,
    "Ġstreet": 2960,
    "Ġmachines": 1777,
    "details": 19672,
    "Ġstaring": 8825,
    "Ġfun": 525,
    "Ġrendered": 5773,
    "ipper": 13738,
    "Ġglory": 6064,
    "ense": 2053,
    "ples": 6845,
    "fifth": 20143,
    "acters": 9309,
    "Ġflo": 2590,
    "bweb": 20789,
    "Ġarm": 2491,
    "Ġriveted": 13616,
    "respect": 6373,
    "Ġgrow": 2859,
    "tempt": 21077,
    "mblies": 24604,
    "Ġsituations": 10492,
    "Ġcomplaisance": 19446,
    "itary": 4751,
    "Ġhark": 8426,
    "Ġcontraction": 16005,
    "Ġhessian": 3546,
    "Ġdirty": 9179,
    "Ġcheek": 8577,
    "older": 15752,
    "Ġacquitted": 18897,
    "presents": 18795,
    "Ġcombining": 22848,
    "boast": 23253,
    "Ġmitigating": 1618,
    "Ġshort": 2226,
    "Ġbraces": 14669,
    "Ġeyebrows": 23513,
    "him": 1937,
    "intosh": 22937,
    "semble": 1528,
    "process": 11149,
    "wor": 3416,
    "ensibility": 22543,
    "Ġdeliberation": 19965,
    "Ġacquiring": 2767,
    "Ġrounds": 18882,
    "Ġnantucketers": 9894,
    "Ġremonstr": 16159,
    "Ġhatter": 4110,
    "orts": 2558,
    "Ĥ": 229,
    "nevertheless": 8284,
    "tem": 6368,
    "dischar": 19150,
    "Ġanticipating": 17057,
    "Ġfluke": 14673,
    "pless": 6260,
    "Ġrevolut": 3259,
    "Ġcommonplace": 11098,
    "bride": 19198,
    "Ġmalay": 24391,
    "secret": 12233,
    "Ġrending": 19464,
    "ama": 11677,
    "Ġmeet": 2804,
    "Ġextremely": 2669,
    "Ġmultitude": 9325,
    "irksome": 18172,
    "call": 8723,
    "Ġintervened": 25481,
    "discoloured": 23496,
    "ung": 2747,
    "uberance": 25915,
    "Ġresembles": 25968,
    "title": 17286,
    "Ġarom": 15490,
    "imodal": 17445,
    "drawn": 9913,
    "Ġsensitive": 13196,
    "ividual": 5463,
    "Ġringbolts": 24196,
    "Ġmustering": 18661,
    "aggo": 5097,
    "Ġsequential": 2134,
    "Ġrepresented": 8939,
    "elves": 2160,
    "office": 16393,
    "Ġepo": 21615,
    "Ġcrevice": 22727,
    "Ġflu": 3278,
    "conscience": 14859,
    "southern": 20405,
    "ferences": 10327,
    "Ġatone": 15799,
    "Ġangel": 4852,
    "Ġsubdued": 11034,
    "birds": 15143,
    "Ġvision": 1604,
    "Ġstranded": 9775,
    "Ġcomply": 8891,
    "Ġstatue": 23147,
    "Ġarose": 7359,
    "actory": 8908,
    "Ġabruptly": 15149,
    "commission": 22809,
    "Ġindelicacy": 25694,
    "Ġfriendship": 7245,
    "access": 11182,
    "Đ": 209,
    "ceremony": 20587,
    "ctions": 963,
    "estic": 4956,
    "Ġscreams": 24603,
    "luckily": 19749,
    "Ġcountries": 13093,
    "ling": 736,
    "Ġbuildings": 24718,
    "Ġboarders": 16599,
    "mons": 17599,
    "proportions": 22824,
    "anks": 3913,
    "Ġbern": 17858,
    "Ġutilize": 4798,
    "Ġclout": 22339,
    "Ġbearded": 15723,
    "Ġpersonally": 8600,
    "reference": 13838,
    "wit": 7816,
    "Ġimbalanced": 18332,
    "Ġarches": 14162,
    "apt": 720,
    "Ġhospit": 7513,
    "spiracle": 22737,
    "mouthful": 25208,
    "owder": 8447,
    "libra": 22922,
    "Ġhouses": 6138,
    "Ġhumility": 12980,
    "Ġdazzling": 15210,
    "cible": 20804,
    "Ġquadrant": 11406,
    "quality": 10233,
    "material": 13127,
    "Ġfrigid": 17351,
    "Ġmagnet": 10390,
    "Ġhastening": 19334,
    "<PAD>": 0,
    "Ġbumpkins": 25281,
    "Ġsecondary": 23335,
    "extent": 22761,
    "Ġbattalions": 25775,
    "fill": 15348,
    "mountains": 15179,
    "onet": 12541,
    "Ġwhiting": 10860,
    "learn": 2321,
    "Ġhospitality": 13510,
    "Ġdetaining": 25817,
    "sunlight": 24850,
    "Ġtransferred": 16459,
    "S": 55,
    "own": 745,
    "scho": 8760,
    "uses": 11759,
    "?âĢĻâĢĿ": 23641,
    "Ġporter": 15607,
    "Ġdozen": 8184,
    "pleasantness": 19767,
    "words": 7981,
    "mrs": 3742,
    "Ġladen": 19175,
    "rece": 21232,
    "Ġex": 360,
    "Ġfoolscap": 24158,
    "Ġtender": 5753,
    "salesman": 20669,
    "appearing": 14637,
    "stop": 11635,
    "Ġunanswerable": 26520,
    "thar": 18217,
    "Ġyojo": 7609,
    "Ġorgan": 2503,
    "ifting": 6544,
    "ills": 1627,
    "previous": 9761,
    "Ġundertaking": 8573,
    "Ġspectre": 16629,
    "convul": 24882,
    "inging": 5906,
    "Ġcries": 7153,
    "nades": 20995,
    "Ġcoupled": 16850,
    "Ġdrunkard": 20174,
    "Ġphenomena": 21480,
    "blow": 9104,
    "Ġmale": 9649,
    "ann": 5802,
    "Ġdiggings": 24649,
    "Ġdisappeared": 5645,
    "const": 6045,
    "Ġdebar": 24271,
    "reat": 618,
    "doesn": 19817,
    "Ġ133": 24782,
    "icult": 3342,
    "oriented": 2948,
    "Ġdoctor": 5067,
    "if": 374,
    "Ġtoilet": 13935,
    "Ġdirect": 1473,
    "ifts": 12728,
    "Ġsiam": 13836,
    "Ġfollow": 1397,
    "built": 16824,
    "concluded": 11245,
    "Ġtravelled": 7770,
    "oors": 17619,
    "Ġcalm": 3447,
    "apside": 22957,
    "forty": 9374,
    "Ġappeals": 16313,
    "Ġappro": 659,
    "Ġeligible": 10671,
    "neying": 22454,
    "Ġmuse": 13858,
    "Ġdeparture": 6489,
    "Ġacceptable": 16743,
    "athed": 7827,
    "Ġcasts": 19423,
    "Ġplata": 25116,
    "Ġarrow": 10932,
    "strangely": 17275,
    "Ġpricking": 23222,
    "Ġapproach": 848,
    "Ġscan": 22290,
    "Ġputs": 19033,
    "ounted": 5030,
    "vinegar": 25420,
    "aux": 14288,
    "Ġsleeves": 10661,
    "Ġjewel": 9942,
    "osa": 22256,
    "piling": 15413,
    "Ġdecaying": 2246,
    "Ġxxxi": 24965,
    "vellers": 16672,
    "plate": 18207,
    "Ġhackney": 20429,
    "Ġreadily": 5253,
    "Ġcontinuing": 14396,
    "Ġtooth": 9193,
    "Ġconsideration": 5191,
    "ww": 10738,
    "Ġprovince": 24188,
    "Ġimpass": 15982,
    "Ġabsorbing": 17127,
    "Ġstung": 21734,
    "safety": 20346,
    "Ġrotterdam": 25475,
    "Ġguards": 16267,
    "ources": 2788,
    "<EOS>": 2,
    "Ġmarriage": 3186,
    "singular": 12185,
    "Ġproficiency": 19190,
    "wol": 21120,
    "Ġdeposit": 17267,
    "Ġshag": 9251,
    "Ġship": 1089,
    "Ġmainmast": 9779,
    "swelled": 19607,
    "reluct": 26162,
    "ference": 1884,
    "Ġpall": 7581,
    "couldn": 23717,
    "canallers": 22961,
    "Ġwoman": 2387,
    "Ġvery": 635,
    "Ġbread": 5404,
    "Ġuse": 830,
    "aguy": 21907,
    "Ġprophets": 20447,
    "torture": 26150,
    "cannib": 11900,
    "Ġexploration": 2338,
    "Ġsmart": 11814,
    "Ġparents": 6752,
    "Ġjesty": 18399,
    "struct": 2256,
    "Ġflorid": 17134,
    "vell": 3956,
    "fair": 10093,
    "Ġbore": 5079,
    "Ġtrustworthy": 24107,
    "inclination": 20054,
    "Ġsanity": 24978,
    "Ġbanners": 24857,
    "Ġcomparison": 7098,
    "complained": 25837,
    "Ġexchanging": 18130,
    "lestrade": 9657,
    "Ġpreserve": 7528,
    "isis": 12575,
    "ohn": 4560,
    "quis": 7868,
    "Ġgibraltar": 25786,
    "raved": 18012,
    "Ġdod": 6672,
    "Ġbestirred": 20448,
    "Ġcontrol": 13077,
    "¯": 112,
    "Ġfates": 15574,
    "increas": 10455,
    "having": 5211,
    "Ġcrash": 11999,
    "contrad": 19290,
    "miraculous": 26395,
    "thed": 8827,
    "Ġlow": 1644,
    "elze": 21569,
    "Ġjohn": 5032,
    "entions": 17974,
    "Ġicy": 10748,
    "Ġwreat": 15528,
    "Ġceased": 6467,
    "Ġrepine": 16407,
    "Ġsmote": 18573,
    "vit": 13799,
    "Ġagreeably": 24951,
    "Ġ100": 14362,
    "Ġmajest": 24057,
    "latin": 25258,
    "ription": 5676,
    "Ġregion": 2272,
    "gus": 13723,
    "hoist": 23713,
    "Ġinterchange": 16068,
    "photograph": 16153,
    "Ġbit": 2967,
    "Ġbalancing": 2431,
    "Ġpleasantly": 14520,
    "ercely": 12546,
    "exc": 5169,
    "Ġgruff": 21610,
    "miserable": 8657,
    "Ġnods": 19063,
    "Ġaffrighted": 13570,
    "Ġretire": 10382,
    "Ġsevered": 18203,
    "waiting": 12217,
    "Ġhelen": 16654,
    "vard": 21108,
    "Ġheightened": 8649,
    "Ġcrotch": 9963,
    "Ġcannibal": 7772,
    ",--": 2477,
    "Ġrepulsive": 14530,
    "ics": 3258,
    "le": 279,
    "idled": 21764,
    "Ġungod": 22020,
    "Ġsoftened": 11104,
    "world": 5058,
    "rate": 2423,
    "Ġpalpit": 16690,
    "alescence": 15921,
    "published": 26141,
    "onom": 9159,
    "Ġmiraculous": 13544,
    "Ġthey": 577,
    "Ġtexture": 19158,
    "Ġspleen": 26420,
    "convalescence": 24883,
    "Ġdemands": 19640,
    "Ġhall": 4181,
    "heum": 17747,
    "tired": 21070,
    "Ġlawless": 19432,
    "Ġfatality": 12091,
    "insufferable": 21190,
    "Ġbackbones": 22639,
    "Ġfict": 21402,
    "Ġprofessional": 7298,
    "Ġaccelerate": 23226,
    "Ġcake": 12566,
    "Ġunho": 18245,
    "iment": 2816,
    "progra": 9394,
    "Ġbricks": 13560,
    "bbs": 23690,
    "Ġpoisoned": 24885,
    "Ġfloor": 4374,
    "Ġduck": 8794,
    "satisfy": 16891,
    "cracy": 24688,
    "Ġpretext": 22225,
    "Ġconductor": 24004,
    "Ġneeded": 7716,
    "Ġtangles": 25760,
    "Ġsoothe": 7404,
    "Ġscales": 4849,
    "ucket": 2483,
    "thrill": 25655,
    "Ġpirate": 14996,
    "Ġmovable": 22429,
    "Ġjump": 4503,
    "growing": 13731,
    "Ġcous": 3437,
    "Ġrepublican": 17410,
    "vulgar": 25917,
    "Ġsincerity": 13676,
    "Ġdishonoured": 20387,
    "Ġago": 3134,
    "Ġcampaign": 20659,
    "ulance": 15763,
    "Ġdep": 746,
    "Ġchairs": 12822,
    "taking": 5689,
    "arks": 2844,
    "Ġchaff": 18382,
    "article": 22378,
    "id": 338,
    "Ġdeparted": 5564,
    "supposing": 24135,
    "ty": 1002,
    "Ġintens": 7003,
    "Ġvii": 13105,
    "Ġrake": 18643,
    "Ġecc": 11629,
    "violence": 16476,
    "fitted": 17543,
    "Ġweaver": 11687,
    "Ġvi": 1953,
    "riminately": 16481,
    "Ġbordering": 17227,
    "Ġarve": 15894,
    "tubs": 15129,
    "Ġunhinged": 26215,
    "ouched": 4636,
    "rying": 3184,
    "Ġsprung": 11251,
    "itt": 572,
    "Ġreduce": 7941,
    "igan": 21695,
    "wonder": 6370,
    "Ġcub": 8412,
    "anted": 5027,
    "Ġadver": 5641,
    "Ġfeminine": 15261,
    "Ġforegoing": 23448,
    "Ġintercept": 14268,
    "adier": 18089,
    "Ġsurgeons": 23463,
    "Ġunwilling": 7884,
    "Ġfarthing": 14453,
    "Ġpleasing": 6190,
    "Ġanswers": 7069,
    "erect": 20846,
    "Ġtou": 15464,
    "Ġcircumnav": 12423,
    "Ġhaunted": 10254,
    "transform": 8048,
    "Ġtwice": 4661,
    "keeping": 8635,
    "painter": 24895,
    "deav": 2674,
    "Ġlimit": 10444,
    "quietly": 10593,
    "Ġfathoms": 9084,
    "hooked": 23715,
    "Ġplayful": 19235,
    "riptions": 14794,
    "oise": 15402,
    "Ġwo": 3649,
    "Ġsweeter": 23915,
    "Ġinspector": 6497,
    "brad": 20779,
    "Ġmagic": 8231,
    "Ġ2026": 12332,
    "Ġwhaleman": 4654,
    "chor": 6146,
    "Ġflow": 1241,
    "Ġaval": 15491,
    "Ġdistinguish": 2728,
    "Ġshaved": 21999,
    "Ġwelcomed": 9481,
    "Ġtransient": 18504,
    "Ġwhitened": 24866,
    "Ġresolved": 3795,
    "Ġ121": 24466,
    "Ġpleaded": 16297,
    "Ġcolour": 4461,
    "Ġunited": 6840,
    "Ġfrantically": 23258,
    "Ġilliterate": 26593,
    "ouching": 13174,
    "vering": 15712,
    "Ġintroduction": 8971,
    "pense": 10369,
    "Ġimprudent": 12844,
    "Ġcoward": 7154,
    "window": 7741,
    "Ġarmy": 11740,
    "Ġprejudice": 9076,
    "Ġsaid": 578,
    "Ġrevolve": 19727,
    "Ġcemet": 20678,
    "fre": 5425,
    "Ġcharming": 6628,
    "Ġbarbed": 14834,
    "Ġwept": 7183,
    "Ġcuff": 17829,
    "sensible": 20048,
    "Ġbur": 2697,
    "Ġclaims": 13370,
    "governed": 25405,
    "Ġverdure": 10613,
    "Ġconfided": 19036,
    "aloons": 20007,
    "collar": 19326,
    "Ġtrifling": 10603,
    "loss": 22504,
    "Ġcorrespond": 6209,
    "bureau": 20787,
    "received": 9639,
    "Ġreceiving": 4882,
    "breeding": 16674,
    "justified": 19006,
    "each": 7334,
    "Ġspeak": 2230,
    "rose": 6012,
    "Ġdub": 13907,
    "Ġas": 375,
    "wrong": 13203,
    "Ġprognost": 15279,
    "Ġluxurious": 17309,
    "wil": 8394,
    "Ġdescribed": 6606,
    "Ġprocess": 563,
    "Ġfascinating": 17326,
    "Ġdisc": 943,
    "cat": 15322,
    "metallic": 19877,
    "Ġminimum": 23039,
    "fowl": 17548,
    "Ġentirely": 3433,
    "uteness": 17985,
    "dorff": 15235,
    "Ġlory": 12648,
    "Ġusages": 15914,
    "girls": 12316,
    "Ġsurpass": 13581,
    "Ġwidower": 24235,
    "Ġbarrowful": 25594,
    "Ġrecommending": 24337,
    "onely": 6515,
    "Ġending": 18189,
    "Ġporpoise": 7105,
    "cheerfulness": 20177,
    "Ġalas": 5921,
    "ortment": 22253,
    "Ġreasoner": 14437,
    "Ġburned": 8631,
    "bat": 8070,
    "Ġgradient": 448,
    "hospit": 25902,
    "ivered": 7005,
    "allers": 22190,
    "Ġcharles": 11954,
    "Ġvices": 14081,
    "Ġers": 15458,
    "Ġprob": 973,
    "plex": 708,
    "pips": 21018,
    "cturn": 17986,
    "hark": 15363,
    "Ġgladness": 16590,
    "Ġnatural": 1119,
    "Ġmonogra": 22972,
    "incom": 21179,
    "earth": 6501,
    "inite": 6000,
    "pain": 7349,
    "Ġcooked": 13265,
    "Ġcome": 1243,
    "Ġcrumpled": 16440,
    "Ġreason": 1360,
    "Ġvideos": 13604,
    "Ġdisdained": 15009,
    "Ġthrobbing": 16897,
    "Ġbeer": 10220,
    "Ġchamber": 6213,
    "Ġyankees": 26200,
    "active": 16100,
    "Ġstormy": 16727,
    "assisted": 22303,
    "elter": 21567,
    "supplementary": 20547,
    "Ġcholera": 22249,
    "Ġrow": 5309,
    "Ġgulp": 20025,
    "continue": 16860,
    "ĠĠĠĠĠĠĠĠĠĠĠĠĠĠ": 22559,
    "cadence": 26124,
    "Ġcanvassed": 19931,
    "dies": 15336,
    "springing": 24888,
    "Ġexcuses": 19041,
    "Ġpacific": 5153,
    "Ġfisher": 3221,
    "derer": 4599,
    "fooled": 24419,
    "Ġet": 3579,
    "foundation": 16713,
    "Ġspecimens": 18851,
    "Ġelementary": 24813,
    "Ġlance": 4879,
    "gems": 20882,
    "Ġeh": 6987,
    "Ġignominy": 15084,
    "yp": 1044,
    "Ġdumbly": 24984,
    "Ġtyros": 26100,
    "Ġsluggishly": 25890,
    "Ġsoo": 15858,
    "nose": 17609,
    "Ġprometheus": 15290,
    "fe": 678,
    "val": 1155,
    "reigned": 21240,
    "accident": 11183,
    "utored": 15659,
    "Ġindiam": 22950,
    "therly": 18343,
    "method": 17283,
    "Ġi": 312,
    "ateral": 19374,
    "Ġprofusion": 23567,
    "Ġhunter": 5401,
    "resolved": 9640,
    "Ġtw": 839,
    "tled": 3457,
    "ipt": 12475,
    "pitching": 24074,
    "Ġconcentration": 25061,
    "sign": 8386,
    "Ġsimilarly": 24308,
    "Ġspectrum": 4474,
    "Ġlamp": 4112,
    "Ġfactor": 19015,
    "Ġbright": 3212,
    "Ġprosperous": 15170,
    "terdam": 18129,
    "Ġshouting": 10523,
    "Ġtwin": 12923,
    "Ġplanted": 9774,
    "ĠĠĠĠĠĠĠĠĠĠĠĠĠĠĠĠĠ": 22946,
    "divers": 15340,
    "Ġtotally": 9470,
    "Ġrefused": 6715,
    "Ġsolving": 2482,
    "Ġirritated": 17241,
    "dia": 2136,
    "Ġgoest": 22419,
    "Ġbarrens": 25501,
    "Ġparticip": 16129,
    "rat": 8756,
    "Ġvindictiveness": 25737,
    "Ġbestowing": 16969,
    "Ġawfulness": 23586,
    "Ġlandlord": 5581,
    "hor": 2574,
    "Ġpanel": 13369,
    "Ġconcerns": 11965,
    "overing": 6305,
    "Ġclouds": 5775,
    "Ġsloop": 25929,
    "Ġamel": 18509,
    "epend": 3316,
    "Ġmirror": 12375,
    "educated": 17258,
    "Ġinstituted": 18696,
    "Ġparagraph": 17452,
    "Ġdegraded": 19225,
    "calculation": 25687,
    "Ġnarrative": 6215,
    "Ġsustaining": 25333,
    "Ġberries": 13404,
    "irene": 15912,
    "Ġappeased": 23195,
    "Ġmeasuring": 22879,
    "Ġtoller": 9091,
    "Ġaffected": 5577,
    "Ġpaste": 23417,
    "Ġphil": 3386,
    "](": 11468,
    "reason": 4412,
    "beer": 22484,
    "Ġkill": 4454,
    "Ġresembled": 18033,
    "Ġashamed": 6402,
    "Ġmud": 11574,
    "Ġofficious": 19345,
    "Ġsecured": 6745,
    "onent": 21246,
    "Ġosc": 2835,
    "engine": 18925,
    "Ġmend": 8404,
    "tre": 8761,
    "Ġbr": 1069,
    "Ġreconc": 9683,
    "corner": 13394,
    "ro": 301,
    "Ġstrings": 11828,
    "Ġlabelled": 23329,
    "Ġtoiled": 12638,
    "Ġshelter": 17007,
    "Ġbenediction": 18782,
    "Ġpalm": 10514,
    "Ġleather": 7605,
    "Ġhereabouts": 12973,
    "favourite": 15142,
    "Ġmeas": 1095,
    "Ġisland": 4045,
    "Ġfur": 994,
    "Ġstubborn": 10415,
    "Ġfi": 933,
    "Ġmari": 6813,
    "Ġtroublesome": 23999,
    "jammed": 25905,
    "accur": 14593,
    "hunting": 24385,
    "Ġfig": 3623,
    "Ġunsounded": 15846,
    "Ġbegin": 3098,
    "Ġnonce": 23234,
    "ğ": 224,
    "Ġmockery": 12104,
    "Ġcobbling": 20520,
    "thirty": 12758,
    "erpillar": 5797,
    "ither": 1548,
    "Ġinexplicable": 12253,
    "suspected": 12369,
    "rosc": 17954,
    "Ġstill": 1156,
    "Ġderanged": 23172,
    "na": 13758,
    "ú": 187,
    "Ġgrandfather": 19419,
    "Ġexclaim": 11223,
    "Ġphilipp": 23882,
    "ultaneously": 4190,
    "before": 3113,
    "Ġfled": 6670,
    "Ġlizzie": 26461,
    "Ġnlp": 3062,
    "Ġtending": 17723,
    "desolate": 25702,
    "ience": 806,
    "Ġtre": 2539,
    "tr": 3578,
    "Ġserpents": 13073,
    "Ġdecap": 16020,
    "perquisites": 26529,
    "Ġsnug": 8278,
    "Ġnich": 21516,
    "are": 637,
    "Ġelement": 6898,
    "Ġclothing": 18422,
    "Ġrenewal": 12231,
    "Ġcursory": 18857,
    "alliance": 22193,
    "Ġendeared": 26497,
    "Ġreplying": 19578,
    "Ġsmokes": 22555,
    "acid": 11006,
    "Ġsongs": 13417,
    "Ġ105": 24413,
    "Ġrooted": 13166,
    "sleet": 20146,
    "shri": 14233,
    "robber": 21533,
    "lar": 4483,
    "Ġsemantics": 2894,
    "surprising": 16917,
    "Ġclock": 9532,
    "Ġguns": 16775,
    "*": 14,
    "arpening": 21440,
    "shr": 10979,
    "Ġwondering": 7969,
    "aring": 1479,
    "ulations": 6027,
    "Ġunqualified": 22057,
    "Ġyesterday": 5332,
    "Ġconsumm": 15153,
    "Ġsmelling": 16063,
    "Ġcupboard": 16882,
    "clut": 23149,
    "Ġpadd": 9670,
    "Ġpron": 6450,
    "floating": 12224,
    "iag": 20914,
    "pushed": 21021,
    "Ġhumorously": 18777,
    "enes": 5218,
    "Ġrud": 8476,
    "Ġtortures": 14922,
    "iless": 10282,
    "Ġsacred": 10931,
    "exped": 16523,
    "Ġswells": 9827,
    "Ġanything": 2186,
    "Ġhills": 6526,
    "Ġfurlongs": 20721,
    "Ġdiversion": 17196,
    "Ġphilosophical": 26333,
    "Ġped": 6817,
    "Ġmists": 14630,
    "sigma": 3004,
    "elling": 5830,
    "Ġ3": 3982,
    "making": 2575,
    "disappearing": 23500,
    "Ġsustain": 10017,
    "Ġhell": 5019,
    "change": 6391,
    "danish": 20831,
    "Ġpup": 12615,
    "Ġinstantly": 3591,
    "Ġslit": 13052,
    "Ġint": 409,
    "powers": 25410,
    "Ġlatent": 19652,
    "acute": 22591,
    "Ġhands": 1658,
    "Ġgrammatical": 13536,
    "Ġcollections": 22854,
    "lightning": 16551,
    "Ġbrought": 2518,
    "Ġcontrols": 1731,
    "Ġoctavo": 15162,
    "pole": 9333,
    "compliments": 24809,
    "Ġmerid": 13192,
    "Ġdecanter": 22449,
    "Ġtag": 15466,
    "Ġrefill": 18699,
    "Ġconfed": 13094,
    "ten": 1556,
    "currents": 23842,
    "reproach": 15185,
    "Ġhazard": 20428,
    "steak": 14707,
    "already": 6980,
    "Ġinh": 10825,
    "Ġnavigators": 19760,
    "Ġscents": 22293,
    "Ġtwine": 14310,
    "fit": 6645,
    "Ġdoubtless": 6195,
    "Ġspilled": 10925,
    "Ġhen": 3500,
    "Ġinfrequent": 3822,
    "taining": 7204,
    "Ġpointed": 4773,
    "Ġlazily": 11382,
    "Ġlombardy": 26462,
    "atiable": 17774,
    "Ġthreat": 5154,
    "spikes": 10342,
    "a": 69,
    "Ġunsav": 18251,
    "owner": 18609,
    "_?âĢĿ": 15303,
    "Ġwish": 2098,
    "Ġcontrari": 23347,
    "shattered": 22440,
    "Ġoctober": 17225,
    "aye": 3658,
    "Ġconsequent": 18113,
    "bermaid": 20788,
    "Ġothers": 2585,
    "rebellum": 26164,
    "disreputable": 23501,
    "Ġtired": 9150,
    "orers": 14101,
    "Ġplain": 2817,
    "Ġsecuring": 11989,
    "utterly": 20008,
    "Ġscaffold": 18408,
    "torn": 17681,
    "Ġpetersburgh": 24228,
    "accomp": 10456,
    "Ġireland": 17333,
    "Ġexpressing": 12006,
    "Ġwednesday": 9025,
    "Ġindignantly": 16938,
    "Ġprying": 15605,
    "usoid": 4767,
    "romised": 14110,
    "Ġestim": 3349,
    "Ġneskye": 21527,
    "Ġcedar": 15187,
    "max": 1682,
    "Ġtufted": 17013,
    "bpp": 20770,
    "sharpening": 22445,
    "Ġconting": 18471,
    "Ġbounding": 19397,
    "Ġoppressive": 20452,
    "chain": 18039,
    "Ġgrudge": 20691,
    "Ġpope": 11603,
    "Ġinform": 999,
    "Ġrome": 12152,
    "affairs": 14656,
    "gazed": 15359,
    "egypt": 15347,
    "6": 26,
    "pots": 11515,
    "Ġumbrella": 15263,
    "Ġhardest": 18911,
    "Ġcursed": 6727,
    "prodigious": 17465,
    "kl": 4865,
    "Ġrelied": 16192,
    "Ġwherein": 14292,
    "Ġutmost": 5496,
    "erer": 8732,
    "trad": 21074,
    "177": 20750,
    "aved": 5475,
    "Ġblind": 3713,
    "aby": 18106,
    "Ġwillingly": 8885,
    "Ĵ": 245,
    "Ġaries": 21195,
    "Ġformation": 2944,
    "Ġminutes": 3002,
    "ocation": 14625,
    "Ġdiscretion": 10349,
    "nursery": 26398,
    "Ġendeavoured": 4918,
    "Ġcourt": 4166,
    "Ġref": 913,
    "renched": 7905,
    "Ġcommissioned": 19892,
    "spoutings": 25000,
    "Ġgpus": 3730,
    "ertain": 1207,
    "Ġthink": 988,
    "Ġcotton": 17377,
    "¬": 110,
    "Ġlistened": 4469,
    "Ġwing": 6665,
    "Ġdet": 510,
    "oused": 6555,
    "writer": 14648,
    "Ġcorrespondence": 10595,
    "sensations": 20047,
    "Ġunjustly": 17125,
    "endured": 22223,
    "advise": 24217,
    "Ġmatters": 4974,
    "Ġhardy": 8565,
    "ousness": 10275,
    "Ġstruggle": 3673,
    "Ġschol": 17375,
    "Ġreserves": 19667,
    "Ġscraped": 16902,
    "Ġmississippi": 20723,
    "21": 10072,
    "ellent": 3759,
    "warning": 25531,
    "ered": 1681,
    "Ġcl": 551,
    "Ġimposed": 14215,
    "Ġfondness": 16779,
    "ounce": 6556,
    "venty": 6426,
    "toller": 20670,
    "pens": 17631,
    "itigated": 23044,
    "Ġdiamond": 15595,
    "andering": 21863,
    "Ġwooden": 4730,
    "hro": 20889,
    "ploy": 2102,
    "Ġunass": 14112,
    "Ġputting": 5326,
    "Ġunwillingness": 20028,
    "Ġsacrific": 15017,
    "Ġliveliness": 13641,
    "Ġpreventing": 883,
    "hem": 6663,
    "eastward": 15128,
    "Ġgodlike": 23355,
    "precisely": 6917,
    "finally": 9498,
    "cc": 472,
    "Ġminutely": 14561,
    "Ġtwo": 1042,
    "Ġcaulking": 20290,
    "Ġtypewriter": 19096,
    "sprit": 11384,
    "olds": 9311,
    "Ġwhiff": 21714,
    "design": 18956,
    "cture": 15661,
    "Ġhagger": 21487,
    "Ġtrades": 8230,
    "Ġbulkington": 14677,
    "Ġcustody": 13645,
    "Ġgrey": 4512,
    "Ġprecipice": 19937,
    "Ġintellectual": 11403,
    "dishon": 20400,
    "Ġpian": 13915,
    "Ġmarble": 7667,
    "Ġtyrant": 24766,
    "Ġstigma": 25790,
    "baggage": 24925,
    "erde": 21266,
    "Ġunsatisfied": 22040,
    "Ġnoisier": 4624,
    "riety": 12739,
    "ders": 8073,
    "embow": 21926,
    "sl": 5794,
    "Ġhostile": 19936,
    "glimmer": 26320,
    "Ġentreat": 4509,
    "Ġmole": 11790,
    "Ġalow": 18099,
    "Ġponies": 21473,
    "traced": 19634,
    "Ġrecre": 22738,
    "cred": 9108,
    "Ġforwarded": 19044,
    "Ġintrude": 25989,
    "Ġscreening": 25300,
    "imaux": 21708,
    "Ġpalpitated": 26084,
    "Ġrepul": 16406,
    "Ġwhal": 5454,
    "skinned": 25387,
    "ishmael": 18419,
    "again": 3399,
    "Ġcarving": 14442,
    "gust": 6359,
    "ination": 2914,
    "benefit": 24642,
    "Ġsole": 3299,
    "Ġsquires": 16180,
    "Ġbelieve": 2149,
    "hee": 10761,
    "Ġhaught": 10253,
    "Ġenl": 18188,
    "Ġjura": 14189,
    "Ġoverflow": 10293,
    "coun": 10687,
    "ippers": 17575,
    "Ġcorpusants": 13675,
    "Ġlighter": 12649,
    "Ġallurements": 22004,
    "Ġdisappointment": 6626,
    "Ġcrunched": 19122,
    "Ġdeact": 18135,
    "Ġcontain": 1553,
    "renewed": 19701,
    "heavenly": 20041,
    "Ġpestilent": 25776,
    "ĠĠĠĠĠĠ": 6413,
    "Ġcorrupt": 11921,
    "Ġpoignant": 22589,
    "Ġgravely": 7881,
    "Ġaimed": 20247,
    "Ġglassy": 19556,
    "teen": 6369,
    "domestic": 19822,
    "Ġpar": 456,
    "beaut": 8511,
    "À": 129,
    "Ġequals": 4727,
    "Ġproblem": 1271,
    "Ġsolitary": 5854,
    "resum": 17761,
    "Ġabstraction": 26538,
    "Ġexhibit": 14954,
    "vel": 2385,
    "iverse": 13112,
    "Ġ235": 25712,
    "Ġtable": 2499,
    "Ġpersonages": 23540,
    "umpled": 15873,
    "calling": 12446,
    "clergy": 18932,
    "incidentally": 20537,
    "Ġdetermined": 2222,
    "Ġinserting": 19903,
    "Ġshops": 21998,
    "widows": 25344,
    "iard": 9602,
    "methodically": 20662,
    "Ġconflag": 20332,
    "bed": 3291,
    "Ġpip": 1588,
    "Ġere": 3683,
    "asses": 7016,
    "Ġabode": 7898,
    "Ġapproximation": 2343,
    "Ġedinburgh": 16434,
    "Ġimbu": 15888,
    "initely": 7567,
    "proud": 9904,
    "Ġmade": 1049,
    "Ġpresenting": 18987,
    "pyramid": 21028,
    "Ġcryst": 9917,
    "Ġcontemplative": 19890,
    "happily": 14657,
    "Ġtobacc": 7851,
    "prim": 23808,
    "Ġpapers": 4019,
    "Ġagency": 11805,
    "Ġunwe": 15835,
    "dearest": 11733,
    "lone": 11501,
    "Ġabatement": 22272,
    "Ġtorture": 9065,
    "mechanically": 17298,
    "drab": 23895,
    "gar": 5615,
    "Ġcomforters": 25799,
    "alous": 7371,
    "character": 6330,
    "recogn": 13422,
    "se": 358,
    "etence": 21573,
    "Ġfetching": 16895,
    "Ġremot": 8543,
    "enit": 17779,
    "Ġfarm": 7839,
    "Ġmember": 8586,
    "Ġnaked": 8125,
    "Ġresolve": 13167,
    "Ġtumb": 21167,
    "doors": 19093,
    "delirium": 14784,
    "Ġartful": 22606,
    "Ġforked": 11664,
    "Ġmature": 17799,
    "rael": 21625,
    "socket": 22728,
    "Ġmatches": 14394,
    "Ġthus": 2037,
    "ountain": 2920,
    "icide": 11619,
    "card": 11477,
    "Ġwarnings": 16880,
    "Ġinfle": 16360,
    "viating": 14579,
    "Ġneatness": 19929,
    "Ġlogic": 13074,
    "_).": 5886,
    "Ġsooner": 5573,
    "ave": 982,
    "Ġdomestic": 6910,
    "Ġclear": 1949,
    "Ġskewer": 19617,
    "Ġsold": 6001,
    "Ġslung": 23166,
    "Ġexposed": 8522,
    "thesize": 24905,
    "Ġpettiness": 24229,
    "aces": 2069,
    "Ġath": 15798,
    "Ġsher": 3761,
    "very": 497,
    "Ġprescribed": 26009,
    "Ġprocession": 11774,
    "through": 4021,
    "ugues": 19022,
    "olstadt": 7787,
    "stays": 15685,
    "cheered": 23804,
    "procure": 23395,
    "dug": 18461,
    "Ġnext": 2141,
    "Ġlodger": 24091,
    "full": 7419,
    "Ġcompact": 2262,
    "Ġwhalebone": 10978,
    "Ġcheetah": 14504,
    "pid": 1394,
    "Ġmoreover": 6163,
    "Ġunlimited": 26221,
    "Ġsurging": 19132,
    "agger": 7870,
    "Ġbusied": 19065,
    "estab": 14169,
    "Ġwrong": 4724,
    "Ġunbroken": 18250,
    "Ġciv": 3310,
    "Ġvexations": 24605,
    "Ġcoopman": 25826,
    "Ġjollity": 25565,
    "Ġrem": 956,
    "=": 33,
    "Ġscener": 10951,
    "Ġsanctified": 25882,
    "wholly": 10942,
    "Ġproper": 1379,
    "Ġadvise": 7933,
    "Ġvalues": 2651,
    "thinks": 16640,
    "Ġunfold": 8021,
    "absent": 21785,
    "altern": 17941,
    "Ġterror": 5124,
    "Ġfearfully": 23509,
    "Ġshilling": 18228,
    "Ġassaulted": 25320,
    "Ġlocal": 1199,
    "imming": 9687,
    "Ġblanc": 11066,
    "Ġfires": 16470,
    "Ġlangsdorff": 15274,
    "Ġhelped": 7458,
    "Ġcontradict": 12382,
    "Ġvaluable": 5608,
    "Ġprodig": 6026,
    "Ġxerxes": 23409,
    "ref": 6514,
    "ato": 17769,
    "stove": 21648,
    "Ġiroqu": 21620,
    "Ġdeg": 3282,
    "Ġepoch": 26470,
    "Ġprosecut": 9699,
    "Ġfrench": 4939,
    "Ġsewing": 21951,
    "Ġobsole": 22696,
    "Ġleader": 14701,
    "Ġsurpr": 2553,
    "pul": 8754,
    "Ġviews": 7289,
    "Ġwester": 25152,
    "Ġexcel": 3566,
    "Ġshells": 20360,
    "bidden": 19734,
    "Ġexponential": 1057,
    "sy": 2873,
    "strike": 14948,
    "Ġalgorithm": 772,
    "Ġsuccessfully": 19426,
    "Ġcarve": 23089,
    "em": 389,
    "eous": 13710,
    "Ġdebated": 9041,
    "Ġforb": 11663,
    "Ġphr": 2681,
    "ayed": 12708,
    "aders": 21754,
    "Ġmanifested": 17156,
    "learning": 2521,
    "destroyed": 15258,
    "Ġgenerative": 5644,
    "lift": 15382,
    "Ġglades": 19369,
    "Ġeighty": 19473,
    "begone": 12875,
    "Ġresembling": 4096,
    "erable": 1916,
    "fallen": 19656,
    "yea": 23084,
    "-------": 20385,
    "Ġenrapt": 21936,
    "Ġpea": 14316,
    "evade": 24819,
    "adjust": 21756,
    "romeda": 17261,
    "pointing": 12221,
    "animals": 24736,
    "Ġunappalled": 22061,
    "Ġbecher": 18877,
    "etwork": 446,
    "phere": 21017,
    "terms": 15747,
    "Ġhumaneval": 25581,
    "Ġd": 284,
    "Ġchained": 16388,
    "Ġinsol": 10181,
    "something": 4282,
    "haustible": 16890,
    "atmosphere": 21262,
    "objection": 19912,
    "Ġcrutch": 23445,
    "Ġblotches": 25314,
    "Ġecstasy": 11631,
    "Ġinexperienced": 26099,
    "Ġclos": 4548,
    "anean": 7442,
    "Ġbarrier": 16568,
    "friendship": 24045,
    "hatchway": 25903,
    "iature": 8742,
    "Ġconsecrate": 26488,
    "Ġhanding": 16128,
    "Ġobstructed": 22697,
    "Ġfairness": 9893,
    "Ġdoom": 6416,
    "noticed": 14340,
    "Ġswallowed": 7942,
    "Ġnational": 13940,
    "puzz": 17639,
    "Ġbled": 17857,
    "Ġtown": 2454,
    "Ġpitied": 14691,
    "Ġbloss": 19254,
    "Ġhonoured": 9881,
    "Ġcases": 3959,
    "Ġsympathies": 14860,
    "lightened": 12062,
    "Ġmoritz": 11903,
    "Ġcompetent": 11815,
    "Ġstammered": 26198,
    "Ġbou": 17852,
    "Ġmab": 12556,
    "Ġfisherman": 12072,
    "aloft": 8807,
    "Ġsimon": 5172,
    "Ġbottle": 7489,
    "mary": 8749,
    "py": 17623,
    "header": 11930,
    "Ġscalding": 16351,
    "Ġperennial": 22690,
    "Ġupright": 8492,
    "Ġoutrageous": 20608,
    "Ġ78": 19610,
    "Ġindolence": 16226,
    "Ġscrut": 15949,
    "Ġvitality": 15171,
    "Ġsailing": 5323,
    "Ġsnugness": 20073,
    "fiery": 13579,
    "Ġcharacteristics": 8610,
    "Ġelbowed": 16108,
    "ler": 3489,
    "Ġkrempe": 10670,
    "Ġchar": 1704,
    "Ġpet": 4585,
    "flutter": 23968,
    "distinct": 13332,
    "sound": 6799,
    "_.": 2213,
    "wishing": 21126,
    "ieties": 19024,
    "instance": 24193,
    "Ġpoisonous": 24886,
    "Ġascending": 14853,
    "Ġstagger": 10592,
    "Ġharvard": 24573,
    "begin": 8884,
    "Ġscheme": 7063,
    "Ġfall": 2989,
    "Ġfrigates": 25706,
    "Ġname": 2083,
    "Ġpronouncing": 16967,
    "Ġpartaking": 22695,
    "brought": 7284,
    "ugnance": 12364,
    "Ġtranquilly": 12287,
    "infallibly": 26416,
    "Ġoars": 3894,
    "Ġcapabilities": 4373,
    "Ġpolic": 13158,
    "concerning": 9068,
    "een": 726,
    "Ġchiefly": 5766,
    "Ġcogent": 14272,
    "Ġthrust": 5084,
    "inent": 9629,
    "nailed": 20994,
    "asher": 15642,
    "ricade": 13033,
    "Ġwhitt": 18054,
    "Ġforecastle": 5495,
    "nib": 5214,
    "marest": 20978,
    "Ġilluminating": 25245,
    "Ġvag": 9708,
    "rudence": 7091,
    "Ġshivered": 14106,
    "measured": 19986,
    "Ġsled": 21216,
    "Ġconceal": 5972,
    "Ġestimable": 23870,
    "upon": 2723,
    "bouton": 17500,
    "Ġignorantly": 19493,
    "output": 4399,
    "Ġhatches": 12042,
    "Ġsetbacks": 11064,
    "Ġ1000": 3116,
    "ĠĠĠĠĠĠĠĠĠĠĠĠĠĠĠĠĠĠĠĠĠĠĠĠĠĠĠĠĠĠĠĠĠĠ": 14613,
    "Ġplanned": 14751,
    "Ġleyden": 21743,
    "Ġroses": 11785,
    "Ġsymphony": 26531,
    "Ġsa": 474,
    "pair": 21010,
    "by": 1157,
    "Ġhebrew": 13986,
    "haired": 14765,
    "Ġbeatrix": 24204,
    "Ġbitter": 4170,
    "Ġearnest": 3926,
    "Ġmended": 21311,
    "mad": 5280,
    "Ġafforded": 8027,
    "Ġinvest": 4978,
    "Ġsurviv": 13432,
    "omed": 13973,
    "Ġattic": 16092,
    "tottenham": 25418,
    "Ġparlour": 12318,
    "Ġdug": 21427,
    "Ġpia": 21461,
    "Ġderivatives": 2372,
    "agation": 1212,
    "remembered": 17349,
    "oried": 10803,
    "expound": 23662,
    "Ġpint": 17909,
    "Ġinterpretation": 19713,
    "Ġblight": 18816,
    "itions": 4145,
    "Ġarms": 3964,
    "Ġnaut": 13939,
    "Ġexception": 11218,
    "Ġsanta": 26419,
    "Ġwra": 5905,
    "Ġhorr": 3188,
    "Ġinjustice": 9191,
    "shooting": 16963,
    "Ġsteak": 9829,
    "just": 1699,
    "Ġsympathetic": 17357,
    "Ġwhistling": 19786,
    "plexion": 14260,
    "Ġbelshazzar": 16223,
    "Ġsickened": 16774,
    "Ġrail": 7223,
    "Ġsuffers": 2976,
    "Ġinve": 17928,
    "Ġbrigs": 20319,
    "Ġbasis": 16959,
    "Ġhieroglyphic": 25586,
    "Ġthroughout": 8877,
    "Ġhalls": 19523,
    "Ġsurm": 7475,
    "Ġascendency": 20229,
    "relatively": 24011,
    "Ġcharacter": 2794,
    "Ġmonosyllable": 20724,
    "sufferable": 12173,
    "pig": 8753,
    "Ġconsiderably": 7713,
    "Ġrifts": 21972,
    "Ġdeserve": 8307,
    "Ġintrusted": 21989,
    "pleas": 3849,
    "Ġtapped": 11555,
    "overhearing": 19053,
    "Ġsprings": 16686,
    "Ġvales": 21943,
    "cottage": 9569,
    "worm": 15451,
    "Ġavocation": 23950,
    "athies": 22699,
    "recover": 24618,
    "Ġregardless": 19322,
    "Ġfervent": 14895,
    "Ġbloodshot": 23798,
    "twice": 14620,
    "Ġtries": 9151,
    "ancing": 1759,
    "Ġcoolly": 9772,
    "ob": 1422,
    "Ġjaws": 5593,
    "veil": 18042,
    "Ġadjusted": 23457,
    "Ġwounded": 8658,
    "remes": 21235,
    "Ġintu": 12759,
    "lesson": 22767,
    "apply": 18758,
    "melancholy": 12350,
    "Ġgenial": 12191,
    "Ġeffective": 1249,
    "Ġsitu": 3493,
    "Ġballarat": 14718,
    "Ġenticements": 26033,
    "Ġaugust": 10598,
    "Ġstripped": 10466,
    "Ġmonomaniac": 9568,
    "Ġgamy": 17998,
    "values": 4973,
    "Ġinmates": 15619,
    "Ġharpoone": 2911,
    "commendation": 26347,
    "Ġrolls": 8332,
    "lie": 12479,
    "Ġexploit": 19160,
    "Ġindependently": 4244,
    "Ġapparel": 20432,
    "Ġinsurgents": 26599,
    "Ġannealing": 1554,
    "Ġunheard": 22021,
    "corrupt": 14894,
    "clu": 20797,
    "Ġgladstone": 23867,
    "naturally": 14573,
    "oves": 15401,
    "rue": 1127,
    "separation": 25226,
    "historical": 20462,
    "Ġpipeline": 2279,
    "impotence": 23760,
    "Ġundeniable": 26509,
    "Ġmaids": 19688,
    "Ġdispirited": 23880,
    "Ġpillar": 21470,
    "Ġinsights": 13176,
    "rabbit": 20588,
    "Ġamsterdam": 22480,
    "Ġaft": 5737,
    "Ġmagnifying": 16317,
    "Ġparc": 10921,
    "Ġsutherland": 10149,
    "Ġobstinacy": 17419,
    "Ġdark": 2115,
    "Ġbalances": 2342,
    "Ġwed": 3958,
    "Ġblan": 18815,
    "anche": 10789,
    "Ġtribute": 15473,
    "Ġjunior": 15098,
    "Ġhimmalehs": 26229,
    "Ġsides": 4578,
    "Ġpoured": 8801,
    "belt": 24032,
    "amused": 21842,
    "Ġinsular": 19266,
    "vult": 21111,
    "Ġlawyers": 25248,
    "immed": 9218,
    "Ġprejud": 6851,
    "ider": 21761,
    "Ġcared": 8783,
    "flame": 16636,
    "tee": 16170,
    "pond": 21011,
    "Ġpassages": 12965,
    "mechanical": 25576,
    "Ġmanor": 14196,
    "Ġremembr": 24169,
    "head": 1436,
    "pagan": 17284,
    "maged": 15391,
    "Ġpersevering": 20230,
    "Ġantagon": 19546,
    "Ġrecalled": 8537,
    "Ġarranged": 9877,
    "fitters": 24760,
    "Ġcoil": 11817,
    "Ġgazes": 24093,
    "Ġcheering": 11134,
    "Ġivory": 4476,
    "Ġlegit": 16471,
    "Ġkicked": 10582,
    "wards": 1277,
    "saturday": 14857,
    "killed": 15374,
    "Ġledgers": 23935,
    "Ġcheap": 13086,
    "Ġkeen": 4612,
    "Ġdirection": 1795,
    "Ġid": 1910,
    "Ġfresher": 23210,
    "Ġmaledictions": 26427,
    "Ġyoun": 1411,
    "Ġinternal": 2245,
    "tri": 11531,
    "Ġleviathan": 3290,
    "allions": 22191,
    "Ġpotent": 12061,
    "wheels": 14380,
    "Ġirregular": 9865,
    "Ġevangelist": 20335,
    "vember": 10856,
    "Ġburg": 23650,
    "yset": 21143,
    "anatory": 21360,
    "30": 20752,
    "Ġvapor": 8700,
    "Ġharbour": 19976,
    "Ġtartar": 17320,
    "orph": 21396,
    "Ġstrata": 26026,
    "Ġattractions": 13548,
    "Ġvoy": 2621,
    "Ġlifted": 6985,
    "degrees": 22145,
    "sus": 6228,
    "Ġencapsulate": 13672,
    "Ġpleadings": 25851,
    "Ġastr": 15492,
    "Ġexc": 1833,
    "Ġwithin": 2164,
    "memory": 13615,
    "Ġanalytical": 22911,
    "alo": 7586,
    "Ġcleansed": 26292,
    "jep": 20924,
    "¹": 122,
    "spouter": 22735,
    "remem": 13062,
    "windward": 24160,
    "Ġcasc": 15552,
    "aint": 2545,
    "elt": 4113,
    "Ġmasterless": 23992,
    "produced": 25414,
    "inclined": 10640,
    "ativeness": 15518,
    "Ġneighbors": 25805,
    "passage": 11263,
    "Ġwakeful": 24266,
    "Ġreplen": 11115,
    "Ġchimer": 24602,
    "Ġardu": 22180,
    "Ġvillagers": 19471,
    "uge": 4014,
    "Ġret": 1382,
    "queequeg": 4331,
    "bos": 17482,
    "Ġvain": 3628,
    "Ġupheld": 22148,
    "Ġcre": 888,
    "came": 4569,
    "Ġresounded": 22540,
    "Ġendured": 6072,
    "Ġunremitting": 26216,
    "Ġnature": 2542,
    "Ġprophesy": 26060,
    "Ġholiday": 12993,
    "Ġcontin": 5382,
    "Ġdistinct": 4608,
    "Ġspur": 18302,
    "Ġpercept": 14223,
    "Ġcage": 17825,
    "Ġpresentation": 14480,
    "Ġbatch": 889,
    "Ġdough": 8419,
    "²": 115,
    "Ġsteadily": 8050,
    "Ġrash": 10899,
    "Ġburly": 19248,
    "Ġcareful": 2613,
    "Ġtransport": 11280,
    "lizzy": 6651,
    "vic": 13800,
    "Ġdeactivates": 20701,
    "Ġleaders": 16626,
    "opatra": 22473,
    "angular": 11722,
    "Ġmaintained": 12929,
    "iterranean": 15546,
    "whalebone": 19117,
    "Ġburgled": 23652,
    "buried": 14848,
    "press": 1730,
    "Ġsuffusing": 23026,
    "banish": 20780,
    "Ġcontemptible": 16952,
    "Ġachieve": 3671,
    "Ġveget": 11884,
    "Ġsleeve": 20137,
    "merit": 19279,
    "Ġpilgrimage": 17306,
    "kill": 13742,
    "ared": 770,
    "Ġgrotes": 19559,
    "el": 306,
    "Ġvehemently": 26038,
    "ugn": 9378,
    "Ġsubterranean": 13609,
    "vously": 23502,
    "Ġpains": 5963,
    "university": 25982,
    "Ġopposed": 11190,
    "conce": 8509,
    "vicinity": 20476,
    "Ġ500": 24328,
    "opic": 22472,
    "Ġtie": 10751,
    "ercial": 21272,
    "esley": 17902,
    "Ġhoars": 19076,
    "Ġdow": 17886,
    "quently": 9702,
    "hip": 8741,
    "Ġendeavouring": 8033,
    "Ġwalton": 14970,
    "alarms": 21501,
    "chased": 18041,
    "Ġcringing": 25940,
    "windibank": 24161,
    "ev": 6952,
    "died": 10694,
    "Ġshiny": 14104,
    "Ġtelescope": 17346,
    "Ġtwentieth": 18658,
    "settled": 10507,
    "Ġxlvi": 25589,
    "Ġwhe": 438,
    "Ġorganize": 8992,
    "Ġtree": 5284,
    "Ġbutton": 10268,
    "Ġresent": 6048,
    "cim": 8720,
    "Ġdistribution": 2019,
    "Ġapproved": 16030,
    "Ġunwound": 25169,
    "thousands": 16871,
    "Ġven": 4647,
    "Ġmonument": 16234,
    "acks": 11787,
    "Ġsucc": 12780,
    "Ġcommunic": 5751,
    "Ġdismally": 20211,
    "arman": 11596,
    "reply": 19719,
    "unwho": 21874,
    "Ġpicturesqueness": 24480,
    "Ġbleeding": 14879,
    "Ġcerem": 7076,
    "interesting": 12198,
    "Ġeaster": 15671,
    "somehow": 12009,
    "dum": 17517,
    "Ġchallenges": 13628,
    "voices": 21115,
    "Ġencouragement": 13037,
    "Ġimplies": 24872,
    "Ġbitt": 10797,
    "Ġacknowled": 6349,
    "remarkable": 13495,
    "Ġenemy": 5605,
    "symp": 14629,
    "Ġdecapitated": 20613,
    "Ġfragmentary": 25853,
    "clothes": 9058,
    "95": 17476,
    "Ġphysiognomically": 25611,
    "Ġdoll": 10814,
    "Ġdist": 681,
    "grounds": 11152,
    "Ġcalculating": 9925,
    "elect": 20844,
    "Ġtierce": 15476,
    "look": 2261,
    "Ġquill": 12853,
    "required": 17029,
    "Ġinput": 611,
    "family": 7323,
    "Ġdemeanour": 17335,
    "idated": 11661,
    "Ġpolished": 11184,
    "Ġlaunched": 14925,
    "mb": 911,
    "tort": 17674,
    "Ġleakage": 23458,
    "Ġhighland": 18709,
    "ccas": 15882,
    "Ġsmo": 2701,
    "olen": 9700,
    "Ġterminated": 23507,
    "urpr": 2288,
    "ear": 8731,
    "Ġho": 1930,
    "beaten": 20312,
    "Ġsubordinate": 18722,
    "punishment": 15144,
    "Ġbeheaded": 11656,
    "Ġblunt": 11892,
    "Ġdistraction": 22502,
    "Ġsensitiveness": 23734,
    "Ġwave": 7574,
    "Ġpraying": 19550,
    "Ġbuttoning": 17234,
    "Ġsuff": 1304,
    "Ġpuzzled": 7316,
    "Ġtemple": 7653,
    "france": 24282,
    "screwed": 17186,
    "Ġcad": 12564,
    "Ġtransformations": 3483,
    "impetuous": 23762,
    "Ġsheets": 9722,
    "Ġmerchants": 23732,
    "Ġvote": 21944,
    "Ġtrowsers": 9628,
    "letter": 6201,
    "Ġexpl": 489,
    "darted": 20830,
    "Ġstomach": 11653,
    "cro": 13694,
    "Ġman": 544,
    "removed": 15514,
    "Ġtainted": 21168,
    "solitude": 23296,
    "Ġaloysius": 15734,
    "Ġleatherhead": 20010,
    "cess": 539,
    "ignorantly": 25189,
    "Ġabsorbed": 12328,
    "Ġepic": 15029,
    "Ġspring": 4119,
    "Ġminutest": 14560,
    "conversation": 7121,
    "Ġnewcom": 16220,
    "prove": 11148,
    "Ġconvergence": 976,
    "oqu": 7554,
    "devouring": 24949,
    "Ġheidelburgh": 11643,
    "Ġsn": 2950,
    "hatch": 15362,
    "giana": 7799,
    "Ġcot": 13875,
    "men": 1490,
    "Ġmurdered": 6463,
    "Ġpouring": 12620,
    "Ġdanger": 3518,
    "order": 1962,
    "ilburn": 18059,
    "Ġwondrously": 24061,
    "Ġinjuring": 24268,
    "Ġmutters": 23953,
    "Ġlust": 9198,
    "Ġpear": 11850,
    "chest": 11210,
    "Ġencode": 4361,
    "Ġexplain": 545,
    "Ġwedded": 16673,
    "skin": 10569,
    "type": 16173,
    "invariably": 26415,
    "Ġnook": 15925,
    "odecimoes": 25318,
    "art": 575,
    "brown": 15315,
    "Ġpiratical": 24800,
    "Ġdevoid": 18683,
    "izarre": 17387,
    "Ġlaug": 3626,
    "Ġdo": 512,
    "Ġexclude": 19040,
    "Ġvect": 1226,
    "Ġclothed": 19603,
    "Ġalleviated": 26202,
    "Ġisle": 8833,
    "Ġsaturday": 6451,
    "Ġix": 12664,
    "cement": 2712,
    "searching": 25102,
    "roads": 17957,
    "Ġslaughter": 20728,
    "Ġproductions": 22943,
    "Ġfil": 3471,
    "Ġuntoward": 19163,
    "à": 161,
    "aud": 8521,
    "Ġdeduced": 12204,
    "Ġtrans": 654,
    "haven": 20910,
    "draughts": 20384,
    "Ġjoyous": 14663,
    "armed": 7250,
    "lege": 17841,
    "j": 78,
    "few": 8202,
    "Ġfath": 7363,
    "roylott": 20023,
    "Ġcataract": 23426,
    "Ġanomalous": 25636,
    "Ġsupple": 22996,
    "Ġaloft": 4300,
    "Ġrubbed": 12950,
    "Ġmodified": 14166,
    "Ġcheck": 7270,
    "Ġwillow": 18532,
    "Ġcarcase": 14443,
    "berwell": 22718,
    "Ġfrown": 10808,
    "bab": 11470,
    "Ġcathed": 14548,
    "Ġsystematic": 5244,
    "ut": 308,
    "Ġlucases": 9010,
    "Ġslack": 8956,
    "handle": 11192,
    "cheerful": 13573,
    "Ġcriminals": 19919,
    "Ġdemanded": 8325,
    "ositories": 22260,
    "Ġisles": 8458,
    "Ġtit": 8397,
    "forbidding": 25835,
    "Ġtrip": 16787,
    "Ġhangs": 11607,
    "frequented": 25899,
    "Ġmankind": 6698,
    "bers": 2573,
    "precip": 14664,
    "teringly": 21819,
    "mmet": 10989,
    "Ġdeemed": 7611,
    "inc": 2523,
    "Ġinquisitive": 26316,
    "Ġjoppa": 12033,
    "Ġgliding": 8559,
    "Ġpastures": 23418,
    "Ġundeceive": 25552,
    "Ġsavag": 19371,
    "itan": 10160,
    "musket": 25341,
    "Ġnarwhale": 12290,
    "Ġcreaking": 14331,
    "kered": 18273,
    "Ġable": 3081,
    "named": 9890,
    "Ġchapters": 10474,
    "Ġchaplain": 19909,
    "Ġdraughts": 20218,
    "clever": 20811,
    "wind": 4250,
    "rights": 23673,
    "wl": 17701,
    "Ġriver": 5411,
    "Ġsociable": 19401,
    "explanations": 25234,
    "Ġluxuries": 25163,
    "nals": 16397,
    "Ġunworth": 22032,
    "Ġlethar": 21742,
    "Ġdictionaries": 12337,
    "Ġrain": 5005,
    "Ġthanked": 9457,
    "Ġperse": 6272,
    "Ġnoisy": 13315,
    "Ġslides": 18937,
    "entreat": 17975,
    "ization": 487,
    "Ġadoration": 18289,
    "ricity": 23060,
    "firmly": 20277,
    "Ġexisting": 12713,
    "trop": 15434,
    "Ġvow": 10247,
    "uncontrollable": 20593,
    "Ġdecorated": 22450,
    "Ġcrossing": 7252,
    "erness": 6433,
    "Ġintelligences": 12826,
    "movable": 14323,
    "Ġclattered": 22345,
    "Ġacute": 16120,
    "Ġshameful": 19848,
    "opinion": 10985,
    "Ġbedfellows": 23437,
    "Ġimmured": 24070,
    "Ġsacrificial": 24870,
    "Ġungover": 18255,
    "taffrail": 15440,
    "north": 14615,
    "Ġsally": 15500,
    "summoned": 26590,
    "atlantic": 15521,
    "azore": 23461,
    "Ġpantaloons": 20293,
    "lungs": 26134,
    "Ġjames": 6418,
    "Ġheadland": 22894,
    "Ġboots": 5941,
    "pate": 21008,
    "Ġconceit": 7294,
    "urity": 8141,
    "mortal": 10113,
    "Ġsmall": 894,
    "Ġmemo": 18119,
    "plague": 21956,
    "Ġasse": 8158,
    "Ġtid": 8105,
    "Ġflannel": 26576,
    "Ġbible": 9319,
    "lets": 7835,
    "Ġperishing": 22394,
    "Ġrelev": 1715,
    "Ġtacit": 21172,
    "quet": 6835,
    "ccarthy": 4888,
    "Ġnur": 5710,
    "Ġtravellers": 11310,
    "Ġobject": 1396,
    "Ġbanqu": 12584,
    "Ġexe": 3992,
    "horizon": 23614,
    "longer": 8613,
    "dron": 17524,
    "quit": 15758,
    "Ġarmed": 9260,
    "Ġphaet": 16315,
    "Ġsounded": 8591,
    "Ġmagnificence": 20630,
    "oda": 15745,
    "Ġkitchen": 8494,
    "Ġsecurely": 16801,
    "Ġruins": 16155,
    "Ġoceans": 7994,
    "ties": 2759,
    "Ġmuseum": 15269,
    "Ġunforgiving": 25994,
    "Ġboarding": 12083,
    "ampton": 18144,
    "Ġcoffins": 13246,
    "sequently": 14583,
    "Ġcarter": 18899,
    "Ġ}": 21151,
    "sides": 12504,
    "Ġcanst": 8858,
    "Ġfurrow": 22812,
    "Ġoarsman": 8638,
    "Ġdispatched": 23879,
    "Ġmingling": 20194,
    "lips": 13748,
    "Ġunprepared": 22046,
    "Ġswiss": 18879,
    "conf": 4957,
    "points": 14392,
    "Ġcontortions": 18475,
    "moving": 11018,
    "Ġpattered": 19030,
    "Ġunfathom": 14788,
    "adopt": 25544,
    "Ġwantest": 18788,
    "Ġunimpe": 22068,
    "Ġproceeding": 9906,
    "Ġgerm": 13962,
    "Ġthroat": 7769,
    "Ġcalves": 13030,
    "Ġceleb": 20222,
    "indul": 22366,
    "presume": 25668,
    "sion": 8092,
    "Ġnearer": 5301,
    "Ġplans": 7916,
    "Ġlit": 6246,
    "enesis": 24388,
    "Ġspringing": 10519,
    "Ġaccompl": 5167,
    "Ġwolfish": 25934,
    "arnel": 18124,
    "likelihood": 4992,
    "Ġdarted": 4758,
    "Ġenchantment": 24868,
    "Ġeleg": 6192,
    "Ġfrightens": 24027,
    "Ġutensils": 23512,
    "Ġ(âĢľ": 15992,
    "Ġmutilated": 23956,
    "Ġpoverty": 9304,
    "sighted": 19781,
    "sideways": 14571,
    "Ġreplace": 14476,
    "cles": 8726,
    "Ġstudying": 9848,
    "Ġdevelopments": 23242,
    "Ġlurked": 11293,
    "measure": 10031,
    "characteristic": 24683,
    "Ġbreaches": 14521,
    "Ġpotential": 3618,
    "Ġscanning": 18407,
    "Ġappellation": 22216,
    "Ġtow": 4393,
    "Ġpassions": 7928,
    "Ġhorizontal": 7781,
    "Ġindu": 5293,
    "stock": 13218,
    "sli": 11524,
    "Ġbigness": 19757,
    "Ġapril": 13660,
    "idean": 14262,
    "Ġ1820": 25717,
    "Ġerskine": 17430,
    "Ġpanted": 21469,
    "Ġwhich": 503,
    "ee": 1655,
    "Ġsouthampton": 24307,
    "Q": 53,
    "Ġinsurance": 23680,
    "ardy": 22152,
    "Ġfrederick": 15583,
    "Ġmantle": 25274,
    "believed": 9933,
    "Ġuns": 15833,
    "eringly": 23000,
    "Ġresistance": 13527,
    "madam": 24421,
    "»": 124,
    "Ġsult": 10768,
    "Ġcorps": 13028,
    "Ġmerciless": 25246,
    "Ġpaddington": 17094,
    "ograph": 4797,
    "Ġwast": 21856,
    "esc": 612,
    "repeating": 20125,
    "Ġexcessive": 3889,
    "value": 18804,
    "talk": 6656,
    "Ġo": 275,
    "Ġground": 2846,
    "Ġadventure": 5979,
    "Ġting": 8396,
    "Ġtroop": 24896,
    "Ġberyls": 25774,
    "Ġused": 2061,
    "Ġdesperado": 19816,
    "mindful": 19596,
    "Ġprofessed": 14723,
    "Ġexhib": 6348,
    "Ġpres": 9732,
    "Ġwhiteness": 5918,
    "idirection": 2411,
    "inquire": 16931,
    "ĠĠĠĠĠĠĠĠĠĠĠĠĠĠĠĠĠĠĠĠĠĠĠĠĠĠĠĠĠĠĠĠĠĠĠĠĠĠĠĠĠĠĠĠĠĠ": 9953,
    "heads": 4093,
    "Ġmysticetus": 24921,
    "ceive": 3064,
    "welcomed": 24644,
    "ison": 3075,
    "Ġspeechless": 13350,
    "Ġchristians": 13305,
    "Ġdifference": 1493,
    "Ġfaster": 3195,
    "Ġrumors": 11323,
    "Ġactual": 3735,
    "Ġuncontrollable": 25813,
    "pall": 17627,
    "Ġabundantly": 17155,
    "Ġchristmas": 6924,
    "Ġbackbone": 22638,
    "tiger": 13795,
    "Ġreside": 22535,
    "Ġdepl": 14042,
    "dwell": 15339,
    "Ġharshly": 25249,
    "Ġattentions": 5877,
    "Ġproviding": 1363,
    "exasper": 22423,
    "Ġlithe": 24668,
    "Ġplacid": 11825,
    "Ġdefy": 11895,
    "hus": 5072,
    "Ġcommencement": 12235,
    "Ġcease": 7075,
    "Ġobviously": 16809,
    "Ġcor": 1327,
    "Ġgover": 2460,
    "imony": 12686,
    "Ġentr": 14338,
    "Ġports": 10819,
    "eff": 2537,
    "urred": 8448,
    "Ġmisgivings": 15289,
    "Ġapt": 9156,
    "Â": 131,
    "Ġstepmother": 16086,
    "stead": 10847,
    "Ġpepper": 9781,
    "Ġexceeded": 14432,
    "Ġcausing": 16355,
    "itor": 12562,
    "relieved": 13272,
    "Ġhieroglyphics": 17301,
    "Ġrewarding": 13434,
    "Ġprotesting": 14740,
    "Ġscript": 18406,
    "goes": 10427,
    "desper": 13065,
    "Ġsalut": 10510,
    "Ġminute": 4276,
    "Ġloadstone": 25815,
    "Ġkeel": 6443,
    "Ġmar": 1312,
    "Ġforenoon": 19125,
    "Ġcoincid": 20314,
    "baked": 20777,
    "Ġtwig": 11848,
    "Ġpoising": 22587,
    "Ġundivided": 24121,
    "Ġceasing": 23756,
    "Ġtigers": 25757,
    "looked": 6083,
    "v": 90,
    "Ġaccounted": 10295,
    "Ġverses": 17062,
    "Ġresnet": 5473,
    "Ġservice": 6470,
    "oc": 2834,
    "mountain": 10714,
    "Ġhither": 4759,
    "fulfilment": 26024,
    "Ġmin": 1025,
    "hedge": 22496,
    "Ġthy": 2513,
    "Ġexecutors": 19531,
    "Ġori": 8407,
    "Ġopenshaw": 7953,
    "Ġimage": 3403,
    "Ġpregnant": 26534,
    "originally": 24936,
    "Ġgregarious": 18963,
    "rest": 1630,
    "appear": 13195,
    "Ġsentinel": 26064,
    "critters": 14783,
    "Ġaudits": 24769,
    "Ġprinc": 4196,
    "]]": 5205,
    "idity": 8831,
    "Ġtraged": 9353,
    "Ġacquainted": 5179,
    "Ġgets": 10840,
    "gies": 13724,
    "likeness": 19475,
    "Ġgraph": 10903,
    "Ġtrop": 7564,
    "fab": 13714,
    "flames": 14711,
    "Ġcordage": 19675,
    "Ġquebec": 24133,
    "Ġapothecary": 13657,
    "Ġbroiled": 18907,
    "persuade": 13530,
    "Ġeddystone": 25708,
    "Ġklan": 23661,
    "Ġdwell": 5812,
    "ted": 790,
    "eness": 2291,
    "Ġimplicated": 24874,
    "ostent": 16845,
    "Ġunmolested": 15243,
    "Ġante": 17896,
    "Ġdecorum": 16021,
    "doubted": 17525,
    "Ġprofundities": 20450,
    "instinct": 19562,
    "Ġsolely": 9910,
    "Ġgrinned": 16856,
    "Ġhoary": 23352,
    "embers": 21924,
    "mystical": 25317,
    "Ġthunders": 15634,
    "Ġpainter": 19166,
    "shud": 18480,
    "Ġtradeoff": 2658,
    "Ġentropy": 2032,
    "ements": 11109,
    "Ġgreenhorn": 23767,
    "jee": 17578,
    "ð": 177,
    "Ġtoiling": 15631,
    "Ġfacilitate": 26097,
    "coming": 3560,
    "Ġaper": 17743,
    "Ġprodu": 1204,
    "brimming": 23576,
    "Ġboon": 22633,
    "Ġsuppose": 2865,
    "Ġearly": 2079,
    "mid": 5617,
    "Ġbook": 2702,
    "Ġbackstays": 22641,
    "Ġabsent": 7014,
    "Ġperpet": 7643,
    "female": 20664,
    "tawn": 21078,
    "pray": 5429,
    "establish": 17391,
    "Ġresponded": 13636,
    "iac": 6225,
    "Ġarrayed": 25663,
    "Ġbulk": 5591,
    "Ġfrogs": 23920,
    "yours": 7693,
    "say": 3981,
    "Ġwife": 2589,
    "Ġirreducible": 5519,
    "Ġequator": 7460,
    "Ġvulgar": 13602,
    "Ġmuster": 16119,
    "Ġpartial": 2131,
    "Ġlurk": 13380,
    "Ġrubbing": 9321,
    "Ġunp": 12768,
    "nuee": 17428,
    "Ġexcell": 10418,
    "Ú": 155,
    "Ġdefinition": 14403,
    "Ġlearns": 2643,
    "unks": 15771,
    "Ġattempting": 14696,
    "Ġthough": 995,
    "whip": 22233,
    "Ġdined": 9177,
    "orus": 10802,
    "Ġanswering": 7476,
    "Ġimag": 2675,
    "Ġbiting": 17861,
    "<SOS>": 1,
    "recurring": 24194,
    "Ġspas": 10923,
    "Ġarrowy": 25469,
    "Ġbeaten": 10529,
    "Ġconvey": 9981,
    "special": 14704,
    "Ġdissect": 16050,
    "rove": 21529,
    "Ġimproper": 22730,
    "numbers": 17615,
    "Ġbutler": 18269,
    "composed": 14739,
    "Ġloving": 8174,
    "Ġblock": 2578,
    "ileries": 18058,
    "itled": 7576,
    "lonely": 20955,
    "Ġstratag": 26027,
    "barr": 15318,
    "Ġbeasts": 10618,
    "theirs": 23601,
    "Ġchose": 7412,
    "Ġbubbling": 17324,
    "Ġfinal": 5400,
    "Ġtons": 11551,
    "Ġmarchant": 14785,
    "inous": 8772,
    "Ġpraises": 16729,
    "Ġdisappo": 4505,
    "Ġrenegades": 26475,
    "Ġargemone": 24274,
    "Ġapart": 4746,
    "Ġsuperiority": 14616,
    "Ġhorn": 6185,
    "Ġleaks": 16446,
    "Ġsperma": 19049,
    "Ġdetective": 14407,
    "ate": 422,
    "Ġrequirements": 9795,
    "benevol": 12223,
    "Ġmutineer": 19415,
    "occurred": 13334,
    "Ġriding": 14092,
    "Ġexotic": 21827,
    "movement": 25577,
    "shipping": 10307,
    "apping": 5851,
    "Ġoptimal": 1857,
    "Ġdamp": 8262,
    "Ġmoderately": 22209,
    "Ġstranger": 3484,
    "99": 1897,
    "Ġarea": 14186,
    "Ġge": 1979,
    "Ġmenacing": 23105,
    "anum": 17835,
    "Ġrich": 2995,
    "Ġbye": 12734,
    "afraid": 10442,
    "Ġagents": 9766,
    "Ġthrew": 3971,
    "Ġtragedy": 10668,
    "ib": 1237,
    "Ġperceive": 6699,
    "consc": 4840,
    "ir": 379,
    "ĠĠĠĠĠĠĠĠ": 711,
    "ruck": 6848,
    "Ġunattended": 15840,
    "Ġdownwards": 8529,
    "ougher": 18275,
    "Ġsplendour": 20221,
    "@": 36,
    "confirm": 16806,
    "efficient": 2869,
    "beat": 10987,
    "Ġclubbed": 26545,
    "Ġcloudy": 19474,
    "Ġtarts": 10754,
    "ract": 927,
    "Ġlink": 8128,
    "Ġcoop": 14269,
    "Ġhonor": 5664,
    "Ġpatients": 24812,
    "Ġeconomical": 25287,
    "Ġleathern": 15050,
    "Ġroofs": 16983,
    "belled": 24033,
    "mistress": 14904,
    "Ġstumped": 24941,
    "Ġnightgown": 23129,
    "Ġvul": 10248,
    "Ġpockets": 8896,
    "ould": 428,
    "structed": 11165,
    "Ġleaned": 7606,
    "Ġseptember": 18205,
    "Ġeye": 2282,
    "orously": 8417,
    "asper": 7853,
    "Ġcogn": 11003,
    "Ġmortified": 14694,
    "Ġmeanly": 12905,
    "Ġremo": 3783,
    "run": 10722,
    "Ġmoves": 14231,
    "Ġvolume": 6769,
    "dressed": 10696,
    "slipped": 25529,
    "Ġcashier": 20195,
    "uttering": 12658,
    "poured": 17636,
    "Ġviciss": 11294,
    "erting": 17777,
    "Ġbreaks": 13180,
    "tese": 21081,
    "olent": 8153,
    "Ġvisage": 18769,
    "corpse": 24486,
    "Ġflank": 8227,
    "Ġdomains": 6611,
    "+": 15,
    "Ġintermix": 22573,
    "Ġreynolds": 10210,
    "arying": 9801,
    "mit": 4933,
    "creature": 5346,
    "skeleton": 17374,
    "Ġpaunch": 23748,
    "whispered": 20030,
    "Ġsetting": 7045,
    "direction": 17523,
    "roded": 17955,
    "Ġuncovered": 23430,
    "Ġestimation": 11220,
    "Ġbagging": 24539,
    "fates": 20856,
    "Ġhung": 4559,
    "Ġpocket": 4898,
    "irement": 18354,
    "iriously": 18171,
    "Ġgu": 1332,
    "Ġ182": 13233,
    "Ġelect": 10843,
    "dawson": 26127,
    "Ġcracks": 12017,
    "heric": 15909,
    "Ġtruth": 3321,
    "Ġquenched": 22413,
    "Ġincognita": 26550,
    "Ġplanet": 14749,
    "promise": 12247,
    "Ġ93": 24591,
    "commod": 16167,
    "Ġseap": 15811,
    "Ġhire": 21481,
    "Ġrally": 21965,
    "Ġwould": 650,
    "Ġrelaxed": 12979,
    "Ġcheerless": 16693,
    "stave": 21645,
    "Ġallured": 14111,
    "Ġunluck": 8483,
    "Ġdespise": 14665,
    "Ġterrific": 6754,
    "Ġwhom": 1832,
    "fast": 3071,
    "Ġpersonal": 7478,
    "ically": 853,
    "Ġuninhabited": 22047,
    "knows": 19170,
    "Ġtheme": 16015,
    "Ġunerringly": 18264,
    "inhab": 10758,
    "educ": 10829,
    "ange": 1017,
    "iving": 1725,
    "Ġugly": 8716,
    "ultaneous": 18581,
    "rese": 15506,
    "ruin": 22195,
    "Ġprince": 18970,
    "du": 604,
    "counter": 20275,
    "Ġsubur": 12952,
    "Ġsalutation": 12394,
    "Ġimmediately": 3366,
    "Ġmechanism": 2368,
    "Ġspasmodic": 20394,
    "Ġhelper": 24023,
    "Ġrecurrent": 1806,
    "Ġglaciers": 20170,
    "peace": 13044,
    "Ġezek": 18009,
    "Ġinfer": 7682,
    "Ġpersu": 3561,
    "boom": 19002,
    "Ġharpoon": 3615,
    "bing": 7790,
    "dignity": 15343,
    "Ġinterpre": 1589,
    "Ġluckless": 16796,
    "Ġmysteries": 11324,
    "Ġeverything": 3154,
    "evid": 11486,
    "Ġalbertus": 25647,
    "Ġgeneralize": 3100,
    "Ġcorrected": 10449,
    "ouncing": 8493,
    "Ġstraps": 19308,
    "bore": 13684,
    "Ġunicorn": 22053,
    "acqu": 4842,
    "ralian": 19597,
    "Ġaz": 9630,
    "Ġovertook": 18427,
    "Ġinquis": 19302,
    "Ġbushes": 16398,
    "Ġded": 2469,
    "Ġed": 2145,
    "Ġafrica": 12342,
    "pooh": 18797,
    "Ġdelicately": 24126,
    "Ġezekiel": 26191,
    "Ġflourishing": 25187,
    "gle": 20867,
    "vitiated": 25753,
    "Ġpomp": 12618,
    "Ġethiop": 26154,
    "Ġentry": 11027,
    "Ġpitch": 5767,
    "living": 7132,
    "Ġaqu": 17742,
    "Ġconfederate": 17352,
    "Ġrage": 5110,
    "Ġhorrible": 4905,
    "Ġrepose": 6741,
    "acit": 16077,
    "Ġspout": 3284,
    "truth": 9919,
    "stalk": 21646,
    "Ġscolded": 25472,
    "Ġlessons": 7690,
    "telling": 14439,
    "gods": 13363,
    "Ġordained": 19442,
    "Ġguardian": 14941,
    "Ġdisquiet": 18550,
    "Ġpalace": 16689,
    "Ġmatted": 22908,
    "Ġmaterials": 11290,
    "Ġostens": 25275,
    "Ġ1890": 23893,
    "mael": 6722,
    "Ġrealities": 18980,
    "spect": 3231,
    "myst": 9822,
    "Ġpicture": 4856,
    "Ġbang": 17854,
    "striving": 24669,
    "Ġgree": 7593,
    "cies": 1816,
    "Ġcrater": 16437,
    "Ġgreece": 17068,
    "valley": 16210,
    "falsehood": 25900,
    "adler": 21758,
    "Ġunconnected": 18242,
    "Ġagainst": 1698,
    "isms": 12576,
    "Ġhoping": 11105,
    "Ġshr": 4223,
    "Ġpract": 1838,
    "bitt": 17484,
    "bler": 11474,
    "Ġpushed": 5909,
    "exceedingly": 9566,
    "Ġleviathans": 8280,
    "Ġclearing": 8238,
    "Ġviewing": 19262,
    "Ġstationary": 19691,
    "Ġpeasant": 13549,
    "Ġwhittingham": 26196,
    "Ġwound": 4527,
    "Ġmalignant": 14877,
    "Ġsockets": 22084,
    "escape": 16002,
    "Ġbale": 7837,
    "Ġagonising": 25373,
    "city": 15325,
    "ā": 194,
    "Ġmurmured": 7479,
    "Ġsentence": 6187,
    "Ġdefault": 3039,
    "onsible": 22557,
    "killing": 20940,
    "Ġchurch": 4710,
    "histicated": 20899,
    "Ġspectacle": 10497,
    "Ġrefinement": 18701,
    "Ġassume": 10516,
    "Ġreveren": 13194,
    "render": 10291,
    "Ġconnectivity": 3665,
    "Ġtransf": 22467,
    "calculating": 25688,
    "any": 3339,
    "urious": 21699,
    "Ġillum": 9399,
    "Ġassid": 18943,
    "ency": 3866,
    "Ġmutual": 8294,
    "Ġdum": 10812,
    "inities": 21183,
    "Ġmingled": 12374,
    "Ġperiodically": 19492,
    "Ġsple": 21213,
    "Ġthrown": 4639,
    "ft": 908,
    "Ġforward": 1839,
    "Ġthigh": 10187,
    "binary": 20782,
    "Ġfull": 2178,
    "amiable": 14051,
    "Ġentreaties": 9036,
    "Ġassembly": 10643,
    "Ġchamounix": 14863,
    "uture": 1093,
    "Ġdro": 2771,
    "purp": 8089,
    "surface": 10531,
    "Ġimmortality": 26324,
    "Ġproportionably": 19967,
    "rival": 12738,
    "Ġoversampling": 20513,
    "bres": 11473,
    "Ġminima": 3463,
    "Ġwrapt": 24595,
    "Ġwield": 21288,
    "Ġperry": 22393,
    "icles": 17972,
    "Ġneedn": 19227,
    "instant": 8656,
    "Ġassociations": 14961,
    "farewell": 12303,
    "Ġknife": 7308,
    "Ġquadruped": 17457,
    "Ġmechan": 1183,
    "Ġasser": 6257,
    "Ġsell": 7824,
    "Ġstrangest": 14795,
    "Ġworship": 10367,
    "Ġprofession": 6207,
    "Ġpreliminaries": 25176,
    "atch": 675,
    "Ġcomprehending": 24445,
    "Ġghostliness": 24651,
    "either": 6791,
    "Ġterritories": 23843,
    "Ġrepairing": 25588,
    "lue": 8507,
    "ruded": 15905,
    "avoid": 9305,
    "Ġst": 332,
    "Ġqu": 605,
    "travelling": 24317,
    "Ġwintry": 17432,
    "Ġdiffusion": 23781,
    "Ġtransfer": 2277,
    "Ġgeography": 23370,
    "rict": 8091,
    "lit": 9606,
    "Ġhist": 2444,
    "Ġbonnet": 10656,
    "W": 59,
    "Ġsingers": 23770,
    "Ġginger": 9211,
    "asht": 4080,
    "Ġfootfalls": 25865,
    "subsided": 25829,
    "Ġmoran": 9341,
    "onic": 7826,
    "Ġstreaming": 19670,
    "Ġexhaled": 19679,
    "Ġnought": 21518,
    "Ġspurred": 22134,
    "Ġchaldee": 26233,
    "abil": 2008,
    "Ġsemblance": 20732,
    "Ġsovereign": 10062,
    "Õ": 150,
    "Ġbund": 17863,
    "employ": 10896,
    "Ġimagined": 8607,
    "Ġmodesty": 12813,
    "Ġcleanse": 24527,
    "camp": 15328,
    "ensical": 18566,
    "Ġstructures": 2720,
    "holmes": 4430,
    "Ġplight": 14280,
    "Ġrug": 16154,
    "Ġdealing": 14043,
    "Ġcats": 8980,
    "ldog": 21914,
    "regard": 7971,
    "icest": 21560,
    "ld": 385,
    "Ġmuchness": 18705,
    "sford": 5996,
    "Ġconstraints": 2742,
    "erity": 21265,
    "Ġmagnitudes": 3820,
    "Ġpedest": 14995,
    "began": 6425,
    "Ġmottled": 20676,
    "âĢĿâĢĶ": 5721,
    "Ġrebellion": 26474,
    "Ġfailed": 6671,
    "Ġsleeping": 6318,
    "term": 3756,
    "Ġbelly": 10370,
    "Ġdispleased": 18553,
    "warmly": 25025,
    "Ġpads": 21471,
    "Ġsill": 10766,
    "Ġlines": 4533,
    "Ġomit": 17815,
    "Ġdescried": 7917,
    "Ġhighlands": 22769,
    "Ġstands": 5258,
    "Ġsaloon": 24059,
    "Ġwork": 1305,
    "description": 11095,
    "Ġequinox": 25855,
    "Ġfloundering": 16247,
    "https": 11684,
    "Ġspecksnyder": 17401,
    "Ġcolleague": 17158,
    "prevent": 11794,
    "Ġhove": 17922,
    "Ġridic": 7506,
    "Ġimmutable": 17356,
    "grieved": 17315,
    "================": 3720,
    "Ġloose": 4648,
    "Ġfejee": 18353,
    "Ġunwonted": 14124,
    "cnns": 3620,
    "Ġa": 263,
    "Ġdeed": 7866,
    "event": 8075,
    "Ġdusting": 24596,
    "gh": 3798,
    "Ġsegment": 12753,
    "tuning": 1582,
    "colonel": 8283,
    "m": 81,
    "variety": 23184,
    "evening": 7088,
    "Ġdaily": 5985,
    "Ġdesolation": 12265,
    "Ġragged": 11844,
    "everywhere": 23696,
    "Ġattacks": 12201,
    "racting": 10348,
    "Ġderision": 16307,
    "Ġpainfully": 13139,
    "Ġbars": 13895,
    "ĭ": 238,
    "oundering": 11745,
    "Ġoutlined": 22316,
    "barb": 10081,
    "appears": 12057,
    "Ġdistingu": 2515,
    "Ġvital": 9243,
    "Ġbags": 24537,
    "ribute": 7225,
    "Ġbree": 5012,
    "Ġannouncing": 16753,
    "bast": 10077,
    "Ġgoney": 14545,
    "auley": 22620,
    "cal": 1118,
    "Ġdeceit": 13478,
    "Ġfeelingly": 22989,
    "decoder": 3643,
    "Ġhap": 18195,
    "--âĢĺ": 22845,
    "arled": 21439,
    "speak": 5504,
    "Ġcondemn": 13441,
    "Ġalbino": 20499,
    "Ġess": 5691,
    "Ġissue": 2311,
    "Ĕ": 213,
    "--------": 14780,
    "vable": 10133,
    "Ġunthinkingly": 26219,
    "Ġpot": 2992,
    "Ġtied": 7356,
    "Ġvoid": 14084,
    "Ġprincess": 23224,
    "hauled": 20666,
    "Ġstores": 18068,
    "ĠâĢľâĢĶ": 9734,
    "carrying": 16711,
    "follows": 24528,
    "Ġmusket": 12293,
    "Ġsurf": 19130,
    "why": 2828,
    "Ġuncivilized": 25498,
    "Ġdeveloped": 16337,
    "opened": 7911,
    "Ġsuperstition": 15054,
    "kindness": 10506,
    "tural": 21064,
    "short": 6565,
    "Ġassur": 6073,
    "azz": 8260,
    "Ġliberally": 16829,
    "Ġsine": 10764,
    "Ġdull": 6383,
    "Ġass": 1508,
    "ular": 713,
    "Ġutil": 4672,
    "Ġreproach": 9556,
    "aits": 20764,
    "Ġloo": 22106,
    "Ġacquiesced": 25493,
    "Ġcanall": 10929,
    "Ġgravel": 14100,
    "waited": 24585,
    "Ġenvironmental": 24085,
    "Ġadventurous": 16732,
    "Ġsof": 18280,
    "Ġvent": 3995,
    "ability": 716,
    "Ġuninjured": 22052,
    "Ġacquaintance": 4131,
    "im": 327,
    "Ġseer": 21949,
    "cuniary": 26378,
    "lodged": 25906,
    "Ġforth": 3462,
    "Ġdeliverer": 11948,
    "Ġtorrents": 20052,
    "Ġstubbornness": 25380,
    "Ġpredict": 674,
    "Ġconsecut": 18114,
    "Ġpondered": 15165,
    "Ġsobbed": 14136,
    "Ġtools": 11610,
    "straight": 9940,
    "Ġlessen": 14532,
    "Ġunwelcome": 12776,
    "Ġxv": 23405,
    "reproof": 25432,
    "rop": 540,
    "Ġdetermine": 3244,
    "Ġmuskets": 17055,
    "forced": 11031,
    "inople": 13827,
    "rons": 21037,
    "stir": 12669,
    "ching": 5156,
    "Ġvineyards": 25105,
    "Ġuniversally": 11997,
    "jected": 22714,
    "scenes": 16239,
    "Ġapprehensions": 13401,
    "haust": 5777,
    "âĢľâĢĺ": 1487,
    "lived": 12483,
    "Ġbut": 424,
    "attering": 7417,
    "Ġcertainty": 6734,
    "Ġheedful": 19737,
    "Ġgin": 13959,
    "Ġclapping": 14202,
    "Ġadvertised": 17246,
    "Ġlasted": 11054,
    "Ġpulverize": 23391,
    "Ġgrace": 5374,
    "listener": 24929,
    "Ġcharacteristic": 12045,
    "Ġbeneath": 3237,
    "Ġseemed": 1279,
    "Ġmot": 2987,
    "Ġmed": 3984,
    "Ġvisitors": 7983,
    "Ġperil": 5557,
    "Ġconnexion": 11456,
    "Ġmbpp": 21319,
    "Ġbrooks": 25699,
    "Ġhaz": 12751,
    "Ġnotion": 7880,
    "Ġconn": 9230,
    "Ġfaithful": 9502,
    "ives": 1412,
    "Ġrepro": 7274,
    "Ġgift": 10841,
    "que": 1143,
    "exposure": 19255,
    "Ġyer": 15730,
    "Ġcased": 21343,
    "Ġsurmised": 24918,
    "Ġimpertin": 6933,
    "Ġteaches": 18807,
    "Ġchoicest": 24220,
    "occup": 7751,
    "Ġleaf": 15719,
    "Ġflask": 3040,
    "sitting": 8385,
    "roc": 9675,
    "Ġjacket": 6488,
    "izz": 7613,
    "Ġatrocious": 21942,
    "Ġdi": 6524,
    "Ġsherry": 19448,
    "Ġpreyed": 18365,
    "Ġcanoe": 9723,
    "philosophers": 25252,
    "Ġsodden": 25535,
    "Ġcoiling": 12901,
    "Ġconjured": 25098,
    "proposal": 18745,
    "Ġtreasures": 17046,
    "loat": 8887,
    "visited": 13344,
    "neither": 9758,
    "proceeded": 25190,
    "nihil": 9852,
    "Ġdolph": 12377,
    "Ġpitiable": 9914,
    "Ġdamn": 11159,
    "Ġelapsed": 7652,
    "ushed": 2974,
    "Ġfireside": 23531,
    "Ġturing": 7565,
    "acrity": 14278,
    "Ġfigure": 4204,
    "age": 504,
    "midnight": 14901,
    "8": 28,
    "Ġmercifully": 20175,
    "wherein": 19106,
    "Ġvenerable": 9094,
    "apple": 22839,
    "Ġsentin": 16369,
    "Ġincorrupt": 19233,
    "dog": 10693,
    "Ġunaccountably": 26514,
    "Ġsinusoid": 4781,
    "love": 9294,
    "Ġchase": 3942,
    "Ġvide": 10251,
    "Ġdining": 6977,
    "Ġsuppression": 22997,
    "Ġwight": 12549,
    "blown": 25201,
    "Ġcomplexity": 1693,
    "arctic": 12606,
    "insult": 16276,
    "Ġathe": 17741,
    "Ġsignifies": 19202,
    "ital": 4817,
    "Ġintrodu": 1924,
    "borough": 20783,
    "Ġsurtout": 23464,
    "foreign": 18542,
    "Ġtrusty": 24105,
    "Ġesquimaux": 25150,
    "Ġomniscient": 20082,
    "una": 21865,
    "Ġtrampling": 25492,
    "disguise": 26305,
    "open": 7025,
    "Ġtempt": 5565,
    "_": 67,
    "Ġspacious": 18311,
    "mot": 17595,
    "Ġsmoothe": 23657,
    "Ġencourage": 10381,
    "happiness": 6468,
    "man": 1052,
    "Ġweight": 656,
    "Ġencamp": 22797,
    "Ġcrocodile": 20738,
    "Ħ": 231,
    "gallery": 24691,
    "chie": 21686,
    "innacle": 7518,
    "Ġgid": 13960,
    "asing": 5911,
    "Ġcoinc": 11002,
    "charming": 15702,
    "Ġwashed": 15761,
    "aly": 1124,
    "ah": 1834,
    "iform": 2201,
    "Ġjo": 2610,
    "mou": 10709,
    "lace": 13746,
    "cial": 2648,
    "pronounce": 25192,
    "Ġaffections": 10385,
    "um": 452,
    "Ġblows": 5971,
    "Ġadventures": 7746,
    "antled": 18286,
    "usion": 3302,
    "extrem": 18707,
    "Ġscotch": 12206,
    "Ġcoat": 4553,
    "Ġupwards": 7632,
    "Ġde": 363,
    "astrous": 15883,
    "glue": 17555,
    "Ġviolates": 3164,
    "Ġlion": 9676,
    "Ġlargely": 14285,
    "gown": 9597,
    "Ġold": 1056,
    "Ġwretch": 6377,
    "Ġacquaint": 13040,
    "Ġ6": 5141,
    "Ġcreep": 22724,
    "cloudless": 20329,
    "enjoy": 10775,
    "Ġinterrupted": 6342,
    "generous": 16567,
    "dashed": 12452,
    "real": 10150,
    "Ġfell": 1978,
    "ame": 644,
    "encoura": 15048,
    "angels": 22102,
    "instead": 14828,
    "carry": 19524,
    "respectable": 19843,
    "Ġhues": 21485,
    "with": 1297,
    "consumed": 25673,
    "deception": 22140,
    "Ġdeclare": 6614,
    "Ġrepugnance": 19085,
    "Ġfleshy": 24610,
    "alously": 15625,
    "disappo": 8985,
    "Ġsent": 1776,
    "Ġmartyr": 26359,
    "orter": 4253,
    "Ġbaron": 19332,
    "Ġpaints": 23521,
    "osal": 11758,
    "Ġtherefore": 2239,
    "Ġsunda": 13541,
    "Ġdared": 5440,
    "ĠĠĠĠĠĠĠĠĠĠĠĠĠĠĠĠĠĠĠĠĠĠĠĠĠĠĠĠĠĠĠĠĠ": 12040,
    "Ġrephrased": 26476,
    "vag": 8765,
    "Ġdong": 17887,
    "Ġinfernal": 11958,
    "Ġdivined": 19440,
    "Ġmahogany": 20575,
    "Ġfood": 5080,
    "Ġcurb": 16241,
    "historian": 25734,
    "hic": 3250,
    "Ġwrought": 11941,
    "Ġspire": 18305,
    "vative": 1476,
    "avoiding": 25236,
    "limbs": 20188,
    "alice": 3207,
    "Ġbetokened": 18794,
    "dare": 12450,
    "Ġvoice": 2190,
    "Ġcontinent": 14887,
    "Ġgaiters": 20457,
    "Ġwhen": 514,
    "Ġgrease": 26188,
    "Ġmisunderstand": 18703,
    "Ġsuccessive": 10501,
    "Ġbu": 3680,
    "Ġforeseeing": 23449,
    "hon": 6793,
    "uttural": 21585,
    "wooden": 24587,
    "Ġtestimony": 14474,
    "jets": 20926,
    "wid": 10135,
    "ada": 14009,
    "Ġsecretly": 13267,
    "lop": 20946,
    "Ġwardrobe": 17224,
    "Ġcollect": 7236,
    "uted": 7591,
    "Ġdepths": 4323,
    "Ġultimate": 12346,
    "Ġsim": 735,
    "Ġclad": 12835,
    "ority": 8416,
    "attended": 8953,
    "Ġdiscriminative": 4324,
    "saw": 5893,
    "Ġreal": 1632,
    "trained": 4237,
    "undant": 14791,
    "Ġnightfall": 23128,
    "Ġgallon": 24183,
    "Ġthank": 3789,
    "Ġstiffest": 24828,
    "hint": 12472,
    "Ġsink": 4337,
    "Ġjustinian": 22964,
    "Ġtriumphal": 24371,
    "Ġmatch": 4528,
    "dan": 17514,
    "Ġstool": 14460,
    "judgment": 16752,
    "Ġmaximizing": 3168,
    "Ġanno": 9668,
    "Ġcal": 1330,
    "Ġworked": 6583,
    "feelings": 5674,
    "Ġperemptorily": 17365,
    "onah": 3338,
    "Ġrecurred": 18976,
    "Ġguests": 12284,
    "Ġprovides": 1928,
    "uth": 3019,
    "datasets": 11945,
    "Ġhatchet": 16527,
    "Ġglue": 15670,
    "Ġbarn": 11588,
    "atics": 15520,
    "Ġfacetious": 20581,
    "Ġcomparatively": 9489,
    "Ġthrusts": 24350,
    "mere": 11851,
    "getic": 12961,
    "Ġtoss": 10185,
    "Ġcasting": 12097,
    "Ġchap": 5933,
    "became": 10515,
    "ñ": 178,
    "Ġdispose": 23877,
    "Ġtobacco": 8365,
    "Ġsluggish": 25889,
    "Ġfingertips": 24014,
    "claims": 25319,
    "moral": 14801,
    "Ġcraven": 16468,
    "Ġinfirmity": 26297,
    "Ġmonarchs": 25845,
    "Ġbefriend": 18081,
    "Ġenraged": 10245,
    "Ġspoutings": 14675,
    "Ġsays": 3559,
    "threaten": 25461,
    "alone": 10184,
    "hes": 1399,
    "rah": 8135,
    "Ġslaugh": 18936,
    "Ġformations": 18748,
    "oft": 3590,
    "goodness": 19286,
    "Ġsmoke": 4714,
    "Ġdines": 21420,
    "Ġghostly": 24650,
    "plac": 15817,
    "ĠĠĠĠ": 458,
    "Ġcaptiv": 16252,
    "formed": 2557,
    "represent": 9638,
    "Ġdictionary": 15111,
    "keenest": 25660,
    "Ġreproof": 24889,
    "Ġconsume": 12954,
    "idual": 1559,
    "complete": 15034,
    "Ġsubord": 22786,
    "Ġsavesoul": 26226,
    "Ġespe": 21153,
    "marry": 13319,
    "Ġdivers": 9666,
    "Ġaug": 6234,
    "Ġgestures": 13533,
    "Ġrushed": 4083,
    "Ġshrinking": 14804,
    "Ġalcoves": 26485,
    "Ġcarelessness": 13072,
    "Ġheightens": 24154,
    "Ġcities": 17827,
    "Ġshud": 5461,
    "Ġvult": 12748,
    "Ġextend": 18679,
    "ents": 1898,
    "contriv": 19291,
    "Ġsurrender": 16448,
    "resol": 17760,
    "riet": 18183,
    "bring": 9105,
    "Ġdeified": 18137,
    "Ġoaken": 13863,
    "gaz": 20876,
    "Ġfaintest": 24569,
    "dissatisfied": 26611,
    "Ġorgies": 18284,
    "Ġhaggerston": 26451,
    "Ġchanc": 18383,
    "Ġrings": 11698,
    "aviour": 11005,
    "Ġhazarded": 25653,
    "Ġdarts": 16767,
    "falling": 24361,
    "rect": 1598,
    "Ġineffectual": 17382,
    "national": 20996,
    "furthest": 19837,
    "Ġtresses": 21173,
    "kn": 5791,
    "Ġphilistines": 26081,
    "dogs": 25402,
    "Ġcorrectly": 9403,
    "allet": 11083,
    "Ġvenge": 5420,
    "tenham": 16318,
    "deeply": 16178,
    "wretch": 17707,
    "Ġunfit": 14786,
    "Ġseparately": 13299,
    "Ġmonkey": 8224,
    "Ġamateur": 22481,
    "cock": 12023,
    "Ġrespectability": 14484,
    "Ġseaport": 20597,
    "boxes": 16887,
    "macy": 18800,
    "Ġconfluent": 19039,
    "Ġsurrounded": 5878,
    "Ġpeddler": 24799,
    "Ġconvulsively": 25716,
    "otic": 15741,
    "displeasure": 23493,
    "Ġsuppl": 11079,
    "_)": 9102,
    "Ġyelling": 18096,
    "Ġcalifornia": 20527,
    "Ġthings": 1964,
    "Ġhug": 6979,
    "Ġbrown": 6297,
    "Ġflapped": 23009,
    "Ġtendency": 11331,
    "tes": 11530,
    "Ġchat": 6559,
    "Ġspades": 12792,
    "Ġdedicated": 19191,
    "ulled": 14054,
    "Ġdiv": 3728,
    "shad": 10981,
    "bitts": 26121,
    "Ġvagueness": 25736,
    "countenance": 6925,
    "Ġchurning": 15934,
    "Ġful": 4294,
    "Ġillustrate": 25064,
    "Ġstrasburgh": 18615,
    "pede": 19840,
    "Ġbeamed": 23721,
    "Ġreus": 8822,
    "Ġmultitud": 18746,
    "ther": 481,
    "Ġdecreasing": 2443,
    "Ġfar": 1453,
    "\",": 10679,
    "imble": 10859,
    "Ġobstinate": 11351,
    "wal": 10134,
    "ifications": 9729,
    "Ġdisagreeable": 9298,
    "Ġrevolved": 9984,
    "Ġglistening": 12362,
    "Ġdetached": 10280,
    "aciousness": 18605,
    "giv": 13720,
    "avor": 14275,
    "Ġunprecedented": 15851,
    "misery": 13340,
    "Ġvilest": 20097,
    "Ġpaling": 21459,
    "Ġtropics": 17065,
    "generosity": 23785,
    "Ġhereafter": 9330,
    "Ġsolutions": 1947,
    "mansion": 20981,
    "Ġhus": 3092,
    "Ġstolen": 14005,
    "Ġantilles": 24178,
    "Ġapparition": 8065,
    "leeward": 15209,
    "Ġcamberwell": 25350,
    "Ġgreedy": 3054,
    "Ġexcepting": 14680,
    "Ġsecond": 1893,
    "furthermore": 20000,
    "Ġplane": 11822,
    "hotel": 20046,
    "Ġconce": 3422,
    "Ġconsolation": 6208,
    "Ġbuffaloes": 25217,
    "Ġfinding": 3266,
    "perse": 15890,
    "travel": 24316,
    "Ġsubsisting": 23433,
    "harpooneer": 8689,
    "Ġvows": 15805,
    "Ġgnarled": 25165,
    "oner": 6124,
    "Ġrubber": 22784,
    "covering": 15332,
    "Ġmetropolis": 17273,
    "sham": 9757,
    "housekeeper": 24102,
    "Ġwars": 17785,
    "prepare": 20209,
    "Ġcrawl": 11377,
    "Ġfeat": 10938,
    "Ġwrath": 16314,
    "Ġmate": 3705,
    "imet": 21702,
    "Ġguitar": 16268,
    "Ġassociates": 24710,
    "rian": 10243,
    "Ġinduce": 7761,
    "antages": 7191,
    "Ġfrayed": 23250,
    "Ġcraw": 7281,
    "accompan": 11454,
    "Ġanomaly": 25635,
    "Ġseeking": 7034,
    "Ġshipw": 12974,
    "vessels": 10626,
    "Ġboot": 11837,
    "ulty": 22563,
    "amid": 12720,
    "Ġwrinkles": 8570,
    "Ġreversed": 15693,
    "Ġdelicate": 6479,
    "char": 3501,
    "Ġregrets": 18597,
    "withstanding": 8946,
    "Ġrails": 22653,
    "Ġedition": 16432,
    "Ġhumane": 11882,
    "properly": 24917,
    "ake": 749,
    "Ġwearied": 15789,
    "Ġjoking": 12832,
    "simultaneously": 19860,
    "formal": 14170,
    "Ġduchess": 4799,
    "Ġbloom": 9887,
    "Ġgrosvenor": 17416,
    "aceti": 7110,
    "Ġanecd": 20151,
    "glings": 23849,
    "carriage": 9946,
    "Ġevery": 925,
    "Ġcar": 1421,
    "ula": 2825,
    "Ġtoast": 21508,
    "Ġflattering": 13025,
    "Ġhull": 5446,
    "bucket": 17492,
    "started": 10846,
    "which": 1709,
    "Ġtash": 13818,
    "Ġhumorous": 10361,
    "Ġassuredly": 14820,
    "Ġvelv": 10620,
    "Ġincorporate": 20451,
    "nesday": 8703,
    "Ġbrewed": 23344,
    "Ġthese": 821,
    "shock": 19851,
    "ulating": 10888,
    "Ġassembled": 9236,
    "uend": 21099,
    "Ġjava": 12309,
    "Ġcos": 2209,
    "Ġpathways": 11154,
    "needles": 20311,
    "Ġstains": 21737,
    "pleasures": 24043,
    "Ġcolonies": 14374,
    "Ġbran": 5250,
    "Ġeternally": 11371,
    "iel": 11495,
    "oriental": 23720,
    "ades": 5631,
    "Ġstudents": 23228,
    "discovering": 24251,
    "Ġgrowled": 19281,
    "ers": 406,
    "Ġadvances": 12986,
    "Ġidiot": 11969,
    "Ġwant": 1117,
    "hilar": 25080,
    "Ġstupid": 7602,
    "Ġwaistcoat": 12267,
    "adamite": 20590,
    "Ġgable": 15663,
    "Ġconsternation": 9859,
    "Ġpremature": 3722,
    "Ġundergone": 18984,
    "cing": 1012,
    "Ġaccusations": 22376,
    "catch": 17505,
    "Ġtale": 5142,
    "alot": 15622,
    "interference": 23737,
    "Ġsouthwards": 19630,
    "Ġpuzz": 5533,
    "ount": 1111,
    "stairs": 5155,
    "Ġacceler": 1611,
    "Ġinsult": 6747,
    "Ġbam": 15562,
    "conscientious": 19623,
    "net": 1194,
    "Ġabusing": 18392,
    "baden": 25614,
    "Ġstrides": 22614,
    "Ġdishonor": 25600,
    "Ġreven": 18028,
    "Ġrepugn": 23361,
    "phology": 3009,
    "Ġheedless": 14902,
    "Ġoriental": 9097,
    "Ġgrammars": 11404,
    "holding": 7737,
    "verity": 13999,
    "Ġicicles": 25264,
    "Ġscared": 14191,
    "osoever": 17341,
    "Ġavalanche": 17431,
    "Ġnois": 4265,
    "Ġwet": 6517,
    "Ġaffecting": 2325,
    "breast": 11248,
    "Ġdispelling": 23878,
    "Ġorph": 9717,
    "irra": 15781,
    "pine": 13767,
    "bold": 17486,
    "ĺ": 251,
    "Ġwonderful": 4562,
    "Ġlinen": 12404,
    "Ġdyspepsia": 20641,
    "Ġcocaine": 20719,
    "Ġswords": 19894,
    "Ġdoran": 9180,
    "Ġexposes": 22621,
    "Ġrejoiced": 8684,
    "Ġdrag": 6184,
    "raised": 15675,
    "enger": 10774,
    "Ġunnearable": 26515,
    "Ġgrooves": 16740,
    "Ġscrewing": 20205,
    "jumped": 20243,
    "Ġpity": 4941,
    "horrible": 14600,
    "Ġcoco": 11001,
    "Ġ&": 6512,
    "zz": 4291,
    "Ġcomplexion": 8209,
    "Ġcurrent": 13015,
    "history": 15014,
    "charlotte": 6472,
    "ti": 8388,
    "aco": 12902,
    "sius": 13786,
    "iracle": 11246,
    "Ġunchanging": 22041,
    "grown": 10100,
    "Ġkitty": 3906,
    "connect": 1292,
    "gaze": 17556,
    "Ġdented": 17891,
    "Ġmour": 6973,
    "Ġgraze": 18226,
    "Ġanxious": 4517,
    "chop": 21684,
    "ject": 876,
    "chancing": 22915,
    "erland": 9641,
    "Ġbugs": 13646,
    "Ġsolitudes": 22883,
    "Ġpeeping": 16124,
    "Ġmediocrity": 26607,
    "Ġsnuff": 7990,
    "Ġvolat": 24144,
    "Ġdoubting": 13096,
    "Ġamusements": 16911,
    "ampled": 18881,
    "obliged": 20629,
    "Ġwhaling": 2782,
    "Ġdenied": 9001,
    "Ġsnapping": 19299,
    "Ġharsh": 9520,
    "shining": 18482,
    "ands": 21862,
    "Ġmoluccas": 25628,
    "Ġpaper": 4280,
    "Ġvis": 1073,
    "Ġlack": 17963,
    "Ġbluff": 16515,
    "Ġreference": 2569,
    "prudently": 21032,
    "Ġretrie": 10383,
    "Ġseventh": 18204,
    "Ġrules": 1918,
    "free": 8736,
    "gave": 7798,
    "ahit": 9382,
    "rene": 5379,
    "Ġconstrued": 26300,
    "Ġcroquet": 9962,
    "Ġengineering": 3026,
    "Ġirreproachable": 24916,
    "ping": 9616,
    "ancy": 4391,
    "Ġraft": 16114,
    "Ġcompacted": 23506,
    "Ġgettest": 23233,
    "vigorous": 25916,
    "Ġfools": 14481,
    "Ġgas": 8131,
    "Ġarrant": 23297,
    "Ġmisfortunes": 7040,
    "arial": 5532,
    "Ġinscriptions": 20005,
    "Ġtallow": 14776,
    "Ġclubb": 22344,
    "Ġabhorred": 9507,
    "Ġhuddled": 20296,
    "Ġbott": 3147,
    "aker": 3661,
    "Ġfocuses": 8650,
    "Ġindex": 17048,
    "mira": 20977,
    "Ġdisown": 22520,
    "Ġinvaluable": 10183,
    "savage": 15074,
    "innocence": 15182,
    "Ġeuropean": 20042,
    "Ġinstinctively": 13456,
    "Ġloungers": 24861,
    "Ġobscurely": 20185,
    "taken": 7559,
    "consequential": 26248,
    "ort": 524,
    "ria": 15794,
    "Ġmind": 1620,
    "Ġclub": 8874,
    "Ġinattention": 17931,
    "uarded": 21103,
    "³": 116,
    "abominable": 20591,
    "Ġnecessitated": 23925,
    "Ġpatience": 2795,
    "Ġbackwater": 18633,
    "brit": 19196,
    "Ġfeasible": 22207,
    "Ġdistinguishing": 16494,
    "us": 531,
    "ioning": 21505,
    "Ġwhirlpool": 20653,
    "Ġsoutherly": 23333,
    "oss": 10116,
    "breadth": 20273,
    "Ġripples": 25505,
    "Ġblocked": 19221,
    "Ġworkman": 16255,
    "Ġshouted": 5347,
    "Ġencircling": 26270,
    "Ġscience": 1601,
    "Ġeighteenth": 14753,
    "Ġbil": 15561,
    "Ġfrog": 23918,
    "Ġflushed": 13023,
    "Ġdisreputable": 22530,
    "grampus": 18617,
    "Ġ200": 19294,
    "attendants": 25495,
    "Ġglance": 4230,
    "Ġdam": 2216,
    "Ġenjoying": 11236,
    "health": 13831,
    "Ġpills": 21463,
    "Ġpout": 17906,
    "Ġburn": 3681,
    "Ġcapable": 5054,
    "Ġsuffocated": 20726,
    "hab": 1075,
    "Ġwonder": 2120,
    "inde": 17730,
    "Ġbat": 10796,
    "Ġtaste": 5524,
    "newsp": 23131,
    "Ġdischar": 11807,
    "Ġviciously": 24404,
    "Ġaerial": 21196,
    "ver": 331,
    "Ġchemical": 10411,
    "Ġcasual": 11411,
    "Ġcovariate": 2352,
    "Ġattend": 5035,
    "Ġsooty": 25814,
    "spike": 16136,
    "entieth": 17978,
    "Ġgently": 7170,
    "Ġstructure": 947,
    "Ġbedford": 7472,
    "Ġphysiogn": 12385,
    "Ġseriously": 7060,
    "society": 9972,
    "gives": 15355,
    "conclusions": 25670,
    "Ġequinoctial": 20530,
    "begging": 22493,
    "Ġassailed": 23176,
    "Ġfra": 1683,
    "Ġdevoutly": 25831,
    "lemag": 21369,
    "Ġdreaminess": 23937,
    "Ġtraps": 23077,
    "Ġtremor": 24767,
    "Ġboom": 9310,
    "Ġdropping": 7482,
    "xt": 2081,
    "Ġpopularly": 12238,
    "Ġ43": 14768,
    "Ġoutlaws": 22319,
    "Ġdiscovery": 5412,
    "Ġpow": 4637,
    "Ġhurricane": 16429,
    "where": 2093,
    "heredit": 21207,
    "Ġthin": 4344,
    "Ġdelusion": 18973,
    "Ġborder": 10170,
    "rously": 17653,
    "ipelagoes": 13669,
    "Ġaltered": 7392,
    "Ġsord": 21217,
    "repairing": 24495,
    "Ġvoyage": 3055,
    "raham": 18013,
    "Ġpauses": 14813,
    "Ġroy": 4226,
    "Ġspilling": 22133,
    "Ġclams": 19985,
    "Ġplains": 14622,
    "Ġohio": 19127,
    "honey": 20903,
    "urean": 18122,
    "bable": 8719,
    "python": 4691,
    "ni": 1671,
    "Ġmonoton": 3635,
    "Ġgeneral": 1863,
    "Ġhereby": 10359,
    "Ġsubstituting": 26325,
    "Ġcaut": 6520,
    "Ġmam": 8403,
    "Ġchast": 18379,
    "affrail": 11207,
    "Ġimpulse": 10024,
    "oned": 4630,
    "Ġnormalization": 1244,
    "blacksmith": 17000,
    "Ġbought": 8414,
    "achusetts": 20708,
    "Ġenlivened": 26206,
    "mistakable": 20651,
    "Ġsurrey": 14559,
    "Ġcontinental": 19702,
    "Ġemperor": 15157,
    "Ġpurchas": 19871,
    "mass": 12486,
    "Ġdocks": 14177,
    "burg": 16772,
    "Ġencoding": 4775,
    "lesome": 12960,
    "Ġimprisonment": 22384,
    "ó": 180,
    "inlaid": 21188,
    "Ġsample": 3176,
    "Ġwad": 13849,
    "homage": 25615,
    "lass": 5991,
    "Ġturk": 6603,
    "Ġleaky": 2348,
    "poled": 22903,
    "further": 7534,
    "Ġbells": 19598,
    "Ġhailing": 11692,
    "evinced": 19923,
    "Ġmentioning": 9899,
    "velling": 14761,
    "Ġ18": 3406,
    "Ġdrawback": 23987,
    "cence": 9589,
    "Ġreef": 10850,
    "itating": 9651,
    "Ġdesigns": 13007,
    "oding": 1464,
    "Ġabominate": 20061,
    "Ġdescent": 962,
    "on": 267,
    "amed": 4448,
    "ouch": 2779,
    "Ġsquare": 2397,
    "Ġnorton": 12645,
    "Ġrecommended": 8668,
    "Ġepisode": 26345,
    "Ġboister": 12914,
    "Ġfacing": 10172,
    "ben": 4926,
    "treacle": 25148,
    "Ġequin": 14496,
    "Ġguardianship": 17418,
    "Ġwander": 9032,
    "Ġselecting": 16683,
    "Ġyielding": 12183,
    "ellest": 21570,
    "Ġconceited": 12087,
    "Ġfundamentals": 14635,
    "Ġste": 1389,
    "Ġhats": 14618,
    "palms": 25262,
    "Ġfebruary": 15910,
    "Ġheed": 5630,
    "rederick": 14077,
    "everlasting": 18770,
    "Ġwines": 21285,
    "Ġsul": 7569,
    "Ġ48": 24079,
    "ositions": 10284,
    "rods": 21534,
    "Ġgunw": 6212,
    "dense": 18713,
    "bare": 12438,
    "much": 3703,
    "Ġdeduce": 8335,
    "Ġhappy": 2464,
    "Ġplace": 1650,
    "Ġrolling": 5973,
    "usiveness": 22279,
    "ingolstadt": 21301,
    "Ġshaping": 22000,
    "time": 3145,
    "leisure": 21368,
    "Ġtyro": 16993,
    "Ġerror": 1767,
    "Ġadvoc": 12987,
    "Ġrouse": 15818,
    "ateg": 1400,
    "Ġadvantages": 9811,
    "Ġpack": 5444,
    "admiration": 11389,
    "Ġincoherent": 17398,
    "Ġmus": 3397,
    "Ġcreditors": 20126,
    "Ġ73": 24260,
    "Ġgame": 3627,
    "Ġaccess": 9747,
    "Ġsubmerged": 11870,
    "them": 3020,
    "disappointed": 25191,
    "Ġcomparable": 24278,
    "Ġrelevance": 5184,
    "Ġlaz": 7377,
    "Ġattempts": 10491,
    "Ġtist": 21160,
    "Ġunsub": 22019,
    "dart": 20824,
    "jabez": 20931,
    "Ġpossessions": 23822,
    "Ġseizure": 21954,
    "Ġeffected": 14352,
    "Ġoverwhel": 8194,
    "Ġmorphology": 3011,
    "Ġsharper": 17178,
    "Ġboone": 11838,
    "ceiling": 21623,
    "Ġpunishment": 9956,
    "assault": 22302,
    "Ġsealed": 15812,
    "ituted": 13871,
    "cially": 3488,
    "Ġtimely": 19591,
    "Ġamber": 7026,
    "Ġsteering": 10388,
    "green": 7114,
    "Ġsubmit": 11868,
    "Ġbene": 2033,
    "Ġaromatic": 25924,
    "/`": 12426,
    "Ġbuckskin": 19948,
    "comed": 8544,
    "Ġasked": 2278,
    "Ġavenue": 13619,
    "Ġincrust": 22546,
    "Ġdistance": 3482,
    "foreseen": 14253,
    "Ġmogul": 12858,
    "Ġoppose": 16517,
    "Ġphantom": 8707,
    "Ġconvince": 14642,
    "Ġportion": 7491,
    "backpropagation": 11983,
    "rential": 22916,
    "Ġowest": 25090,
    "Ġambition": 11434,
    "~": 98,
    "Ġrecoil": 18691,
    "Ġcleaned": 23181,
    "Ġabominably": 20062,
    "Ġsmut": 22552,
    "10": 17471,
    "Ġpau": 17908,
    "Ġlaugh": 4111,
    "Ġindefinitely": 25221,
    "Ġtattoo": 7358,
    "Ġvelocity": 10621,
    "Ġgarden": 3824,
    "Ġvisited": 5946,
    "complaisance": 24810,
    "Ġ91": 24589,
    "peleg": 16292,
    "Ġvancouver": 26564,
    "Ġlighted": 7062,
    "Ġauxiliary": 26417,
    "Ġindulged": 13414,
    "Ġlimited": 23544,
    "atherine": 2597,
    "Ġscholars": 26111,
    "such": 3083,
    "omas": 12667,
    "Ġunintelligible": 26513,
    "Ġpresently": 5116,
    "lower": 8880,
    "Ġbegging": 11080,
    "Ġreiter": 21662,
    "Ġexpans": 18621,
    "Ġtalker": 23369,
    "dressing": 11483,
    "actions": 8907,
    "Ġnotions": 14097,
    "Ġengine": 1919,
    "rist": 10123,
    "Ġprogeny": 17386,
    "und": 4116,
    "bearers": 18523,
    "Ġpurchases": 24755,
    "Ġtakings": 20570,
    "Ġspoilt": 24806,
    "Ġretired": 6070,
    "acknowled": 10975,
    "ctu": 5088,
    "Ġabsurd": 7201,
    "log": 18536,
    "Ġdiscoverers": 26035,
    "Ġinquirer": 24960,
    "Ġsir": 1570,
    "Ġimmediate": 6089,
    "Ġremotest": 10052,
    "Ġbill": 4037,
    "Ġdiscrimin": 2549,
    "venor": 16097,
    "Ġafloat": 9308,
    "Ġ(`": 12849,
    "Ġcriminal": 7536,
    "Ġtags": 20569,
    "fortunately": 9449,
    "Ġancestry": 25640,
    "Ġwis": 3725,
    "throwing": 11702,
    "Ġtwelvemonth": 12174,
    "increase": 20265,
    "erranean": 9334,
    "imper": 13995,
    "inforcement": 2912,
    "remind": 23186,
    "Ġdiffered": 22712,
    "Ġmagnus": 18955,
    "stre": 5451,
    "Ġdesert": 6726,
    "Ġwatchman": 23667,
    "outer": 9669,
    "Ġremove": 7498,
    "fortune": 4975,
    "explaining": 23139,
    "solution": 14686,
    "ron": 5216,
    "six": 7140,
    "dwelt": 23869,
    "Ġliable": 14228,
    "Ġfeathers": 15118,
    "Ġmerited": 23730,
    "âĢĻâĢĶ": 12732,
    "Ġloaded": 8489,
    "unciation": 25981,
    "Ġlydia": 2375,
    "Ġtheoretically": 3565,
    "Ġben": 1108,
    "cused": 15330,
    "iss": 2177,
    "Ġthickest": 16653,
    "Ġspires": 11729,
    "Ġ85": 24460,
    "Ġoust": 21321,
    "Ġspokes": 18312,
    "Ġheave": 7598,
    "Ġideal": 13117,
    "this": 1440,
    "Ġfidget": 15188,
    "Ġboards": 14299,
    "Ġdr": 2824,
    "Ġlod": 4039,
    "reg": 2184,
    "Ġtunes": 24615,
    "Ġbended": 21382,
    "Ġcostly": 23583,
    "Ġlifetime": 13600,
    "fters": 20859,
    "Ġlofty": 6217,
    "Ġdie": 3960,
    "Ġwiping": 25764,
    "Ġtennessee": 26595,
    "amplified": 26493,
    "Ġhoneymoon": 25644,
    "erick": 13846,
    "Ġcoffee": 6760,
    "Ġsequel": 14356,
    "Ġcommon": 1416,
    "Ġyard": 5920,
    "Ġpendulous": 25954,
    "tw": 2812,
    "blows": 17164,
    "Ġgratification": 24096,
    "recur": 4437,
    "Ġhos": 4942,
    "ivation": 3109,
    "Ġshar": 9250,
    "Ġviii": 16411,
    "Ġwhisky": 23931,
    "irr": 12733,
    "Ġpugn": 21477,
    "Ġpersonified": 19176,
    "Ġstroke": 6936,
    "Ġugl": 12678,
    "Ġprivile": 8646,
    "Ġconcerning": 4065,
    "imen": 12682,
    "Ġbodily": 6106,
    "fulfil": 16033,
    "aton": 21256,
    "´": 117,
    "Ġyellowish": 24430,
    "Ġsteeply": 23723,
    "Ġrevolving": 9983,
    "tha": 15820,
    "Ġinduced": 8671,
    "Ġdiffer": 18680,
    "Ġquery": 2479,
    "helped": 18922,
    "itiously": 13869,
    "building": 17307,
    "inative": 15481,
    "Ġframed": 18998,
    "chari": 21685,
    "Ġcaptioning": 23018,
    "Ġtusks": 17252,
    "Ġform": 1023,
    "Ġchapter": 2957,
    "Ġmoth": 17802,
    "Ġrigging": 5601,
    "Ġrecess": 10848,
    "oce": 10715,
    "Ġblasphemy": 26114,
    "Ġenig": 15796,
    "Ġdrugg": 17118,
    "Ġgripping": 26185,
    "ancient": 9656,
    "Ġreached": 4020,
    "raltar": 24233,
    "Ġthreatening": 16827,
    "Ġbraz": 19355,
    "Ġgovern": 10451,
    "gloomy": 25144,
    "foolish": 12344,
    "Ġpaw": 12616,
    "Ġinex": 6527,
    "Ġhovering": 10179,
    "Ġpatentee": 25585,
    "Ġspatial": 2731,
    "dient": 440,
    "count": 4210,
    "inates": 21178,
    "bid": 5611,
    "innocent": 20283,
    "Ġb": 281,
    "Ġtypewriting": 16418,
    "h": 76,
    "remediable": 26293,
    "Ġtestified": 16320,
    "Ġbrighton": 6469,
    "Ġfare": 5809,
    "Ġintrig": 21987,
    "eon": 8730,
    "broke": 14775,
    "Ġaffront": 18786,
    "Ġpossession": 5589,
    "Ġstar": 6021,
    "Ġanger": 5442,
    "ommod": 13975,
    "Ġconstit": 8583,
    "ley": 1818,
    "retched": 3068,
    "Ġberm": 21380,
    "orough": 5700,
    "wonderful": 16958,
    "Ġlectures": 17177,
    "range": 3492,
    "Ġropes": 10749,
    "accompl": 9880,
    "min": 4570,
    "wered": 2689,
    "mult": 8748,
    "Ġbridges": 24680,
    "Ġheaviest": 23325,
    "Ġtum": 5692,
    "Ġfootman": 8286,
    "husband": 8040,
    "Ġteacher": 22912,
    "Ġrailway": 15020,
    "Ġsequence": 1977,
    "Ġhelplessly": 20074,
    "partner": 19220,
    "Ġmeets": 7395,
    "lamps": 25260,
    "Ġmerit": 9426,
    "offices": 19062,
    "mathematics": 26303,
    "Ġado": 7625,
    "neys": 23581,
    "tallow": 21083,
    "Ġconducting": 16648,
    "Ġinferences": 17934,
    "nx": 17606,
    "Ġgentlemanly": 19314,
    "draul": 9442,
    "mell": 20962,
    "Ġsource": 6805,
    ";--": 8067,
    "Ġafford": 4362,
    "comes": 5394,
    "Ġzig": 18742,
    "enchanted": 26423,
    "Ġprop": 1679,
    "sake": 13781,
    "Ġvehem": 22886,
    "icated": 7589,
    "occupation": 15056,
    "Ġmanhood": 22322,
    "brandy": 19199,
    "secut": 7865,
    "iscuits": 24666,
    "Ġprogram": 12988,
    "omet": 3076,
    "://": 11467,
    "rived": 5373,
    "Ġapologies": 25196,
    "Ġowes": 20081,
    "Ġlouisa": 13543,
    "Ġprevail": 13439,
    "Ġsprout": 24087,
    "Ġjourneying": 25564,
    "alluring": 18350,
    "Ġmistake": 6203,
    "absurd": 21791,
    "Ġcushion": 17833,
    "ouement": 21445,
    "god": 4863,
    "arms": 10174,
    "unbe": 21868,
    "Ġpreposterous": 13667,
    "itated": 4440,
    "clim": 18928,
    "Ġinhale": 20297,
    "Ġtomorrow": 21509,
    "moments": 19409,
    "Ġseren": 7400,
    "ì": 173,
    "mist": 5686,
    "igin": 3654,
    "loo": 10320,
    "nearly": 8681,
    "Ġwindlass": 7254,
    "permission": 15893,
    "eastern": 17532,
    "ader": 14010,
    "Ġunspeak": 8851,
    "Ġreputed": 18035,
    "Ġpacing": 8424,
    "ampling": 12722,
    "Ġassociate": 13447,
    "narrative": 17317,
    "bber": 4567,
    "Ġ23": 13189,
    "Ġoutlandish": 12834,
    "Ġexamined": 6333,
    "Ġquestioned": 14619,
    "dev": 7631,
    "Ġ80": 24456,
    "hued": 20909,
    "Ġburke": 19249,
    "trap": 24313,
    "Ġinferiority": 17114,
    "humored": 19450,
    "Ġspouted": 14674,
    "Ġ107": 24415,
    "warnings": 20348,
    "Ġthunder": 4823,
    "aneously": 4056,
    "Ġassoc": 6401,
    "wilful": 25085,
    "Ġadversary": 12170,
    "Ġmeanings": 18606,
    "Ġunlocked": 14119,
    "prosper": 19099,
    "Ġcannot": 1662,
    "Ġpants": 21462,
    "Ġafar": 14291,
    "Ġbench": 7237,
    "Ġlucy": 17969,
    "Ġstaying": 8282,
    "Ġsmoothed": 23658,
    "Ġstating": 15718,
    "Ġbethink": 12376,
    "advantages": 11273,
    "Ġcheerfully": 12131,
    "Ġunimportant": 22026,
    "Ġannounce": 13335,
    "Ġneck": 4885,
    "br": 2478,
    "Ġcompat": 2939,
    "excellent": 8042,
    "Ġlaughing": 5338,
    "Ġresearch": 3204,
    "Ġwitness": 4621,
    "impul": 16555,
    "Ġstall": 12692,
    "Ġplatform": 17130,
    "Ġsought": 5010,
    "Ġwee": 21915,
    "Ġelixir": 26554,
    "Ġvexation": 10587,
    "arance": 4697,
    "Ġdrink": 4787,
    "Ġoccas": 2703,
    "wel": 6117,
    "enged": 23145,
    "barbs": 20234,
    "hurried": 11355,
    "topp": 22561,
    "Ġalbert": 12702,
    "Ġmoles": 22428,
    "Ġwooded": 23517,
    "Ġeducated": 16784,
    "Ġlovers": 9720,
    "eryton": 4092,
    "yellow": 9625,
    "Ġaboard": 6697,
    "neural": 3066,
    "Ġimmensity": 25329,
    "Ġrespond": 11178,
    "marrying": 19543,
    "Ġmiles": 3801,
    "Ġwhereon": 16098,
    "Ġwhirled": 14958,
    "Ġcocoanuts": 26361,
    "itical": 5801,
    "Ġsubsisted": 19116,
    "Ġfamilies": 8025,
    "othed": 16509,
    "Ġpersecutor": 26095,
    "tied": 21068,
    "high": 6649,
    "questions": 16759,
    "Ġpam": 21451,
    "Ġbrushed": 15567,
    "Ġhereditarily": 25224,
    "Ġspanish": 2827,
    "ago": 14063,
    "Ġflann": 23010,
    "life": 4932,
    "minds": 24232,
    "model": 4718,
    "inary": 3275,
    "Ġvers": 7562,
    "inspect": 11560,
    "Ġremorse": 6440,
    "Ġproport": 2298,
    "Ġpence": 17905,
    "Ġcomplete": 4378,
    "Ġdreary": 10409,
    "Ġcarry": 4779,
    "Ġowners": 7661,
    "Ġsituated": 9446,
    "Ġchowders": 18385,
    "Ġmann": 18415,
    "Ġjudges": 14685,
    "derbyshire": 18321,
    "Ġislands": 6766,
    "Ġimitation": 22167,
    "Ġrecovered": 5481,
    "Ġchestnuts": 24381,
    "Ġstat": 1494,
    "Ġxxv": 19714,
    "Ġwidow": 8663,
    "ringle": 21038,
    "trick": 19410,
    "Ġtossed": 5815,
    "repeated": 12336,
    "Ġscent": 10289,
    "Ġsire": 15499,
    "Ġcharitable": 23269,
    "Ġpropriety": 10010,
    "Ġlap": 8435,
    "Ġnoble": 3440,
    "Ġdetest": 8499,
    "Ġcommunication": 1871,
    "Ġsemicircle": 26067,
    "itives": 17819,
    "Ġretarded": 23069,
    "surprise": 9529,
    "Ġadult": 18288,
    "Ġtransparency": 10677,
    "appin": 18757,
    "Ġconsoled": 18115,
    "escaped": 14229,
    "Ġconstruction": 9386,
    "ouncement": 11744,
    "Ġpretend": 7720,
    "Ġshould": 864,
    "Ġmeadows": 11424,
    "maid": 8552,
    "howling": 18989,
    "fare": 7797,
    "Ġwrite": 3819,
    "Ġcovers": 18589,
    "Ġunden": 22010,
    "Ġdimens": 3148,
    "Ġpersons": 6182,
    "Ġmisgiv": 14344,
    "Ġconquer": 14025,
    "Ġvesuvius": 26500,
    "Ġfastening": 16354,
    "Ġpolice": 4674,
    "Ġwindigate": 18909,
    "ubbub": 23243,
    "Ġabund": 8865,
    "Ġgenerations": 10965,
    "iness": 1282,
    "Ġcordiality": 24395,
    "Ġdesponding": 25867,
    "fth": 20854,
    "Ġuntamed": 19162,
    "Ġ89": 19709,
    "Ġlord": 2969,
    "Ġobserv": 8587,
    "Ġabrupt": 9736,
    "Ġrueful": 25580,
    "greeting": 24554,
    "latitudes": 17195,
    "sery": 17660,
    "Ġbodings": 21388,
    "recollected": 25347,
    "Ġnash": 5819,
    "Ġreneg": 21671,
    "Ġnowhere": 12882,
    "lucas": 15150,
    "Ġgeometric": 3217,
    "startled": 24940,
    "Ġwatches": 11082,
    "Ġboxed": 24360,
    "Ġaut": 1813,
    "Ġsheet": 6262,
    "Ġmes": 17796,
    "Ġbadly": 12128,
    "false": 15352,
    "birth": 15320,
    "crossing": 19408,
    "Ġsc": 533,
    "!âĢĶ": 2453,
    "Ġlabyrin": 13101,
    "seamen": 13624,
    "fat": 8077,
    "Ġnursery": 19747,
    "Ġheadache": 22896,
    "Ġ69": 19658,
    "Ġenables": 725,
    "inian": 21180,
    "Ġexposing": 11833,
    "pacific": 17640,
    "Ġproud": 5654,
    "women": 15454,
    "É": 138,
    "cast": 2929,
    "Ġceases": 19311,
    "Ġcompleted": 8998,
    "sticking": 21656,
    "Ġmarvell": 7247,
    "Ġbosom": 6939,
    "Ġsoap": 14132,
    "Ġ(_": 3734,
    "rally": 17650,
    "gu": 3954,
    "Ġreported": 11977,
    "Ġadjusting": 3412,
    "Ġresolute": 19243,
    "Ġsocial": 7007,
    "uary": 11539,
    "Ġherring": 14126,
    "Ġopium": 8995,
    "itory": 12563,
    "Ġsnugly": 17110,
    "Ġinquired": 7484,
    "mai": 22909,
    "Ġmaritime": 23035,
    "Ġbeget": 9226,
    "backs": 9390,
    "previously": 17206,
    "lected": 1634,
    "Ġgrizz": 10353,
    "Ġhimself": 1353,
    "Ġunsupplied": 22039,
    "Ġunfathomably": 25872,
    "ounders": 22391,
    "thomas": 18219,
    "Ġcarbuncle": 14444,
    "umbled": 8491,
    "Ġmemory": 2275,
    "Ġcusack": 26432,
    "charm": 13988,
    "Ġcompanionship": 14919,
    "Ġpant": 10818,
    "ective": 18174,
    "Ġvillainous": 25131,
    "Ġappears": 5402,
    "Ġreplay": 5047,
    "Ġearthly": 7988,
    "Ġulster": 14997,
    "control": 16541,
    "Ġmealy": 18120,
    "Ġpaddle": 20055,
    "Ġminor": 12963,
    "Ġdri": 2364,
    "Ġrocks": 6863,
    "seemed": 4301,
    "Ġlucas": 3830,
    "turns": 14905,
    "fully": 2203,
    "Ġproc": 5545,
    "Ġthrills": 24542,
    "star": 12668,
    "Ġscorch": 20063,
    "thickness": 25367,
    "Ġimparts": 18445,
    "Ġilluminate": 17191,
    "Ġcrowding": 13275,
    "Ġunrem": 18244,
    "opes": 10311,
    "Ġ\"": 6119,
    "Ġpained": 19165,
    "Ġpupella": 20418,
    "Ġinterior": 8895,
    "Ġassumptions": 5517,
    "Ġevaporate": 26331,
    "Ġsaville": 15886,
    "Ġpensive": 21472,
    "Ġlanded": 7468,
    "Ġcred": 8781,
    "Ġpleasures": 11144,
    "agers": 5633,
    "Ġmight": 966,
    "Ġhumour": 7930,
    "Ġstrongest": 11136,
    "Ġwhilst": 9219,
    "ys": 3957,
    "Ġhairs": 13227,
    "Ġimped": 18442,
    "Ġdecoyed": 18489,
    "autumn": 23341,
    "Ġhandsom": 11125,
    "Ġhope": 1792,
    "Ġdownright": 16115,
    "Ġvengeance": 5884,
    "conveyed": 20518,
    "Ġmiz": 10778,
    "Ġbenefited": 19395,
    "Ġhousemaid": 14463,
    "Ġmoose": 22427,
    "Ġpit": 3420,
    "Ġposter": 14274,
    "Ġmariner": 7246,
    "Ġaudio": 24771,
    "Ġsimpleton": 16331,
    "Ġmodes": 22208,
    "different": 6500,
    "Ġsights": 7471,
    "Ġeasiest": 23537,
    "dost": 14535,
    "intended": 11067,
    "spot": 9790,
    "Ġple": 1471,
    "deployment": 26526,
    "Ġplunge": 13440,
    "Ġeng": 1162,
    "perquis": 22177,
    "Ġrevelry": 15135,
    "duty": 20236,
    "exertion": 16013,
    "Ġwoll": 21291,
    "results": 20383,
    "ichron": 22162,
    "aur": 15306,
    "nels": 12492,
    "Ġschool": 5512,
    "ect": 381,
    "ering": 1267,
    "ady": 998,
    "pute": 8845,
    "Ġwhispers": 14699,
    "artic": 14213,
    "irations": 18170,
    "Ġautonom": 10416,
    "verize": 21724,
    "Ġfamed": 16324,
    "Ġapparently": 6778,
    "Ġawait": 17072,
    "Ġpurposely": 10445,
    "Ġceti": 24772,
    "resentment": 15184,
    "Ġcem": 17823,
    "Ġface": 1722,
    "Ġwarp": 8111,
    "circled": 24186,
    "Ġbubbles": 11400,
    "Ġcoron": 4464,
    "Ġworking": 5574,
    "shipmates": 11926,
    "Ġquit": 5245,
    "thirst": 15822,
    "Ġeternities": 19939,
    "Ġbreaths": 14856,
    "Ġtablets": 13152,
    "leg": 2814,
    "bushes": 24447,
    "Ġdams": 16454,
    "absolute": 17121,
    "Ġdreamy": 14702,
    "Ġcomprises": 22568,
    "confid": 14866,
    "sneezes": 11448,
    "yonder": 21142,
    "Ġderick": 9365,
    "Ġoutbreak": 22313,
    "Ġdiagon": 24738,
    "anely": 17836,
    "bones": 8370,
    "Ġdecayed": 22822,
    "Ġcharged": 9854,
    "Ġcabinet": 23859,
    "Ü": 157,
    "ext": 923,
    "stepfather": 19188,
    "Ġarticle": 9501,
    "luxur": 25821,
    "gled": 10700,
    "christ": 10211,
    "Ġmassacre": 20545,
    "console": 22462,
    "Ġinterference": 8894,
    "Ġ35": 24075,
    "Ġboats": 2638,
    "Ġthomson": 26453,
    "Ġaltogether": 4831,
    "Ġrays": 10331,
    "Ġflor": 8561,
    "Ġcountess": 11961,
    "Ġhissed": 15785,
    "Ġcasked": 24497,
    "unexpected": 15774,
    "Ġimpo": 3442,
    "Ġenough": 1762,
    "Ġmail": 17800,
    "Ġclicked": 22348,
    "Ġbust": 10168,
    "Ġguilt": 6179,
    "Ġmechanical": 7935,
    "Ġloss": 824,
    "eter": 11622,
    "Ġindulge": 10583,
    "Ġmoisture": 12356,
    "Ġstreatham": 17447,
    "uctive": 17695,
    "Ġofficers": 4424,
    "born": 7542,
    "Ġburst": 4376,
    "lynes": 15700,
    "Ġgive": 1713,
    "lan": 15375,
    "Ġscuffle": 20607,
    "Ġprevent": 755,
    "Ġem": 1923,
    "miles": 10713,
    "¼": 125,
    "Ġindian": 4129,
    "Ġbrahma": 26318,
    "Ġpattering": 18649,
    "Ġtribes": 20477,
    "Ġdrenched": 12599,
    "greatly": 16622,
    "maritime": 24172,
    "Ġyork": 11665,
    "Ġattribute": 16094,
    "Ġrans": 21963,
    "Ġdefilements": 26283,
    "Ġugliness": 20423,
    "Ġsires": 21224,
    "impatient": 13638,
    "Ġusually": 6263,
    "Ġgermans": 25783,
    "Ġlively": 5449,
    "Ġut": 2280,
    "Ġcobb": 14271,
    "Ġdriven": 6198,
    "Ġentertain": 6053,
    "russian": 22198,
    "oles": 21003,
    "Ġmaze": 23828,
    "around": 12604,
    "Ġcapering": 21351,
    "ounced": 4954,
    "Ġescorted": 23504,
    "mp": 3724,
    "esy": 9183,
    "Ġcaved": 21350,
    "Ġcin": 13873,
    "Ġtraits": 23072,
    "Ġtistig": 26412,
    "Ġwitty": 21290,
    "Ġbloodthirst": 23800,
    "Ġrushing": 7402,
    "Ġexpenses": 11834,
    "browed": 25893,
    "Ġfalsely": 20579,
    "Ġdaw": 21426,
    "Ġdemig": 20353,
    "Ġduring": 874,
    "Ġdiscount": 22776,
    "Ġglimmering": 25240,
    "flutterings": 26605,
    "Ġsog": 22080,
    "Ġimputable": 22169,
    "Ġcandour": 14672,
    "web": 18663,
    "Ġnumbers": 2888,
    "Ġbones": 4582,
    "legra": 10790,
    "Ġknots": 15008,
    "thousand": 5547,
    "Ġtasted": 12525,
    "Ġdrive": 5055,
    "Ġsplice": 19307,
    "Ġblasted": 7936,
    "Ġchart": 10946,
    "iosity": 2391,
    "Ġgratefully": 20441,
    "Ġirrevocably": 15295,
    "Ġaf": 782,
    "Ġwidest": 24234,
    "virt": 15449,
    "Ġtattooed": 11380,
    "hed": 672,
    "Ġbodies": 8030,
    "row": 1065,
    "Ġbankrupt": 16795,
    "Ġghast": 9210,
    "Ġdialogue": 12401,
    "accuracy": 9879,
    "Ġserene": 8165,
    "Ġwaterproof": 19087,
    "shoes": 14238,
    "laz": 15383,
    "precaution": 23820,
    "Ġfair": 2837,
    "Ġencounter": 6627,
    "Ġdilatory": 24703,
    "party": 8993,
    "Ġroutine": 13505,
    "arthly": 8028,
    "Ġfiftieth": 24701,
    "Ġcoburg": 18592,
    "Ġreck": 6536,
    "pinn": 21024,
    "Ġdated": 10940,
    "Ġsimpler": 2049,
    "Ġprized": 23221,
    "Ġdexterity": 25294,
    "Ġbenefit": 8291,
    "Ġphilosoph": 19648,
    "Ġoutside": 5554,
    "being": 3910,
    "coward": 13698,
    "Ġinstance": 2548,
    "Ġgeese": 7692,
    "Ġpropri": 6738,
    "Ġbenevolence": 9526,
    "Ġlug": 15648,
    "amples": 1824,
    "blue": 13691,
    "Ġalfred": 21782,
    "pred": 2802,
    "beryls": 25309,
    "Ġsale": 14154,
    "offic": 7465,
    "lovely": 16043,
    "rey": 12534,
    "spirits": 8053,
    "Ġinde": 7370,
    "Ġfasting": 16353,
    "stumps": 21655,
    "Ġimm": 3963,
    "Ġungenerous": 18265,
    "Ġsatisfaction": 5667,
    "Ġcrashes": 13122,
    "Ġeuroclydon": 15294,
    "Ġprelimin": 8861,
    "Ġplays": 12034,
    "shame": 16016,
    "Ġpitiless": 19385,
    "Ġdeclining": 23961,
    "moored": 22703,
    "leful": 17842,
    "Ġelephants": 9864,
    "wolf": 26408,
    "irc": 1729,
    "Ġpreceding": 7527,
    "spanish": 14334,
    "Ġphysical": 7521,
    "Ġomnipotent": 13545,
    "Ġappalling": 8498,
    "Ġclusters": 25232,
    "Ġcovent": 16069,
    "Ġsigma": 1543,
    "Ġyounge": 16286,
    "ression": 3405,
    "Ġislanders": 19499,
    "Ġrecognition": 3069,
    "Ġtranquillize": 24756,
    "Ġlegitimate": 20640,
    "aire": 10681,
    "Ġhesitate": 16945,
    "Ġinhaled": 25451,
    "cho": 2761,
    "hat": 6956,
    "Ġblanched": 26281,
    "okingly": 22374,
    "Ġarched": 10933,
    "istics": 1628,
    "trembling": 17141,
    "ourably": 14376,
    "Ġbrand": 16184,
    "Ġtumbling": 13824,
    "belongs": 25595,
    "incing": 15483,
    "Ġhammock": 5768,
    "descend": 23082,
    "Ġcountryside": 23595,
    "Ġwhelmed": 25998,
    "Ġoutrages": 18414,
    "Ġmeditate": 16681,
    "Ġarrive": 6907,
    "erxes": 21273,
    "smo": 10126,
    "etition": 7381,
    "pequod": 7051,
    "Ġacts": 2295,
    "increasing": 20266,
    "Ġunfolded": 10639,
    "Ġcro": 4873,
    "Ġpeered": 18667,
    "Ġenric": 21931,
    "Ġcheerfulness": 10517,
    "Ġexhausting": 24708,
    "Ġbefore": 812,
    "scissors": 20725,
    "Ġmayhap": 18706,
    "Ġenlarged": 25984,
    "Ġcane": 10928,
    "Ġshipwrecked": 25686,
    "paralleled": 14514,
    "Ġjurors": 17342,
    "Ġflames": 7938,
    "anges": 1672,
    "Ġharriet": 24572,
    "Ġhartshorn": 26179,
    "ucumber": 19059,
    "Ġrolled": 4428,
    "Ġenhancement": 23706,
    "borrowed": 20790,
    "Ġreceipt": 20352,
    "heat": 15495,
    "Ġliber": 5168,
    "Ġconjectures": 16923,
    "alleging": 23020,
    "Ġproposals": 10614,
    "arat": 9181,
    "Ġdescribing": 19252,
    "Ġferry": 24498,
    "Ġindifference": 6725,
    "loveliness": 26548,
    "Ġsmacking": 20162,
    "aper": 4999,
    "Ġtwelfth": 22674,
    "Ġrendering": 16656,
    "Ġthee": 2624,
    "Ġinser": 6820,
    "hearth": 15497,
    "ierce": 14390,
    "faces": 13718,
    "hailed": 17564,
    "Ġcongregational": 25101,
    "Ġirresolution": 24914,
    "irwin": 8467,
    "Ġthyself": 6602,
    "unconquerable": 21888,
    "Ġdisregard": 22524,
    "porpoise": 16436,
    "Ġflitting": 13022,
    "Ġscrutin": 26015,
    "twelve": 14621,
    "Ġplaguy": 22600,
    "Ġbuzz": 23994,
    "riumph": 4919,
    "Ġpeg": 22685,
    "refuge": 24732,
    "Ġpace": 9184,
    "loose": 11804,
    "Ġinsulated": 23678,
    "Ġfinancier": 26582,
    "iftings": 23225,
    "exagger": 22424,
    "Ġiter": 2954,
    "dil": 11480,
    "Ġluckily": 16797,
    "Ġunreliable": 3925,
    "garity": 17553,
    "ushes": 22277,
    "Ġwallowed": 24039,
    "Ġkicking": 16900,
    "Ġhysterical": 26091,
    "Ġinqu": 2968,
    "Ġviewed": 10464,
    "declare": 25173,
    "fisher": 7546,
    "neighboring": 20614,
    "embraced": 25803,
    "Ġbrothers": 13172,
    "Ġrepulses": 26069,
    "Ġsnuffing": 25011,
    "Ġprincipally": 11311,
    "franch": 24284,
    "naturalists": 23527,
    "anelles": 26433,
    "measureless": 20232,
    "Ġmisery": 3812,
    "Ġaffection": 2640,
    "mes": 1197,
    "Ġprim": 8242,
    "deep": 1033,
    "hair": 9123,
    "Ġsquaring": 22837,
    "]": 65,
    "Ġsnodhead": 19300,
    "Ġonto": 14026,
    "stating": 21643,
    "Ġfitly": 23996,
    "Ġnewfound": 22929,
    "Ġbulldog": 23857,
    "Ġar": 480,
    "Ġinnoc": 3792,
    "included": 19207,
    "ons": 709,
    "reputation": 15513,
    "mund": 13756,
    "Ġdick": 3495,
    "derick": 22164,
    "Ġsuccess": 3609,
    "Ġgerman": 6141,
    "Ġenable": 685,
    "adventures": 20253,
    "resides": 23670,
    "Ġgravity": 9248,
    "don": 3542,
    "untering": 15772,
    "Ġclap": 10957,
    "Ń": 260,
    "Ġmont": 8557,
    "paper": 9137,
    "ediction": 17944,
    "Ġlabour": 7273,
    "Ġkeeping": 7282,
    "Ġfrightful": 7734,
    "Ġdisgusting": 19891,
    "hecy": 21204,
    "calm": 8935,
    "talked": 14984,
    "Ġintact": 21986,
    "Ġpaternal": 16375,
    "owing": 7600,
    "Ġparametric": 2396,
    "Ġlungs": 8360,
    "Ġdressing": 7089,
    "Ġemer": 5957,
    "wanderer": 25423,
    "03": 20746,
    "Ġinjury": 10541,
    "germans": 20563,
    "Ġlapl": 19774,
    "Ġhenry": 5197,
    "Ġword": 1051,
    "Ġtoad": 21506,
    "ordingly": 18517,
    "Ġmoustache": 20480,
    "Ġgone": 2110,
    "Ġproduced": 2451,
    "!": 5,
    "Ġunstruct": 2996,
    "Ġtarshish": 12026,
    "Ġseedy": 21952,
    "Ġmarvelled": 18872,
    "Ġmeeting": 5193,
    "Ġsublimity": 26344,
    "progression": 20378,
    "Ġsubsequently": 16158,
    "Ġhardened": 14449,
    "Ġflag": 7241,
    "Ġquaff": 22410,
    "Ġsolid": 6442,
    "Ġsenate": 25214,
    "Ġgentlemanlike": 12063,
    "Ġhouse": 1506,
    "Ġsolicited": 20033,
    "Ġcatholic": 20679,
    "Ġwounds": 17790,
    "sum": 2088,
    "$": 8,
    "blasted": 20186,
    "market": 16838,
    "Ġpeaceable": 14722,
    "Ġuncomp": 15838,
    "phys": 18717,
    "Ġunjustifiable": 25108,
    "Ġindistinct": 17406,
    "colour": 9903,
    "Ġmemoirs": 26204,
    "atha": 6572,
    "Ġpeninsula": 23194,
    "Ġpoison": 7218,
    "horse": 8606,
    "Ġdevote": 10340,
    "Ġpairs": 4179,
    "Ġesq": 15107,
    "eleg": 20847,
    "merc": 19278,
    "liberal": 26280,
    "comple": 7440,
    "Ġresid": 22534,
    "arding": 22153,
    "Ġgurglings": 26464,
    "hawk": 7120,
    "clopÃ¦": 13051,
    "Ġlaborers": 19058,
    "Ġ1991": 3017,
    "sworn": 24256,
    "Ġsymbol": 7715,
    "Ġam": 660,
    "frame": 17115,
    "Ġ*/": 10374,
    "Ġjetted": 24431,
    "blame": 14793,
    "dec": 3111,
    "ice": 588,
    "Ġballasted": 23977,
    "Ġheav": 1852,
    "hanging": 10101,
    "Ġseal": 10255,
    "advent": 10221,
    "nep": 20984,
    "harbors": 20145,
    "Ġallegor": 25545,
    "extra": 8217,
    "second": 6542,
    "Ġmargin": 11918,
    "Ġthoughtfully": 12975,
    "your": 1985,
    "kitty": 10106,
    "<UNK>": 3,
    "Ġspies": 22124,
    "Ġinquest": 16546,
    "collected": 13210,
    "cruet": 17025,
    "Ġfifth": 11259,
    "right": 2769,
    "Ġcelerity": 17434,
    "Ġoblong": 14320,
    "chamber": 13623,
    "Ġmidway": 14604,
    "Ġtwos": 18656,
    "ille": 9220,
    "sit": 13778,
    "Ġfork": 15728,
    "Ġstaff": 14004,
    "Ġherein": 16188,
    "Ġsketches": 26269,
    "lished": 8381,
    "Ġaright": 11739,
    "milk": 20473,
    "Ġsentry": 19025,
    "Ġplanting": 16082,
    "Ġrushes": 20504,
    "Ġprime": 10405,
    "istic": 1016,
    "cu": 10084,
    "aths": 22698,
    "Ġhappily": 9331,
    "weaknesses": 26029,
    "Ġdecent": 10983,
    "Ġstraighten": 24001,
    "acy": 3952,
    "Ġcanallers": 13625,
    "surrounded": 26087,
    "adam": 15726,
    "Ġknocked": 9499,
    "Ġsymbolize": 24959,
    "Ġhurrah": 9869,
    "afterwards": 7483,
    "Ġonset": 12706,
    "crane": 24099,
    "reserved": 13841,
    "Ġjob": 7015,
    "Ġmouthfuls": 20644,
    "wicked": 24449,
    "Ġnarration": 13501,
    "hyp": 15364,
    "Ġsor": 4143,
    "Ġdeline": 16329,
    "Ġegyptian": 13584,
    "niest": 18994,
    "william": 4561,
    "imate": 4218,
    "Ġhim": 476,
    "stooped": 23819,
    "Ġunseen": 3522,
    "qual": 8155,
    "Ġbraced": 16578,
    "finds": 19924,
    "rador": 19157,
    "Ġscoresby": 10463,
    "affection": 7486,
    "content": 11199,
    "Ġimpet": 11778,
    "Ġconvolutional": 2165,
    "Ġpreser": 6039,
    "gay": 11490,
    "venge": 4658,
    "Ġwandering": 8653,
    "Ġchinks": 22247,
    "Ġprices": 15608,
    "Ġdistress": 5844,
    "whereby": 23416,
    "Ġdevices": 2942,
    "lengths": 24845,
    "Ġbehoo": 19034,
    "Ġresuming": 12889,
    "Ġunch": 18239,
    "Ġuntil": 2668,
    "imens": 1746,
    "Ġharpooned": 13258,
    "ified": 3225,
    "xim": 1090,
    "Ġsweetheart": 19392,
    "stone": 5089,
    "Ġclimax": 25050,
    "shells": 26055,
    "trust": 21076,
    "Ġolive": 12561,
    "Ġrepresenting": 4057,
    "Ġplainpal": 19275,
    "Ġconsciousness": 9948,
    "swell": 17662,
    "Ġenjoined": 18191,
    "Ġsavannah": 17414,
    "trade": 19633,
    "rid": 5137,
    "difficult": 10058,
    "erval": 4017,
    "missionary": 24611,
    "Ġbug": 11590,
    "Ġarri": 2556,
    "Ġchil": 11750,
    "Ġsub": 953,
    "eded": 9674,
    "Ġmundane": 26428,
    "Ġflowed": 10372,
    "Ġdisturbing": 19942,
    "Ġhysterics": 26092,
    "nameless": 19900,
    "Ġsituation": 4068,
    "Ġclutches": 20014,
    "Ġ76": 24262,
    "inating": 9154,
    "tarpaul": 21095,
    "ichever": 13955,
    "squ": 7808,
    "wandering": 20281,
    "Ġbourgh": 5069,
    "Ġflatter": 9348,
    "Ġstump": 7601,
    "superstitious": 17279,
    "Ġnarr": 5085,
    "Ġpor": 5225,
    "tracks": 19635,
    "====": 1485,
    "Ġreplaced": 13068,
    "per": 479,
    "sebastian": 21816,
    "Ġmanipulation": 10659,
    "dried": 20825,
    "rut": 8090,
    "Ġbarrels": 9435,
    "Ġgips": 10842,
    "aternity": 21263,
    "Ġmungo": 25630,
    "Ġtestament": 23208,
    "Ġempires": 19074,
    "Ġdears": 18136,
    "fancy": 7336,
    "Ġstrategies": 1841,
    "Ġmute": 19413,
    "servant": 15035,
    "Ġjail": 22280,
    "Ġdismantled": 20213,
    "Ġaccumulated": 11929,
    "bald": 16445,
    "Ġunnaturally": 24869,
    "Ġovercame": 9746,
    "Ġkind": 1785,
    "limin": 8382,
    "Ġchoosing": 19587,
    "Ġlavater": 20492,
    "aret": 7416,
    "acceler": 23597,
    "Ġklux": 22188,
    "Ġdesperation": 19815,
    "philosophy": 13578,
    "Ġperpetually": 17069,
    "Ġattempted": 7999,
    "Ġaggregate": 25676,
    "oder": 2458,
    "tru": 10730,
    "Ġexh": 5231,
    "Ġfrock": 10490,
    "Ġseconds": 16396,
    "Ġquestioning": 10465,
    "haut": 20900,
    "Ġexistence": 4705,
    "text": 1975,
    "big": 13683,
    "Ġbottom": 3672,
    "Ġwhither": 10215,
    "Ġvexed": 9994,
    "Ġmarlings": 23033,
    "Ġlovel": 10272,
    "Ġalter": 6541,
    "worship": 19384,
    "Ġstooped": 14462,
    "isp": 5528,
    "Ġeconomically": 25288,
    "Ġrallied": 14093,
    "Ġchannel": 26011,
    "andes": 18151,
    "painted": 17638,
    "Ġsuperst": 7702,
    "eskye": 21447,
    "indust": 18434,
    "insulting": 26054,
    "Ġconquered": 14024,
    "|": 96,
    "Ġremembered": 5276,
    "Ġtold": 2185,
    "Ġtrace": 6180,
    "Ġnobly": 22237,
    "hob": 20898,
    "Ġnephew": 6404,
    "duct": 3504,
    "Ġfilm": 23922,
    "Ġsuggested": 8319,
    "derstand": 657,
    "pump": 21015,
    "sacred": 17027,
    "sullen": 17668,
    "response": 25761,
    "ert": 2633,
    "Ġtuples": 13474,
    "jer": 12477,
    "ails": 6160,
    "Ġsexes": 25168,
    "imly": 12683,
    "given": 8375,
    "Ġsuffice": 18868,
    "enormous": 26165,
    "Ġtypes": 8937,
    "Ġgull": 15666,
    "edmund": 17945,
    "gans": 11491,
    "Ġperfectly": 3698,
    "Ġmichaelmas": 26373,
    "Ġrange": 9712,
    "Ġcampa": 17172,
    "Ġmax": 2007,
    "sych": 9895,
    "Ġrainbows": 19645,
    "Ġjeer": 24124,
    "Ġrigid": 16715,
    "Ġpostponed": 20386,
    "heeded": 13832,
    "wa": 5896,
    "Ġconcealment": 16912,
    "Ġdefe": 21831,
    "estation": 15916,
    "ppings": 18176,
    "Ġguido": 2979,
    "etite": 21575,
    "Ġsurvivor": 17361,
    "Ġdent": 13904,
    "Ġflea": 23772,
    "Ġdidn": 4359,
    "chastic": 2336,
    "schoolmaster": 15160,
    "ser": 1427,
    "plicable": 10257,
    "Ġsubaltern": 22789,
    "Ġsallies": 21227,
    "animate": 12573,
    "Ġconfl": 11138,
    "Ġincalcul": 16060,
    "Ġbackpropagation": 1227,
[...]
