{
  "metadata": {
    "vocab_size": 3511,
    "algorithm": "BPE",
    "created_at": "2026-04-25 20:30:23",
    "special_tokens": [
      "<PAD>",
      "<SOS>",
      "<EOS>",
      "<UNK>",
      "<MASK>"
    ]
  },
  "vocab": {
    "erful": 2669,
    "Ġredu": 1138,
    "Ġtraining": 390,
    "Ý": 158,
    "Ġimmense": 2838,
    "Ġprograms": 2551,
    "Ġmaps": 1752,
    "programming": 2693,
    "Ġpathway": 2931,
    "Ġintelligence": 501,
    "Ġansw": 2483,
    "Ġdetermine": 2001,
    "ê": 171,
    "f": 74,
    "ĠĠĠ": 3082,
    "ú": 187,
    "--": 1974,
    "Ġintegrated": 2954,
    "Ġsignal": 2907,
    "Ġfurtherm": 743,
    "Ġvia": 1388,
    "ort": 1273,
    "inforcement": 2544,
    "p": 84,
    "Ġblueprints": 3111,
    "Ġactions": 2767,
    "ac": 2662,
    "¢": 100,
    "Ġencapsulate": 3109,
    "Ġim": 864,
    "Ġguidance": 2807,
    "Ġk": 602,
    "gnition": 2386,
    "Ġhe": 1479,
    "asets": 1314,
    "rmsprop": 2290,
    "Ġcause": 2093,
    "Ġintro": 1289,
    "Ġdropout": 957,
    "word": 1709,
    "sigma": 1754,
    "Ġknowledge": 1018,
    "urons": 1842,
    "ings": 1533,
    "ies": 606,
    "cl": 2169,
    "Ġ202": 2959,
    "Ġfoun": 2250,
    "ellig": 489,
    "Ġbal": 730,
    "Ġcurvature": 2007,
    "ected": 3025,
    "training": 1452,
    "Ġdiscriminative": 2237,
    "oid": 2307,
    "Ġthrough": 465,
    "Ġdec": 466,
    "Ġcharact": 2906,
    "Ġgreat": 2218,
    "Ġded": 3384,
    "ills": 1120,
    "Ġassistants": 2825,
    "Ġensuring": 2801,
    "Ġreduces": 1331,
    "put": 377,
    "Ġsafety": 3211,
    "Ġinc": 543,
    "Ġinsights": 3010,
    "Ġbrains": 1568,
    "Ġsit": 3005,
    "ë": 172,
    "Ġacc": 829,
    "Ġpeople": 3063,
    "Ġdo": 675,
    "Ġgramm": 3022,
    "osit": 534,
    "Ġimag": 3195,
    "Ġconstrain": 1541,
    "Ġcaptioning": 3459,
    "Ġcorre": 2380,
    "Ġlo": 421,
    "su": 3364,
    "Ġneur": 380,
    "Ġarbit": 2336,
    "Ġlim": 1999,
    "Ġorgan": 1496,
    "Ġkuiperai": 2797,
    "G": 43,
    "ā": 194,
    "á": 162,
    "Ġdecomposes": 2473,
    "Ġpractical": 1993,
    "Ġselects": 2270,
    "Ġcondit": 2604,
    "://": 2846,
    "Ġspectrum": 2280,
    "Ġnovel": 2910,
    "Ġdescribes": 1858,
    "erai": 2710,
    "an": 279,
    "Ġif": 2708,
    "Ġerr": 879,
    "Ġun": 414,
    "Ġfavoring": 1358,
    "herent": 1498,
    "ices": 1728,
    "ize": 2172,
    "ioning": 3381,
    "¨": 106,
    "ys": 1455,
    "sorting": 3154,
    "Ġsupervised": 3006,
    "Ġfilters": 2119,
    "Ġexploration": 1339,
    "Ġdev": 748,
    "un": 324,
    "Ġscaling": 2044,
    "re": 269,
    "Ġdirection": 1223,
    "Ġutilize": 2345,
    "or": 274,
    "Ġvir": 2787,
    "itect": 732,
    "Ġconstraints": 1560,
    "Ġsoftmax": 1030,
    "Ġequilib": 2167,
    "seen": 2107,
    "ure": 342,
    "cur": 564,
    "Ġ**": 2320,
    "Ġmeta": 3475,
    "Ġimprove": 1624,
    "Ġdamp": 1666,
    "Ġclimate": 2798,
    "Ġgeneration": 1729,
    "ī": 236,
    "Ġautonom": 2736,
    "quest": 2788,
    "syntax": 2504,
    "Ġtarget": 2128,
    "Ġdomain": 2489,
    "Ġdefine": 3052,
    "Ġuniversal": 1362,
    "//": 2843,
    "iveness": 1650,
    "Ġsolut": 1170,
    "Ġprocedure": 1661,
    "Ġdetail": 448,
    "ether": 2532,
    "9": 29,
    "Ġsegmentation": 3186,
    "Ġspam": 2570,
    "Ġrule": 984,
    "5": 25,
    "Ġwid": 3017,
    "Ġsoftware": 3289,
    "ider": 2569,
    "fficient": 1042,
    "uracy": 2117,
    "Ġappro": 663,
    "rom": 443,
    "Ġsymbols": 1619,
    "cal": 512,
    "Ġscales": 2444,
    "Ġdetermines": 1374,
    "Ġmatrix": 981,
    "ized": 1185,
    "Ġsteepest": 1826,
    "Ġhelping": 1915,
    "Ġcumulative": 2200,
    "onically": 2085,
    "n": 82,
    "network": 1284,
    "Ġcalculate": 3304,
    "dio": 3249,
    "Ġgra": 329,
    "Ġrapid": 1117,
    "Ġprovide": 2908,
    "ands": 3275,
    "Ġconsolidation": 2415,
    "ets": 867,
    "Ġselect": 2254,
    "representativeness": 3491,
    "er": 268,
    "amet": 461,
    "Ġwords": 1118,
    "Ġalgorith": 525,
    "ĉ": 202,
    "Ġad": 399,
    "Ġsample": 1883,
    "Ġprocedural": 2932,
    "L": 48,
    "supervised": 1483,
    "ribe": 818,
    "Ġcle": 1827,
    "Ġfun": 410,
    "Ġattention": 1047,
    "Ġtests": 2615,
    "Ġvehic": 2723,
    "riate": 1294,
    "imin": 1238,
    "Ġmeasures": 780,
    "Ġperplex": 1646,
    "Ġnlp": 1811,
    "sig": 1739,
    "ention": 810,
    "Ġq": 690,
    "ood": 2286,
    "Ġtranslates": 2933,
    "Ġgeneraliz": 1829,
    "Ġclean": 3455,
    "think": 2890,
    "Ġdiminishing": 2199,
    "ª": 108,
    "º": 123,
    "Ġinstead": 2161,
    "Ġor": 404,
    "Ġpow": 2651,
    "?": 35,
    "Ġpot": 2025,
    "Ġcumul": 2185,
    "Ġco": 317,
    "Ġidentify": 3197,
    "Ġcontra": 1405,
    "cessing": 3421,
    "þ": 191,
    "Ġposit": 685,
    "ě": 220,
    "ose": 2208,
    ";": 31,
    "Ġexplain": 400,
    "Ġincreased": 1460,
    "Ġembedding": 1109,
    "etwork": 354,
    "Ġcategories": 2283,
    "Ġspeech": 2729,
    "Ġintercon": 839,
    "Ġuser": 3185,
    "Ġgraphs": 3471,
    "networks": 1407,
    "Ġpoor": 2316,
    "ß": 160,
    "Ġpipeline": 3484,
    "Ġat": 790,
    "mar": 1971,
    "Ġconstructed": 3065,
    "¿": 128,
    "Ġpenalizing": 2922,
    "explain": 922,
    "Ġrang": 2891,
    "Ġsets": 2768,
    "Ġphase": 3198,
    "Ġscal": 876,
    "Ġlayer": 647,
    "Ġorganization": 2592,
    "tual": 2759,
    "Ġthe": 296,
    "elop": 1279,
    "op": 972,
    "Ġethics": 3159,
    "Ġmusic": 2971,
    "tically": 1997,
    "user": 2438,
    "Ġtarg": 1598,
    "class": 2177,
    "algorith": 2493,
    "lex": 547,
    "Ł": 258,
    "100": 3142,
    "Ġcatastrophic": 1994,
    "eri": 909,
    "Ġminimax": 2501,
    "Ġsubs": 1286,
    "Ġspl": 2246,
    "Ġgradients": 424,
    "Ġelse": 2976,
    "Ġexploring": 2253,
    "±": 114,
    "Ġencaps": 3059,
    "Ġversion": 3180,
    "Ġrmsprop": 1921,
    "Ġgenerator": 1930,
    "ingly": 2650,
    "Ġstructure": 940,
    "fect": 2492,
    "Ġreus": 2622,
    "ree": 2584,
    "Ġreplay": 2418,
    "Ġeig": 2361,
    "when": 2302,
    "Ġcorrectly": 3066,
    "Ġvast": 2889,
    "sw": 2480,
    "Ġrelev": 1046,
    "ex": 538,
    ":": 30,
    "Ġinstance": 1771,
    "weight": 1779,
    "================================================================": 2692,
    "deoff": 1511,
    "acing": 1949,
    "Ġdedu": 3494,
    "Ġparaphras": 3454,
    "Ġachieve": 2072,
    "Ġartificial": 589,
    "describe": 936,
    "Ġequilibrium": 2168,
    "Ġd": 276,
    "Ġlife": 2963,
    "Ġproducts": 2449,
    "iv": 321,
    "iminating": 3295,
    "war": 2764,
    "ä": 165,
    "jority": 3224,
    "ain": 319,
    "Ġrepresenting": 2235,
    "Ġreve": 2157,
    "up": 516,
    "ask": 667,
    "\"],": 3479,
    "Ġaug": 3232,
    "Ġsemantics": 1678,
    "Ġisn": 3261,
    "dy": 1278,
    "Ġapplications": 2319,
    "Ġhelps": 2689,
    "ampling": 3051,
    "social": 3132,
    "$": 8,
    "Ġamounts": 2530,
    "Ġresp": 1023,
    "B": 38,
    "Ġreceiving": 2779,
    "Ġcomp": 352,
    "Ġen": 344,
    "Ġmaxim": 1854,
    "Ġmatric": 2384,
    "Ġverify": 3029,
    "ruction": 2898,
    ",": 16,
    "Ġusing": 641,
    "Ġformation": 1772,
    "on": 264,
    "Ġmain": 566,
    "Ġuse": 1130,
    "mult": 2994,
    "Ġpositive": 1391,
    "Ġdistributes": 2192,
    "ax": 508,
    "E": 41,
    "Ġgeom": 1885,
    "Ġinference": 3119,
    "umpt": 2462,
    "Ġtemp": 584,
    "Ġneuron": 528,
    "Ġwhen": 561,
    "entropy": 700,
    "Ġconstruction": 2929,
    "`": 68,
    "Ġconsist": 1245,
    "Ġweights": 593,
    "Ġaut": 1665,
    "Ġeigenvalues": 2389,
    "Ġreinforcement": 3173,
    "Ġmax": 1800,
    "Ġrefer": 3402,
    "Ġlabeled": 2054,
    "etition": 3012,
    "Ġsmooth": 1749,
    "Ġcalled": 3301,
    "Ġfollowed": 1380,
    "Ġpropagating": 3297,
    "Ġfinds": 2656,
    "reds": 2328,
    "mach": 1936,
    "Ġmaking": 1383,
    "Ġ7": 2707,
    "ich": 1197,
    "upervised": 1467,
    "/(": 1737,
    "Ġprocesses": 2039,
    "Ġweather": 2695,
    "Ġfirst": 1636,
    "Ġthreshold": 1697,
    "language": 2459,
    "Ġbenefit": 2264,
    "Ġrelu": 670,
    "Ġsignific": 2318,
    "www": 3208,
    "Ġmathem": 1912,
    "£": 101,
    "Ġgradually": 2105,
    "Ġobjects": 3061,
    "ken": 2993,
    "overfitting": 2968,
    "volutional": 1165,
    "Ġconverts": 1609,
    "kely": 2852,
    "Ġcoherent": 1908,
    "abetical": 3174,
    "Ġspec": 894,
    "alizing": 2912,
    "Ġens": 827,
    "bl": 3218,
    "wag": 3368,
    "É": 138,
    "Ġke": 1431,
    "trained": 2205,
    "ority": 3007,
    "Ġitself": 3049,
    "Ġoccur": 759,
    "Ġanalyz": 3299,
    "Ġloss": 548,
    "act": 801,
    "Ġpredictions": 899,
    "ceful": 3016,
    "Ġsetbacks": 2839,
    "Ġdimin": 2183,
    "formed": 1605,
    "denc": 1110,
    "Ġ{": 3372,
    "pl": 335,
    "Ġguide": 1957,
    "ension": 1895,
    "ement": 1581,
    "Ġshorter": 2338,
    "av": 956,
    "Ġfor": 363,
    "Ġbecome": 2558,
    "Ġpurpose": 2306,
    "text": 1201,
    "exception": 3041,
    "Ġgrows": 2407,
    "Ġpair": 2226,
    "Ġcome": 2883,
    "â": 163,
    "esc": 484,
    "Ġmach": 513,
    "Ġdefines": 1059,
    "Ġcur": 1988,
    "angement": 1603,
    "Ġrather": 1616,
    "Ġgood": 1965,
    "Ġrelevant": 1137,
    ")": 13,
    "Ġtri": 2709,
    "Ġdescribe": 1886,
    "nal": 1287,
    "ow": 372,
    "Ġperform": 688,
    "ware": 2314,
    "ers": 332,
    "Ġexample": 3253,
    "atbots": 2766,
    "Ġ-": 1169,
    "ved": 2762,
    "Ġanoth": 2879,
    "³": 116,
    "vir": 2612,
    "Ġgpus": 2059,
    "Ġcru": 2711,
    "Ġcommunication": 1176,
    "decoder": 2026,
    "Ġaccur": 3274,
    "volut": 975,
    "not": 2460,
    "Ġbeyon": 1981,
    "rictions": 3417,
    "alent": 2358,
    "ular": 629,
    "Ġregularizer": 1346,
    "Ġhistorical": 2080,
    "een": 590,
    "3": 23,
    "ultaneous": 2366,
    "max": 1027,
    "Ġchem": 3427,
    "Ġ0": 1146,
    "Ġnot": 3281,
    "~": 98,
    "Ġcovariate": 1360,
    "ph": 1562,
    "uip": 2706,
    "Ê": 139,
    "ively": 2019,
    "Ġinitialized": 2126,
    "Ġcommonly": 1955,
    "Ġresults": 2905,
    "ese": 1073,
    "H": 44,
    "Ġrules": 1175,
    "dropout": 1877,
    "Ġsolving": 1441,
    "Ġlearned": 1429,
    "ional": 479,
    "(-": 1735,
    "Ġconsider": 2571,
    "Ġrecept": 960,
    "Ġissues": 2809,
    "ality": 2051,
    "Ġuncertain": 2390,
    "rit": 2212,
    "Ġcol": 1506,
    "Ġattending": 2047,
    "Ġdistributions": 671,
    "ress": 1071,
    "Ġtokens": 1092,
    "ient": 648,
    "Ġprocess": 486,
    "Ġlists": 2961,
    "from": 3356,
    "Ġhess": 2000,
    "]": 65,
    "Ġensemb": 985,
    "Ġpartial": 1385,
    "isfaction": 3396,
    "Ġagents": 2943,
    "Ġdecreases": 1939,
    "95": 3344,
    "Ġcalculating": 2940,
    "Ġgather": 3399,
    "Ġcatast": 1989,
    "Ġwork": 2496,
    "ization": 375,
    "Ġreduce": 2581,
    "didates": 2252,
    "ange": 979,
    "h": 76,
    "sh": 1209,
    "anical": 2712,
    "rary": 2325,
    "Ġwill": 2877,
    "Ġrat": 1382,
    "Ġtransparency": 2751,
    "step": 1537,
    "Ġgeneralize": 1831,
    "orient": 1700,
    "Ġmathematical": 1935,
    "orp": 3166,
    "Ġvector": 1190,
    "ocabulary": 2378,
    "learn": 2146,
    "meaning": 1773,
    "Ġel": 2351,
    "```": 3477,
    "atch": 488,
    "likel": 2419,
    "Ġinspired": 1472,
    "Ġback": 912,
    "Ġevolved": 2808,
    "ts": 425,
    "Ġredund": 3248,
    "Ġval": 784,
    "Ġ3": 3157,
    "term": 2133,
    "Ġconnectivity": 2042,
    "Ġlogic": 3292,
    "Ġdire": 651,
    "Ġmust": 2350,
    "İ": 241,
    "erical": 2206,
    "Ġtypically": 945,
    "Ġnaturally": 1613,
    "arial": 2482,
    "Ġcompares": 3335,
    "Ġprocedures": 2690,
    "Ġiteratively": 1794,
    "else": 3019,
    "Ġmiss": 2268,
    "Ġregion": 1370,
    "Ġexcess": 2188,
    "Ġsystematic": 2472,
    "ratch": 3363,
    "Ġlinguistic": 2972,
    "Ġprob": 497,
    "Ġpositional": 1481,
    "ċ": 204,
    "Ġmechanical": 2731,
    "efit": 2244,
    "Ġconsideration": 2823,
    "Y": 61,
    "Ġres": 572,
    "gra": 552,
    "Ġbut": 1054,
    "Ġrecall": 2240,
    "ents": 959,
    "Ġreas": 1570,
    "Ġcollected": 1625,
    "Ġ19": 2590,
    "Ġsorting": 1892,
    "sy": 2399,
    "Ġrevolut": 1920,
    "sentence": 1767,
    "Ġadj": 1270,
    "iment": 2720,
    "Ġrepl": 1622,
    "Ġworking": 2950,
    "olution": 3430,
    "Ġproblem": 831,
    "ening": 1664,
    "raction": 2714,
    "Ġhappens": 1398,
    "Ġappl": 852,
    "<PAD>": 0,
    "Ġdeactivates": 3334,
    "rans": 2554,
    "Ġdist": 519,
    "Ġwe": 2568,
    "Ü": 157,
    "ē": 212,
    "Ġprodu": 1142,
    "¼": 125,
    "Ġaveraging": 1416,
    "ling": 2098,
    "Ġconvolutional": 1267,
    "Ġvan": 1763,
    "Ġweighted": 1248,
    "Ġ=": 686,
    "elf": 1288,
    "present": 803,
    "ines": 612,
    "algorithm": 2595,
    "Ġf": 286,
    "Ġmaintain": 569,
    "ĳ": 244,
    "par": 2106,
    "start": 2894,
    "Ġgrammar": 678,
    "Ġtrue": 1085,
    "tand": 620,
    "Ġexec": 2623,
    "ishing": 2195,
    "Ġsu": 604,
    "Ġhas": 2452,
    "Ġskills": 1121,
    "Ġ5": 3230,
    "etric": 1884,
    "Ġvanishing": 855,
    "Ġstrategy": 3442,
    "Ġfrom": 444,
    "Ġall": 503,
    "Ġoverwrit": 2411,
    "Ġdevice": 1171,
    "Ġlogical": 3441,
    "mming": 736,
    "Ġst": 331,
    "Ġteach": 2900,
    "Ġgenerate": 2469,
    "ilities": 3026,
    "Ġenviron": 2643,
    "ribes": 1856,
    "Ġsaturation": 1233,
    "yes": 2765,
    "Ġboth": 2299,
    "ans": 389,
    "Ġte": 504,
    "ift": 1337,
    "Ġdevelop": 1281,
    "Ġcaus": 1036,
    "Ġsens": 1759,
    "early": 3222,
    "Ġresnet": 2471,
    "Ġon": 507,
    "Ġcomputations": 3184,
    "ates": 388,
    "quence": 2038,
    "Ġdegra": 1510,
    "ish": 1041,
    "Ġdynamic": 2434,
    "Ġsentiment": 2734,
    "ific": 418,
    "Ġsolutions": 1172,
    "Ġanything": 2974,
    "Ġdifferent": 1040,
    "st": 394,
    "21": 2990,
    "arg": 539,
    "weigh": 1757,
    "Ġencouraging": 1350,
    "Ġcomb": 2158,
    "Ġstrings": 3053,
    "¡": 99,
    "Ġmakes": 2655,
    "ems": 819,
    "ar": 284,
    "Ġentity": 2739,
    "Ġsources": 3163,
    "Ġteaching": 2981,
    "Ġtechnique": 3068,
    "Ġjacobian": 1676,
    "Ġcap": 2236,
    "dw": 1928,
    "shes": 3060,
    "riving": 2179,
    "uring": 622,
    "Ġissue": 1403,
    "Ġturing": 2565,
    "Ġsensit": 1808,
    "Ġtimes": 3093,
    "Ġrescales": 2412,
    "Ġdataset": 3031,
    "č": 206,
    "Ġvisual": 2509,
    "ding": 738,
    "Ġemails": 3086,
    "Ġminimize": 2529,
    "aning": 1740,
    "Ġstand": 3122,
    "Ġbase": 2639,
    "ications": 2308,
    "abases": 1762,
    "Ġsmal": 728,
    "Ġscheduling": 1349,
    "idden": 887,
    "Ġinteraction": 2559,
    "@": 36,
    "Ġsig": 645,
    "Ġmodern": 2130,
    "Ġcreativity": 2985,
    "Ġextre": 1206,
    "Ġtype": 1253,
    "ed": 310,
    "Ġadditionally": 746,
    "ceiving": 2775,
    "top": 2760,
    "Ġnois": 674,
    "Ġrele": 1741,
    "Ġstops": 1853,
    "Ġblock": 1652,
    "Ġdates": 2578,
    "anis": 565,
    "ra": 290,
    "Ġline": 1961,
    "Ã": 132,
    "Ġjav": 3444,
    "Ġfeedback": 3447,
    "&": 10,
    "Ġexploitation": 1361,
    "Ġasking": 2915,
    "Ġaccuracy": 2193,
    "ru": 467,
    "Ġcalcul": 2162,
    "Ġbased": 1937,
    "ortional": 1461,
    "usoid": 2335,
    "ase": 2884,
    "ak": 962,
    "izer": 1220,
    "ges": 2139,
    "Ġdi": 2866,
    "Ġret": 2676,
    "Ġmachine": 595,
    "Ġiterate": 3070,
    "Ġbe": 544,
    "Ġweb": 3080,
    "Ġadapts": 2095,
    "F": 42,
    "Ġneurons": 632,
    "Ġstructured": 1732,
    "Ġrelationship": 1422,
    "Ġpairs": 2239,
    "loops": 3058,
    "ough": 2069,
    "arly": 1547,
    "ants": 1069,
    "04": 2845,
    "w": 91,
    "Ġvalid": 2918,
    "line": 1007,
    "¤": 102,
    "Ġabst": 3190,
    "Ġrobust": 1910,
    "Ĉ": 201,
    "ross": 575,
    "Ġhard": 2364,
    "Ġspa": 901,
    "eprin": 3032,
    "Ġpython": 683,
    "Ġminimiz": 990,
    "th": 373,
    "eng": 1686,
    "Ġallow": 832,
    "multiple": 3137,
    "dation": 1261,
    "Ġsimilar": 3071,
    "8": 28,
    "================": 2055,
    "tific": 562,
    "Í": 142,
    "derstand": 621,
    "resh": 1689,
    "Ġfacing": 3240,
    "###": 2097,
    "Ġo": 294,
    "ception": 2588,
    "scal": 1996,
    "Ġhistory": 2818,
    "Ġmoment": 910,
    "ı": 242,
    "ę": 218,
    "ide": 2681,
    "Ġout": 571,
    "}": 97,
    "hem": 1911,
    "memb": 2435,
    "Ġescape": 1969,
    "ate": 393,
    "Ą": 197,
    "hance": 3358,
    "Ġsuggests": 3106,
    "µ": 118,
    "ce": 298,
    "Ġinterpret": 993,
    "Ġfrequencies": 2346,
    "ppl": 850,
    "§": 105,
    "Ġdying": 1402,
    "Ġpeaked": 1357,
    "Ħ": 231,
    "Ġind": 1426,
    "ach": 598,
    "ct": 288,
    "Ġunsupervised": 2124,
    "Ġunidirectional": 1943,
    "Ġtoday": 3245,
    "rix": 980,
    "Ġdriving": 2184,
    "Ġthen": 1527,
    "Ġmitig": 843,
    "Ġdevelopment": 2591,
    "Ġgroup": 1250,
    "reduc": 2464,
    "gpt": 2456,
    "Ġforgetting": 1995,
    "Ġfact": 1588,
    "ders": 619,
    "Ġchange": 1567,
    "eigh": 437,
    "ectrum": 2277,
    "ehic": 2704,
    "ativ": 1045,
    "Ġcl": 605,
    "Ġspaces": 1880,
    "Ġpol": 3389,
    "Ġtheoretically": 2003,
    "Ġchain": 1208,
    "ting": 600,
    "Ġproposed": 2810,
    "Ġm": 281,
    "Ġoffering": 1870,
    "51": 3143,
    "Ġbetw": 614,
    "Ġcoco": 3252,
    "Ġprogra": 714,
    "Ġtransfer": 1992,
    "Ġrequiring": 1787,
    "Ġimport": 2535,
    "Ġencourages": 1231,
    "erify": 3004,
    "Ô": 149,
    "ie": 1585,
    "ract": 1691,
    "Ġcausal": 1940,
    "Ġsocial": 3467,
    "Ġsituations": 3095,
    "Ġsc": 1450,
    "Ġglobal": 1378,
    "Ġlicensing": 3331,
    "Ġmorph": 1761,
    "Ġhidden": 888,
    "Ġmake": 2453,
    "Ġvariance": 735,
    "dimens": 1333,
    "Ġunderstanding": 1399,
    "Ġquestions": 2491,
    "Ġsigns": 1610,
    "Ġsystems": 825,
    "se": 1797,
    "i": 77,
    "oring": 1188,
    "ff": 433,
    "Ġcontinue": 3056,
    "Ġsatisfaction": 3445,
    "ą": 198,
    "Ġ10": 3130,
    "Ġsm": 657,
    "Ġdl": 1929,
    "rium": 2166,
    "its": 1320,
    "Ġinput": 423,
    "Ġrep": 2675,
    "quir": 1150,
    "at": 263,
    "Ġgover": 1594,
    "û": 188,
    "ppens": 1396,
    "so": 1263,
    "Ġdiffer": 684,
    "Ġhealthcare": 2574,
    "Ġlogs": 3440,
    "antly": 2317,
    "agement": 3415,
    "com": 3187,
    "classes": 3074,
    "Ġbackpropagation": 948,
    "activ": 1874,
    "Ġtruly": 2902,
    "Ġnormalizes": 1134,
    "prop": 778,
    "Ġwrit": 2603,
    "Ġintroduces": 1906,
    "Ġtotal": 2467,
    "ec": 2546,
    "Ġg": 303,
    "Ġstr": 890,
    "Ġcalculated": 2420,
    "Ġcontrol": 3290,
    "Ġoverall": 2255,
    "blog": 3322,
    "Ġexponential": 677,
    "Ġintera": 2516,
    "í": 174,
    "Ġdiscrete": 1437,
    "functions": 3092,
    "ò": 179,
    "Ġorder": 1265,
    "Ġsignals": 2984,
    "Ġrealistic": 2502,
    "Ġenabling": 687,
    "Ġmin": 824,
    "ug": 2665,
    "build": 3485,
    "rate": 1816,
    "Ġsigmo": 1433,
    "'": 11,
    "Ġform": 939,
    "unsupervised": 2782,
    "atial": 1532,
    "Ġpoorly": 2945,
    "Ġada": 1064,
    "ties": 1839,
    "Ġlinear": 1970,
    "omics": 3424,
    "Ġconnections": 635,
    "ingle": 1204,
    "Ġaccumul": 895,
    "Ġinteractions": 3077,
    "Ġexce": 853,
    "rics": 3225,
    "Ġloops": 2627,
    "Ġir": 2463,
    "Ġsimilarity": 1881,
    "balance": 2926,
    "Î": 143,
    "Ġdiscrimin": 1476,
    "Ġsteps": 2116,
    "ction": 358,
    "Ġtim": 3002,
    "rimin": 1474,
    "Ġvect": 781,
    "Ġpen": 1076,
    "ut": 295,
    "over": 2854,
    "medium": 3488,
    "olog": 911,
    "ology": 1584,
    "Ġcollect": 3300,
    "Ġaverage": 1896,
    "R": 54,
    "ipulation": 2725,
    "ile": 473,
    "et": 293,
    "Ġdepends": 2147,
    "Ġdail": 2868,
    "om": 526,
    "dz": 2324,
    "olidation": 2409,
    "Ġlanguage": 482,
    "gative": 903,
    "level": 1540,
    "Ġvalue": 1313,
    "Ġinternal": 1312,
    "Ġal": 385,
    "fit": 874,
    "Ġcontain": 1039,
    "mpt": 1633,
    "y": 93,
    "ic": 306,
    "ap": 1907,
    "ess": 1195,
    "Ġwelcome": 2973,
    "ever": 2016,
    "dat": 1420,
    "Ġrisk": 3469,
    "Ġwas": 1712,
    "Ġoverfitting": 944,
    "ihood": 2394,
    "Ġcontext": 1157,
    "Ġreadability": 1544,
    "icy": 3404,
    "Ġra": 941,
    "Ġtext": 1384,
    "Ġbias": 760,
    "remental": 3380,
    "Ġcognitive": 3100,
    "Ġleg": 3121,
    "Ġgiven": 1330,
    "Ġarr": 1180,
    "deployment": 3420,
    "e": 73,
    "Ġblocks": 2552,
    "Ġshar": 1400,
    "Ġbecoming": 2421,
    "Ġtoo": 2114,
    "Ġrepresent": 805,
    "Ġapply": 1136,
    "english": 1777,
    "lems": 1655,
    "Ġautonomous": 2752,
    "Ġdecisions": 2520,
    "ures": 570,
    "Ġparametric": 1397,
    "ig": 318,
    "Ġproxim": 1879,
    "Ġorganize": 2637,
    "abilizing": 1696,
    "ores": 1702,
    "Ġapp": 578,
    "gh": 459,
    "Ġwav": 2777,
    "Ġadversarial": 2486,
    "Ġreco": 2362,
    "Ġunstruct": 1744,
    "Ġparameters": 636,
    "atically": 2602,
    "Ġrepositories": 3468,
    "Ġdesired": 2953,
    "Ġsensitivity": 1815,
    "am": 409,
    "tain": 549,
    "Ġanswers": 2609,
    "Ġadd": 472,
    "hell": 2851,
    "Ġmasked": 2070,
    "Ġcognit": 3020,
    "mp": 308,
    "backpropagation": 2812,
    "``": 3145,
    "Ġmade": 1604,
    "yp": 689,
    "Ġtradeoff": 1515,
    "Ġavoid": 3481,
    "Ġpromo": 1851,
    "res": 2121,
    "Ġelect": 3398,
    "Ġmasking": 1417,
    "mant": 1177,
    "etter": 1032,
    "arch": 915,
    "Ġsummar": 2029,
    "Ġnorm": 514,
    "Ġaugmentation": 3324,
    "Ġequals": 2371,
    "Ġdifficult": 2696,
    "Ġhumanity": 2803,
    "Ġfocuses": 2594,
    "Ġbenefits": 2271,
    "Ġmod": 430,
    "Ġannot": 3172,
    "af": 3112,
    "att": 515,
    "Ġspace": 1078,
    "Ġtranspar": 2726,
    "Ġautoregressive": 1948,
    "Ġmechanis": 952,
    "Ġbus": 3397,
    "Ġcategor": 2178,
    "Ġrewarding": 2977,
    "Ġsquad": 3432,
    "ni": 1561,
    "Ġpreprocessing": 3508,
    "di": 313,
    "ì": 173,
    "Ġexperi": 1056,
    "idation": 1227,
    "Ġfoundation": 2269,
    "Ġnoisier": 2304,
    "Ġdecision": 1571,
    "Ġsearch": 1746,
    "Ġnon": 1011,
    "Ġmat": 813,
    "Ġpar": 408,
    "Ġacco": 2279,
    "ives": 2228,
    "Ġnamed": 2740,
    "Ġoffer": 1850,
    "Ġno": 669,
    "Ġset": 1205,
    "Ġcreate": 1258,
    "etw": 337,
    "Ġpowerful": 2698,
    "ault": 1795,
    "Ġrecursive": 2340,
    "Ġinterpreted": 1044,
    "Ġmemory": 1536,
    "Ġdestabilizing": 2427,
    "ign": 2533,
    "ces": 376,
    "Ġimbalanced": 3315,
    "ant": 555,
    "Ġtoken": 1254,
    "lue": 3128,
    "Ġbas": 2526,
    "Ġstrategies": 1124,
    "Ġdep": 717,
    "Ġvalues": 1523,
    "Ġli": 762,
    "Ġtogether": 2015,
    "Ġcost": 1524,
    "Ġhierarchical": 1160,
    "Ġincludes": 1211,
    "Ġthink": 2671,
    "cing": 712,
    "Ġch": 626,
    "Ġdown": 2018,
    "²": 115,
    "Ġadds": 1113,
    "Ġ199": 1770,
    "Ġmark": 3329,
    "ã": 164,
    "Ġcustom": 3327,
    "Ġwh": 356,
    "Ġhell": 3409,
    "Ġheaps": 3450,
    "),": 949,
    "Ġ2": 2648,
    "neurons": 1843,
    "os": 496,
    "ð": 177,
    "cial": 2512,
    "Ġrestrictions": 3501,
    "Ġstability": 862,
    "Ġdaily": 2970,
    "Ġindicates": 1876,
    "*": 14,
    "Ġconvergence": 630,
    "Ġtask": 868,
    "ld": 2575,
    "Ġclass": 697,
    "anges": 1043,
    "uous": 969,
    "um": 392,
    "Ġtopic": 2819,
    "xav": 1630,
    "Ġprovid": 662,
    "Ġenhancement": 3507,
    "ens": 579,
    "Ġminimizing": 1964,
    "Ġzer": 698,
    "Ġquestion": 3205,
    "Ġspatial": 1538,
    "way": 2859,
    "Ġanother": 2975,
    "Ġchall": 3045,
    "Ġro": 1184,
    "Ġfuture": 2660,
    "Û": 156,
    "Ġperformance": 835,
    "Ġstatistical": 2921,
    "Õ": 150,
    "[": 63,
    "source": 3062,
    "gg": 2074,
    "Ġdesc": 610,
    "Ġright": 3267,
    "sample": 2996,
    "Ġrole": 3293,
    "Ġdesign": 2640,
    "Ġper": 546,
    "Ġeff": 583,
    "Ġprop": 1393,
    "Ġnewton": 2005,
    "Ġby": 368,
    "antization": 3277,
    "net": 1898,
    "Ġdocumentation": 3321,
    "Ġkl": 1572,
    "ivacy": 3408,
    "Ġcover": 2207,
    "Ġinsp": 1471,
    "ian": 1986,
    "Ġproportional": 1462,
    "Ġcolle": 2691,
    "Ġsaf": 3164,
    "curacy": 2703,
    "#": 7,
    "Ġnav": 2715,
    "mputer": 1520,
    "Ġmus": 2870,
    "Ġdecomp": 2091,
    "Ġprotection": 3505,
    "artificial": 2112,
    "ilize": 2334,
    "v": 90,
    "Ġfixed": 2367,
    "ĺ": 251,
    "Ġspecialized": 2118,
    "ensing": 3279,
    "ô": 181,
    "Ġskip": 1127,
    "Ġstabilizing": 2036,
    "Ġfunctional": 1801,
    "chology": 2780,
    "ci": 3351,
    "Ġregression": 2274,
    "formal": 3125,
    "Ġcalculates": 2939,
    "Ġpast": 1667,
    "Ï": 144,
    "Ġassign": 2942,
    "mology": 3152,
    "Ġle": 323,
    "making": 1582,
    "range": 1976,
    "Ġexponentially": 897,
    "elligence": 494,
    "Ð": 145,
    "Ġthous": 3234,
    "Ġpredicts": 1482,
    "Ġwarmup": 2120,
    "and": 492,
    "·": 120,
    "Ġapplies": 3286,
    "atively": 1792,
    "Ġnext": 2586,
    "Ġconver": 576,
    "Ġmim": 1849,
    "Ġlarger": 902,
    "ths": 3265,
    "Ġaccoun": 2285,
    "Ġdecrease": 2194,
    "ggle": 2143,
    "Ġcheck": 2684,
    "Ġchallenges": 3107,
    "Ġbetter": 1033,
    "ode": 2190,
    "Ġinstructing": 1860,
    "Ġbefore": 1552,
    "Ġquest": 2458,
    "sum": 1639,
    "ver": 369,
    "d": 72,
    "ell": 419,
    "Ġpro": 316,
    "Ġit": 460,
    "Ġexpon": 628,
    "ç": 168,
    "Ġactivation": 603,
    "Ġrequire": 1152,
    "gramming": 2683,
    "Ġpop": 3167,
    "data": 2448,
    "lu": 474,
    "gr": 2547,
    "Ġencode": 2258,
    "uid": 1225,
    "ulate": 3027,
    "Ġhowever": 2020,
    "Ġrandom": 986,
    "Ġproduced": 1614,
    "Ġvision": 2272,
    "deep": 2542,
    "ogue": 3436,
    "Ġdistingu": 1692,
    "Ġhand": 1894,
    "**": 2310,
    "Ġgreater": 2422,
    "ds": 2204,
    "atist": 1016,
    "Ď": 207,
    "alle": 889,
    "'(": 1734,
    "Ġscale": 1963,
    "Ġthey": 1786,
    "Ġau": 3114,
    "Ġlarge": 822,
    "Ġrange": 2892,
    "Ġindividual": 3096,
    "erv": 821,
    "z": 94,
    "Ġrewar": 2881,
    "Ġdoing": 2911,
    "Ġstrong": 1647,
    "epest": 1819,
    "Ġidentifies": 2930,
    "diversity": 3504,
    "transform": 2573,
    "Ġpositions": 1235,
    "Ġfalse": 2620,
    "olut": 716,
    "Ġcoefficient": 1670,
    "Ġenergy": 1620,
    "ist": 422,
    "Ġfew": 1931,
    "Ġgame": 2507,
    "Ġenvironment": 2827,
    "xt": 1272,
    "sequence": 2046,
    "Ġjacobi": 1149,
    "Ġsimultaneously": 2377,
    "Ġdeep": 708,
    "Ġduring": 633,
    "ined": 1685,
    "Ġreleased": 1778,
    "Ġdemo": 3177,
    "Ġunivers": 1341,
    "Ġextracts": 3308,
    "Ġhellaswag": 3506,
    "Ġearly": 1579,
    "Ġinterconnected": 840,
    "Ġmore": 1421,
    "yz": 3229,
    "Ġsp": 477,
    "ify": 2679,
    "requirements": 3492,
    "lected": 1191,
    "scale": 2008,
    "Ò": 147,
    "ally": 2076,
    "to": 1629,
    "Ġwithout": 1590,
    "Ġrequirements": 2686,
    "Ö": 151,
    "Ġshift": 1345,
    "Ġimages": 991,
    "art": 2135,
    "Ġbusiness": 3500,
    "ults": 2887,
    "py": 3362,
    "Ġmachines": 1075,
    "erg": 1569,
    "Ġover": 523,
    "gener": 2154,
    "½": 126,
    "Ġenerg": 1602,
    "Ġinject": 1548,
    "Ì": 141,
    "Ġbugs": 3098,
    "Ġlarg": 588,
    "ated": 1203,
    "Ġmany": 1269,
    "Ġachieves": 2260,
    "Ġalso": 1293,
    "Ġcovari": 1334,
    "Ġbalance": 1215,
    "Æ": 135,
    "nitu": 1062,
    "ysis": 1513,
    "Ġuseful": 2197,
    "Ġdeterm": 907,
    "oun": 2245,
    "Ġsimple": 1087,
    "Ġhypotheses": 2265,
    "Ġbeings": 1608,
    "Ġunexp": 3033,
    "in": 261,
    "Ġasks": 2443,
    "Ġreferences": 3502,
    "our": 1627,
    "Ġunderstand": 624,
    "Ġpaths": 1492,
    "Ġmar": 3238,
    "Ġup": 613,
    "Ġacts": 1343,
    "\",": 2753,
    "Ġeliminating": 3305,
    "transformers": 2597,
    "ö": 183,
    "Ġstopping": 1695,
    "Ġnerves": 1592,
    "Ġent": 2564,
    "k": 79,
    "Ġrememb": 2437,
    "vari": 1010,
    "ductive": 3422,
    "50": 2702,
    "Ġmeaning": 934,
    "Ġallows": 1900,
    "der": 1260,
    "Ġcontro": 1050,
    "Ġsemantic": 1825,
    "nt": 608,
    "Ġlegal": 3476,
    "Ġproced": 1500,
    "und": 2301,
    "Ġparts": 3272,
    "qu": 371,
    "a": 69,
    "aliz": 681,
    "Ġeffect": 715,
    "fitting": 924,
    "Ġsyst": 618,
    "Ġwarm": 2113,
    "Ġlanguages": 974,
    "Ġ": 225,
    "amp": 787,
    "Ġmathematics": 3202,
    "Ġtransformers": 830,
    "imp": 458,
    "Ġimagenet": 3320,
    "Ġautomatically": 2610,
    "Ġscientific": 3449,
    "10": 3342,
    "Ġin": 285,
    "ă": 196,
    "ment": 2099,
    "N": 50,
    "tuning": 966,
    "Ġinjection": 1967,
    "Ġapproximates": 1414,
    "Ġdiscussing": 2445,
    "ws": 2401,
    "Ġpredicting": 1413,
    "Ġupdating": 1528,
    "Ġfeed": 1290,
    "Ġcontinual": 3438,
    "Ġbi": 582,
    "Ġstructural": 1611,
    "Ġprovides": 1167,
    "Ġgracefully": 3103,
    "tal": 2461,
    "Ġev": 1264,
    "ency": 2668,
    "Ġimplements": 1458,
    "ul": 347,
    "Ġste": 1813,
    "Ġpsy": 2771,
    "ters": 2111,
    "dates": 2243,
    "Ġsent": 1484,
    "lem": 627,
    "Ġrelevance": 2447,
    "ments": 2510,
    "Ġcontinuous": 970,
    "Ġalphabetical": 3214,
    "Ġa": 266,
    "atural": 1051,
    "Ġwidely": 3099,
    "Ġamo": 2525,
    "Ġreplacing": 1983,
    "Ġmodeling": 1244,
    "Ġabstract": 3319,
    "Ġmultimodal": 3280,
    "Ġnum": 946,
    "Ġbatch": 586,
    "vidual": 3046,
    "Ġnash": 2506,
    "ult": 587,
    "cum": 2599,
    "Ġquality": 2127,
    "Ġis": 351,
    "Ġnumerical": 2209,
    "Ġdiv": 1529,
    "Ġcompute": 1688,
    "Ġformal": 1844,
    "Ġman": 1237,
    "Ġus": 441,
    "Ġany": 1298,
    "Ġabilities": 3039,
    "Ġxavier": 1641,
    "Ġactiv": 556,
    ".": 18,
    "Ġsom": 2134,
    "Ġextreme": 1753,
    "Ġaccess": 2897,
    "é": 170,
    "Ġcombines": 2820,
    "¯": 112,
    "Ġdirect": 1126,
    "omp": 2084,
    "Ġcomputers": 1503,
    "ary": 2291,
    "Ġcompreh": 3123,
    "Ġassist": 2638,
    "'s": 1425,
    "activation": 1897,
    "el": 312,
    "Ġpromoting": 1871,
    "Ġbeco": 2174,
    "dient": 339,
    "Ġknown": 1526,
    "ep": 413,
    "Ġwhile": 475,
    "Ġaims": 3210,
    "Ġparameter": 869,
    "ir": 693,
    "Ġaddresses": 2129,
    "+": 15,
    "Ġstep": 530,
    "Ġfunctions": 851,
    "Ġreducing": 1183,
    "led": 814,
    "Ġleaky": 1404,
    "Ġsigmoid": 1435,
    "Ġgraceful": 3023,
    "onom": 2649,
    "Ġevenly": 2198,
    "olve": 1411,
    "Ġcompared": 1386,
    "based": 1722,
    "Ġfusion": 3395,
    "Ġiss": 1315,
    "ffers": 1745,
    "attention": 812,
    "Ġlong": 1465,
    "atib": 1710,
    "Ġadjus": 1865,
    "ules": 989,
    "Ġrand": 983,
    "fun": 2992,
    "ve": 506,
    "Ġapproxim": 772,
    "Ġconstitutes": 2965,
    "Ġextracting": 3087,
    "Ġtemperature": 644,
    "Ġinform": 691,
    "Ġsignificantly": 2322,
    "Ġdet": 406,
    "Ġarrange": 1875,
    "Ġtranslations": 2934,
    "2": 22,
    "rou": 445,
    "Ġfilter": 3302,
    "Ġundersampling": 3338,
    "iving": 2123,
    "Ġintelligences": 3104,
    "Ġinclu": 710,
    "Ġtreating": 2263,
    "mit": 2853,
    "Ġgenerating": 3038,
    "anish": 731,
    "roken": 3008,
    "Ġoper": 1363,
    "gan": 1477,
    "Ġpract": 1834,
    "anh": 2432,
    "Ġdecaying": 1297,
    "ribut": 553,
    "_": 67,
    "Ġgpt": 2251,
    "specific": 3110,
    "'t": 1837,
    "Ġbert": 2300,
    "ass": 596,
    "Ġ6": 3370,
    "ance": 446,
    "enc": 2315,
    "binary": 3486,
    "use": 2888,
    "Ġprocessing": 718,
    "Ġsugg": 3044,
    "Ġestimates": 2062,
    "Ġter": 1846,
    "Ġaid": 2864,
    "Ġoverwrites": 2428,
    "Ġupd": 615,
    "de": 452,
    "orical": 2077,
    "erior": 2002,
    "Ġsuperior": 2006,
    "reinforcement": 2576,
    "Ġint": 370,
    "ories": 3382,
    "Ġinformation": 692,
    "Ġorganically": 1776,
    "ric": 1013,
    "Ġcategorization": 2941,
    "Ġdest": 2404,
    "Ġaspect": 2234,
    "vature": 1998,
    "Ġmonitors": 1867,
    "Ġwhy": 2292,
    "ium": 3223,
    "Ġstruct": 694,
    "spec": 3064,
    "'m": 2644,
    "stochastic": 2066,
    "ĝ": 222,
    "Ġunit": 1129,
    "Ġfut": 2652,
    "exp": 1672,
    "Ġsequential": 1256,
    "Ġdoes": 795,
    "uiperai": 2746,
    "Ġdistinguish": 1698,
    "Ġcharacteristics": 3090,
    "Ġsize": 809,
    "ical": 453,
    "Ġsizes": 942,
    "raining": 383,
    "ĭ": 238,
    "endent": 2213,
    "Ġpulley": 1733,
    "Ġlabels": 1909,
    "ython": 653,
    "Ġengineering": 1793,
    "ink": 2549,
    "al": 272,
    "Ġinter": 535,
    "ocabular": 2373,
    "Ġuncer": 2382,
    "ased": 997,
    "olving": 1102,
    "ables": 3410,
    "Ġlegitimate": 3314,
    "ww": 2763,
    "ch": 311,
    "Ġdealing": 3258,
    "bject": 1229,
    "ependent": 2215,
    "Ġphysical": 2697,
    "Ġsgd": 1840,
    "Ġfan": 2034,
    "Ġhandle": 1926,
    "%": 9,
    "Ġupdates": 817,
    "entiating": 1953,
    "ropriate": 1295,
    "Ġsimulates": 1557,
    "linearity": 1012,
    "dimensional": 1359,
    "iform": 1338,
    "icult": 2677,
    "iness": 3193,
    "ors": 753,
    "rieval": 2724,
    "bpp": 3350,
    "Ġperforming": 2632,
    "now": 788,
    "Ġmag": 1061,
    "ired": 1406,
    "iple": 751,
    "Ġtuning": 1817,
    "Ġadaptive": 1863,
    "Ġsequ": 638,
    "Ġerror": 1104,
    "months": 3317,
    "Ġsh": 660,
    "Ġpopular": 3212,
    "========": 1316,
    "Ġdivergence": 1543,
    "oc": 1723,
    "Ġvi": 1081,
    "ĥ": 230,
    "¬": 110,
    "Ġuses": 782,
    "chitect": 734,
    "arsity": 2186,
    "j": 78,
    "Ġexploit": 1340,
    "Ġderivative": 1751,
    "ructed": 3043,
    "Ġlearn": 327,
    "liness": 3359,
    "Ġpatter": 767,
    "Ġconvers": 2783,
    "Ġosc": 1669,
    "ering": 1631,
    "Ġsum": 1028,
    "Ġpul": 1725,
    "Ġesc": 1959,
    "Ġc": 277,
    "Ġenc": 1174,
    "Ġrespons": 1574,
    "Ġsupp": 1790,
    "Ġmethods": 1918,
    "Ġhumaneval": 3439,
    "I": 45,
    "Ġcandidates": 2256,
    "Ġdistribut": 554,
    "®": 111,
    "orph": 1760,
    "vels": 3228,
    "Ġdetect": 1922,
    "Ġfluctuations": 2477,
    "bye": 2735,
    "vance": 3227,
    "Ġunstructured": 1755,
    "Ġfrequ": 2332,
    "orting": 1848,
    "----": 2485,
    "conditional": 3067,
    "Ġterm": 1449,
    "Ġglue": 3400,
    "Ġremove": 3332,
    "Ġflu": 2465,
    "Ġencodings": 2343,
    "Ġassumptions": 2478,
    "Ġvanish": 849,
    "vers": 1890,
    "ard": 783,
    "Ġvalidation": 1366,
    "Ġdialogue": 3495,
    "Ġunseen": 2109,
    "Ġcontextual": 2004,
    "ilib": 2165,
    "Ġdeeper": 1321,
    "Ġpredict": 754,
    "Ġcommon": 1058,
    "forward": 1325,
    "ving": 517,
    "Ġcatch": 2619,
    "Ġroot": 1694,
    "×": 152,
    "Ġof": 314,
    "Ġsimply": 3282,
    "ative": 639,
    "Ļ": 252,
    "Ġgener": 493,
    "Ġcompliance": 3213,
    "Ġadagrad": 1687,
    "Ġex": 322,
    "Ġthan": 1306,
    "Ġrelationships": 1704,
    "topic": 2830,
    "ations": 518,
    "ls": 726,
    "Ġbetween": 616,
    "Ġresources": 1765,
    "Ġmorphology": 1781,
    "Ġdra": 2403,
    "Ġtransformations": 1972,
    "ack": 757,
    "Ġsequentially": 2370,
    "know": 3113,
    "Ġhum": 964,
    "nth": 3361,
    "Ġinvol": 2187,
    "reh": 3115,
    "lev": 859,
    "Ġalan": 2790,
    "plex": 1638,
    "ences": 858,
    "Ġmappings": 1259,
    "Ġhyp": 2229,
    "cul": 2153,
    "Ġprogram": 3048,
    "Ġplus": 2110,
    "Ġprobabilities": 2441,
    "Ġbehavior": 3078,
    "Ġstates": 1162,
    "ctions": 696,
    "Ġresearch": 3191,
    "Ġnetwork": 361,
    "Ġoptimizers": 3283,
    "Ġacceler": 998,
    "regularization": 1984,
    "Ġexplicit": 2037,
    "Ġthousands": 3325,
    "ģ": 228,
    "Ġ99": 2861,
    "Ġmomentum": 982,
    "Ġdependency": 1973,
    "orm": 340,
    "^": 66,
    "Ġcontains": 1659,
    "blems": 2991,
    "Ġwell": 1282,
    "ag": 348,
    "Ġdocum": 2605,
    "tent": 3366,
    "4": 24,
    "regular": 1979,
    "Ġoptimizer": 2413,
    "Ġsquared": 873,
    "Ġdiscriminator": 1934,
    "Ġbrain": 1475,
    "1": 21,
    "Ġincorrect": 1551,
    "Ġmit": 841,
    "Ġdisco": 2216,
    "solving": 1833,
    "¦": 104,
    "Ġcal": 2086,
    "ethics": 2634,
    "Ġca": 847,
    "ateg": 1112,
    "Ġdim": 1899,
    "python": 2313,
    "cations": 2848,
    "ensive": 3192,
    "Ġ*": 905,
    "Ġdevices": 1769,
    "organic": 3493,
    "Ġperforms": 2913,
    "Ġtransmit": 2903,
    "orld": 2577,
    "Ġsch": 845,
    "lowed": 1372,
    "neural": 1802,
    "convolutional": 2383,
    "Ġdistribution": 1213,
    "Ġemail": 3307,
    "Ġgreedy": 1814,
    "ruct": 580,
    "edy": 1812,
    "Ġfin": 1135,
    "ochastic": 2063,
    "Ġdefinit": 3435,
    "arm": 2108,
    "upl": 2761,
    "ages": 793,
    "Ġdepth": 1489,
    "og": 900,
    "Ġpasses": 1559,
    "hav": 2524,
    "pret": 992,
    "msprop": 1497,
    "Ġlif": 2776,
    "Ġindependently": 2222,
    "ent": 287,
    "ro": 280,
    "ect": 333,
    "======": 2685,
    "coder": 2024,
    "Ġpipel": 3328,
    "dent": 2211,
    "Ġcorrected": 2813,
    "<EOS>": 2,
    "Ġtemporal": 1486,
    "est": 779,
    "Ġcan": 560,
    "Ġfeel": 2589,
    "Ġmean": 541,
    "Ġstandard": 3139,
    "Ġuntil": 3034,
    "Ġflow": 842,
    "courag": 796,
    "Ġmeas": 727,
    "Ġeffectively": 2021,
    "Ġparalle": 891,
    "Ġalgorithm": 673,
    "Ġyou": 854,
    "gressive": 1575,
    "ast": 646,
    "Č": 205,
    "den": 668,
    "Ġstill": 2885,
    "Ġmodel": 440,
    "Ġmaximizing": 1872,
    "ok": 2757,
    "Ġfairness": 2699,
    "](": 2847,
    "Ġrecurrent": 1093,
    "Ġsome": 2137,
    "q": 85,
    "Ġwriting": 2611,
    "Ġsums": 1717,
    "Ġfeature": 672,
    "Ġfeeding": 2924,
    "abular": 2365,
    "Ġachie": 1595,
    "Z": 62,
    "Ġsharing": 2045,
    "Ġsimplicity": 1721,
    "Ġonly": 1945,
    "ert": 2050,
    "come": 2901,
    "ip": 529,
    "off": 1509,
    "Ġcorrect": 1518,
    "Ġtre": 2155,
    "Ġlayers": 531,
    "Ġdisc": 951,
    "rection": 1409,
    "Ġcalls": 3072,
    "Ġsharp": 1966,
    "Ġlocal": 776,
    "<UNK>": 3,
    "classification": 2275,
    "Ġphrases": 1621,
    "twig": 3490,
    "Ġnoise": 704,
    "Ġexact": 2189,
    "Ġan": 301,
    "Ġmoder": 2115,
    "Ġnumbers": 1750,
    "Ġadvance": 3270,
    "machines": 2593,
    "Ġrossum": 1780,
    "ability": 485,
    "Ġdirections": 1241,
    "Ġnatural": 1090,
    "Ġeduc": 2541,
    "infor": 2538,
    "oregressive": 1944,
    "================================": 2488,
    "eriv": 1052,
    "Ġmonotonically": 2096,
    "itut": 2774,
    "Ġsymb": 1589,
    "cnns": 2023,
    "ussing": 2439,
    "{": 95,
    "sity": 2180,
    "Ġcore": 3251,
    "ory": 1442,
    "shot": 1925,
    "Ġcompact": 1336,
    ").": 844,
    "Ġprivacy": 3474,
    "Ġid": 1440,
    "Ġne": 355,
    "Ġedges": 2144,
    "Ġentities": 2955,
    "Ġhuman": 995,
    "Ġsyntax": 623,
    "Ġsoc": 2670,
    "precision": 2231,
    "Ġfiltering": 3483,
    "cross": 2138,
    "Ġdy": 1132,
    "Ġadaptation": 1862,
    "ri": 401,
    "Ġenhance": 3414,
    "ras": 1564,
    "cer": 2379,
    "Ġextraction": 2805,
    "gnit": 2293,
    "oriented": 1707,
    "nit": 971,
    "Ġhigh": 597,
    "È": 137,
    "Ġapproximate": 1348,
    "olates": 1855,
    "ou": 768,
    "Ġgradient": 343,
    "Ġdepths": 2341,
    "ine": 379,
    "Ġposition": 2339,
    "Ġprogressive": 2408,
    "Ġstructures": 1553,
    "des": 1031,
    "Ġtransform": 652,
    "Ġsubproblems": 3108,
    "Ġaids": 2969,
    "Ġrelating": 1591,
    "ab": 330,
    "per": 798,
    "Ġencourag": 898,
    "Ġalgorithms": 920,
    "K": 47,
    "Ġextremely": 1836,
    "ite": 1328,
    "Ġminimizes": 1224,
    "oy": 2664,
    "Ġconnect": 559,
    "Ġforward": 1549,
    "Ġoperations": 1367,
    "kl": 2353,
    "Ġraw": 1923,
    "Ġrecognition": 2388,
    "ility": 454,
    "ley": 1726,
    "ï": 176,
    "ural": 750,
    "ns": 567,
    "Ġcompare": 3262,
    "izing": 1198,
    "esting": 2769,
    "Ġindi": 3009,
    "ms": 426,
    "Ġproduce": 2454,
    "gorith": 521,
    "Ġother": 2523,
    "tell": 919,
    "Ġcontin": 954,
    "Ġsuch": 2580,
    "Ġadjusts": 2608,
    "oment": 875,
    "ľ": 255,
    "Ġarbitrary": 2348,
    "Ġdepend": 1434,
    "Ġdependenc": 1111,
    "Ġworks": 3076,
    "Ġadvanced": 3337,
    "Ġmodels": 724,
    "oor": 2312,
    "Ġexperience": 1057,
    "Ġprevious": 1521,
    "x": 92,
    "mb": 820,
    "Ġguido": 1774,
    "Ġfocused": 3203,
    "Ġsparsity": 2191,
    "variance": 1512,
    "co": 509,
    "ler": 611,
    "ationship": 1412,
    "Ġstore": 3024,
    "ý": 190,
    "Ġsof": 1022,
    "Ġinvolves": 2201,
    "Ġdampening": 1683,
    "Ġed": 2101,
    "0": 20,
    "ivalent": 2363,
    "Ġscores": 1705,
    "ergence": 1534,
    "Ĭ": 237,
    "è": 169,
    "Ġalong": 2278,
    "Ġrewards": 2834,
    "yth": 649,
    "Ġclassification": 747,
    "Q": 53,
    "Ġundesired": 2980,
    "low": 658,
    ")(": 1736,
    "io": 2393,
    "Ġsubset": 2658,
    "Ø": 153,
    "-": 17,
    "en": 265,
    "ma": 702,
    "Ġdictionaries": 3088,
    "Ġiter": 1701,
    "Ġpre": 382,
    "Ġexploding": 1252,
    "ctionaries": 3028,
    "Ġelastic": 2423,
    "xavier": 1635,
    "Ġgenerates": 2040,
    "txt": 2999,
    "Ġanne": 953,
    "Ġpredef": 3268,
    "of": 918,
    "sights": 2997,
    "Ġsummarization": 2032,
    "batch": 1200,
    "quiring": 1151,
    "cision": 2223,
    "Ġperplexity": 1654,
    "))": 925,
    "Ġdependencies": 1317,
    "istics": 3035,
    "Ġident": 1448,
    "Ġcollection": 2744,
    "Ġsmaller": 1182,
    "Ġ}": 3373,
    "mature": 2083,
    "Ġrevealing": 2164,
    "Ġdeactiv": 3259,
    "Ġregular": 711,
    "Ġdramatic": 2426,
    "Ġopt": 785,
    "Ġexecute": 2641,
    "Ġredundant": 3333,
    "erglue": 3451,
    "Ġdif": 676,
    "Ġspeed": 1823,
    "Ġmultiple": 756,
    "define": 935,
    "Ġrely": 3246,
    "recursion": 3075,
    "ructing": 1857,
    "Ġconversations": 2964,
    "ual": 773,
    "oder": 1430,
    "Ġaccount": 2289,
    "ameter": 2173,
    "Ġcre": 664,
    "Ġprojects": 2978,
    "Ġresponsible": 2814,
    "plication": 1657,
    "learning": 2220,
    "olved": 2791,
    "Ġ[": 2667,
    "Ġadapt": 1065,
    "ctuations": 2466,
    "sp": 1439,
    "requ": 1275,
    "Ę": 217,
    "Ġpositives": 2233,
    "Ġresidual": 1025,
    "Ġensures": 1804,
    "Ġcons": 1106,
    "backward": 1558,
    "Ġproduces": 1247,
    "Ġrevolutionized": 1927,
    "Ġbalan": 978,
    "Ġcontrols": 1060,
    "Ġprevent": 520,
    "Ġma": 396,
    "understand": 2624,
    "Ń": 260,
    "Ġproperties": 1861,
    "eled": 1470,
    "Ġevaluation": 3196,
    "Ġquery": 1446,
    "Ġgeometric": 1889,
    "Ġlanguag": 438,
    "Ġ1991": 1782,
    "Ġcapabilities": 2266,
    "ather": 2616,
    "Ġtechniques": 1651,
    "î": 175,
    "bal": 1301,
    "nific": 2311,
    "du": 491,
    "Ġcontrast": 1418,
    "nlp": 2601,
    "gress": 1493,
    "les": 1084,
    "ition": 2773,
    "Ġoptimization": 1251,
    "Ġchoice": 1387,
    "fore": 1545,
    "Ġconditions": 2958,
    "t": 88,
    "Ġbiological": 1164,
    "Ġrespect": 1353,
    "Ġtrans": 558,
    "ñ": 178,
    "ib": 1202,
    "ivers": 1311,
    "Ġsocietal": 2840,
    "bin": 3349,
    "Ġsup": 1960,
    "Ġnormaliz": 765,
    "Ġproduct": 2022,
    "uration": 1226,
    "Ë": 140,
    "uter": 1519,
    "Ġwhether": 2534,
    "Ġcreates": 1214,
    "Ġsufficient": 1344,
    "ancial": 3391,
    "ivity": 1280,
    "Ġnam": 2567,
    "Ġmedical": 3313,
    "kel": 2395,
    "direction": 1410,
    "Ġlog": 1107,
    "els": 1893,
    "Ġmetrics": 3312,
    "Ġpotential": 2031,
    "mmed": 2792,
    "ature": 450,
    "Ğ": 223,
    "Ġanal": 1488,
    "Ġyour": 3194,
    "imate": 2654,
    "im": 338,
    "sc": 1628,
    "Ġcomplex": 599,
    "Ġpur": 2298,
    "Ġpr": 3116,
    "Ġjacobians": 1677,
    "Ġfundamentals": 3200,
    "Ġinfrequent": 2087,
    "Ġvaluable": 2919,
    "telligence": 2514,
    "stream": 2067,
    "phras": 3199,
    "duces": 807,
    "Ġass": 2214,
    "Ġlist": 2716,
    "Ġvarious": 2630,
    "pose": 2295,
    "ly": 362,
    "æ": 167,
    "Ġlevel": 3254,
    "/`": 2989,
    "Ġlingu": 2873,
    "tect": 3367,
    "Ġglo": 1364,
    "Ġconcepts": 2288,
    "Ġenable": 1485,
    "ons": 1161,
    "ured": 1742,
    "Ġstrateg": 1114,
    "-------": 3310,
    "cy": 2011,
    "Ġtrains": 2947,
    "Ġtransformer": 1508,
    "Ġdetermined": 1716,
    "transformer": 3463,
    "Ç": 136,
    "ke": 713,
    "Ġhalts": 1852,
    "Ġmonit": 1845,
    "Ġask": 2914,
    "Ġ1000": 1904,
    "lp": 1637,
    "rib": 451,
    "image": 3257,
    "Ġirreduc": 2476,
    "Ġenvironmental": 3466,
    "Ġpenalty": 1123,
    "cess": 476,
    "Ġh": 328,
    "ential": 557,
    "Ġway": 2875,
    "Ġserv": 2356,
    ".,": 3141,
    "elp": 771,
    "Ġpredi": 522,
    "ub": 3155,
    "algorithms": 2596,
    "Ġoccurring": 1612,
    "lish": 1756,
    "Ġread": 1535,
    "imodal": 3176,
    "scratch": 3452,
    "gular": 1975,
    "Ġhandling": 2935,
    "rop": 417,
    "Ġadjust": 1958,
    "form": 403,
    "Ġtoget": 2012,
    "c": 71,
    "etical": 3170,
    "Ģ": 227,
    "¶": 119,
    "Ġnumber": 1323,
    "Ġlimits": 2009,
    "Ġaccurate": 3339,
    "Ġmoving": 1080,
    "Ġ2026": 2988,
    "Ġstart": 3256,
    "ues": 1271,
    "lever": 1727,
    "Ġlab": 1308,
    "datasets": 2928,
    "Ġreward": 2778,
    "yon": 1978,
    "oses": 2470,
    "(": 12,
    "Ġcharacter": 2983,
    "aps": 2817,
    "Ġalph": 3182,
    "unication": 1173,
    "Ġhardware": 2376,
    "Ġmon": 1304,
    "Ġlow": 1210,
    "Ġexcept": 3021,
    "atical": 1902,
    "cept": 478,
    "Ġoutput": 607,
    "ental": 1668,
    "Ġrepresentation": 3284,
    "content": 3428,
    "illations": 1679,
    "Ĺ": 250,
    "Ġunreliable": 2131,
    "Ġdecreas": 1015,
    "Ġarrangement": 1615,
    "Ġcompatibility": 1719,
    "Ġdivers": 3235,
    "Ġgoal": 2923,
    "time": 2583,
    "Ġidentity": 1491,
    "Ġmanual": 3294,
    "Ġpers": 2770,
    "vision": 2508,
    "ÿ": 192,
    "isual": 2494,
    "Ġcra": 2869,
    "Ġthis": 357,
    "Ġdata": 412,
    "Ġpenalties": 2804,
    "pre": 527,
    "Ġimproving": 769,
    "Ġcust": 3236,
    "lo": 1021,
    "true": 1640,
    "ops": 1649,
    "Ġqu": 1100,
    "Ġapplication": 1583,
    "Ġcomponents": 2626,
    "ss": 398,
    "====": 908,
    "nns": 1140,
    "Ġfaster": 1924,
    "thank": 3181,
    "oration": 1319,
    "Ġresemb": 2232,
    "Ġguid": 1230,
    "ge": 1001,
    "Ġrelated": 2446,
    "ton": 1977,
    "Ġdot": 2442,
    "Ġnavigation": 2749,
    "Ġconcept": 568,
    "ionized": 1919,
    "Ġprogrammed": 2800,
    "Ġfree": 2585,
    "Ġnumb": 1049,
    "Ġsquare": 1693,
    "Ġtest": 1303,
    "Ġlabel": 3296,
    "54": 3144,
    "testing": 3000,
    "Ġensemble": 987,
    "ank": 3168,
    "Ġsinusoid": 2342,
    "Ġgrou": 1246,
    "ression": 2217,
    "Ġsentences": 1542,
    "Ĩ": 233,
    "the": 536,
    "alth": 2566,
    "Ġmethod": 1309,
    "eck": 2663,
    "rue": 885,
    "======================================================================": 2701,
    "Ġsmall": 1000,
    "Ġfrequent": 2089,
    "Ġunreli": 2125,
    "Ġimmens": 2802,
    "Ġtransport": 2904,
    "xim": 631,
    "ropout": 833,
    "Ġmagnitudes": 2094,
    "Ġappropriate": 1299,
    "aswag": 3407,
    "Ġpractice": 2543,
    "fi": 2849,
    "Ġcomputer": 958,
    "Ġhier": 1156,
    "Ġdownstream": 2073,
    "Ġcomputes": 2337,
    "Ġgam": 2498,
    "Ġsimpler": 1239,
    "Ġcauses": 1530,
    "Ġanim": 1643,
    "search": 3201,
    "Ġkey": 1438,
    "------": 2949,
    "amples": 1122,
    "output": 2273,
    "Ġconstitut": 2811,
    "erm": 505,
    "ness": 2600,
    "ice": 860,
    "bu": 3348,
    "Ġviolates": 1864,
    "99": 1143,
    "į": 240,
    "therm": 741,
    "W": 59,
    "Ġgenerative": 2487,
    "ğ": 224,
    "anguag": 435,
    "ision": 1089,
    "ples": 3413,
    "Ġmult": 665,
    "te": 1428,
    "Ġact": 499,
    "Ġdom": 2431,
    "erature": 643,
    "Ġ1950": 2824,
    "Ġcalculus": 3460,
    "etymology": 3309,
    "'re": 2842,
    "Ġhumans": 2606,
    "Ġprompt": 1938,
    "med": 3360,
    "Ġpenalt": 1099,
    "Ġaffecting": 1377,
    "computer": 1522,
    "Ġadjusting": 1941,
    "Ġreference": 1623,
    "Ġsecond": 1747,
    "Ġpremature": 2090,
    "Ġslow": 2182,
    "Ġability": 1607,
    "Ġmeth": 1307,
    "o": 83,
    "Ġ12": 3437,
    "Ġaccumulation": 1554,
    "Ġrates": 881,
    "Ġcompatib": 1713,
    "Ġpathways": 2987,
    "Ĳ": 243,
    "bots": 2754,
    "Ġsociet": 2828,
    "cle": 3219,
    "Ġtranslation": 1830,
    "Ġdiscover": 3204,
    "goodbye": 2745,
    "Ġdocument": 3206,
    "Ġrich": 2065,
    "li": 1783,
    "Ġelements": 1600,
    "aco": 1144,
    "Ġsolve": 2297,
    "Ġpsychology": 2832,
    "Ġrate": 706,
    "acy": 3346,
    "aked": 1351,
    "Ġsense": 3453,
    "Ġmultiplication": 1681,
    "<MASK>": 4,
    "residual": 3303,
    "ised": 1464,
    "cond": 1573,
    "##": 1318,
    "total": 3323,
    "Ġdegradation": 1516,
    "Ĝ": 221,
    "Ġsamples": 1724,
    "can": 917,
    "Ġlike": 777,
    "Ġtheir": 1656,
    "Ġserves": 2374,
    "bit": 2323,
    "igh": 386,
    "celer": 996,
    "Ġedge": 3133,
    "ute": 2621,
    "old": 1163,
    "ational": 3169,
    "Ġequ": 1473,
    "Ġwith": 439,
    "Ġparaphrasing": 3510,
    "Ġth": 275,
    "Ġchatbots": 2799,
    "ks": 2224,
    "Ġlevels": 3255,
    "Ġdupl": 3386,
    "Ġcannot": 2500,
    "Ġallowing": 1291,
    "Ġaccountability": 2737,
    "ó": 180,
    "Ġperfect": 2499,
    "Ġscen": 3298,
    "Ġthese": 1074,
    "Ġagainst": 2475,
    "def": 923,
    "Ġclasses": 2160,
    "Ġsimp": 701,
    "Ġknow": 792,
    "Ġdynam": 2433,
    "chastic": 1332,
    "Ġacquiring": 1580,
    "Ġterms": 1868,
    "Ġassistant": 3207,
    "Ġweight": 682,
    "ience": 2490,
    "Ġexponentiating": 1954,
    "Ġparallel": 892,
    "Ġhave": 642,
    "Ġcreating": 1791,
    "Ġnormalization": 791,
    "59": 3343,
    "Ġday": 2867,
    "Ġaim": 3162,
    "pt": 391,
    "Ġsemant": 1181,
    "Ġmulti": 1634,
    "Ġ70": 2960,
    "itting": 2249,
    "Ġas": 695,
    "Ġprevention": 3189,
    "Ġmatch": 2713,
    "Ġfinancial": 3443,
    "ire": 483,
    "Ġrequires": 1703,
    "mental": 3153,
    "Ġintegration": 2694,
    "Ġdiff": 2631,
    "Ġdecreasing": 1427,
    "ht": 2850,
    "Ġinherent": 2331,
    "struct": 1743,
    "Ġfields": 1305,
    "Ġmask": 1155,
    "Ġsplitting": 2267,
    "Ġbackward": 3288,
    "Ġthem": 1128,
    "Ġcases": 2672,
    "Ġnas": 2495,
    "Ġlearns": 1501,
    "pp": 432,
    "get": 1392,
    "Ġcapt": 2028,
    "Ġnodes": 1187,
    "ople": 3057,
    "Ġels": 2880,
    "T": 56,
    "Ġassumpt": 2474,
    "Ġproviding": 866,
    "ward": 823,
    "Ġmeans": 495,
    "val": 1302,
    "chmar": 3120,
    "Ġmeasure": 2309,
    "odal": 3124,
    "Ġhealth": 2572,
    "Ġdiscourag": 1859,
    "otics": 2730,
    "Ġanytime": 2925,
    "ced": 1091,
    "context": 1946,
    "Ġtech": 1566,
    "Ġpredefined": 3336,
    "ith": 374,
    "ence": 349,
    "»": 124,
    "niqu": 1576,
    "ps": 2855,
    "ooth": 1738,
    "Ġgroups": 2060,
    "Ġformula": 1662,
    "Ġ>": 3371,
    "Ġrnns": 1395,
    "Ġequivalent": 2372,
    "Ġdecomposition": 2455,
    "Ġrob": 1835,
    "Ġenables": 481,
    "king": 1019,
    "Ġdebated": 2598,
    "Ġcondition": 3081,
    "Ġem": 2718,
    "Ġthose": 2865,
    "Ġrecal": 2227,
    "Ġclipping": 1424,
    "Ġreasoning": 1578,
    "Ġcrucial": 2748,
    "Ġmodular": 3036,
    "Ė": 215,
    "Ġstatist": 1017,
    "Ġtechniqu": 1577,
    "Ġoth": 2519,
    "ights": 2893,
    "´": 117,
    "Ġmagnitude": 1232,
    "Ġtesting": 3375,
    "Ġinto": 913,
    "enet": 3161,
    "Ä": 133,
    "for": 1266,
    "Ġmech": 929,
    "archical": 1159,
    "ight": 3183,
    "Ġpe": 1300,
    "õ": 182,
    "atics": 3160,
    "ć": 200,
    "eous": 2352,
    "--------": 3136,
    "cleanliness": 3480,
    "atast": 1987,
    "Ġpip": 3237,
    "otheses": 2259,
    "Ġspanish": 1764,
    "Ġref": 836,
    "tw": 3365,
    "ext": 816,
    "Ġsequences": 1068,
    "Ġinstability": 2103,
    "aract": 2871,
    "emb": 857,
    "M": 49,
    "gd": 1838,
    "ions": 411,
    "desc": 931,
    "rent": 1014,
    "unts": 2527,
    "ener": 480,
    "Ġaverag": 1103,
    "ful": 1262,
    "reli": 2122,
    "ari": 500,
    "require": 3379,
    "Ġcomputation": 625,
    "Ġinitialization": 800,
    "uperv": 1466,
    "Ġfe": 545,
    "ļ": 253,
    "Ġmapping": 1257,
    "Ġpruning": 3311,
    "ared": 709,
    "it": 282,
    "Ġcreative": 2728,
    "Ġsuperglue": 3458,
    "digms": 1799,
    "Ġremember": 2450,
    "Ġdiverse": 3326,
    "Ġcoverage": 2221,
    "Ġnetworks": 429,
    "Ĥ": 229,
    "Ġmechanisms": 963,
    "Ġtop": 2150,
    "Ġart": 2794,
    "iz": 315,
    "abilities": 1917,
    "sive": 2326,
    "atic": 2049,
    "Ġcomputational": 1002,
    "Ġexactly": 2203,
    "Ġsubpro": 3054,
    "sing": 2430,
    "represent": 3378,
    "Ġi": 2481,
    "Ġpatch": 1818,
    "Ġgrammatical": 3102,
    "parameter": 2176,
    "Ġw": 300,
    "Ġcreated": 1766,
    "Ġcon": 326,
    "Ġadvers": 2484,
    "agation": 926,
    "Ġsiz": 592,
    "Ġclassifies": 2916,
    "Ġnormalizing": 1108,
    "Ġris": 2680,
    "orre": 1005,
    "bi": 1145,
    "rad": 1563,
    "Ġminima": 1962,
    "onym": 3377,
    "Ġmis": 2248,
    "Ġundes": 2895,
    "Ġorganizations": 2957,
    "reas": 729,
    "aneous": 2360,
    "iating": 1951,
    "oving": 1079,
    "ier": 871,
    "Ġanalyzing": 3340,
    "em": 540,
    "Ġarc": 3418,
    "Ġrepresentations": 1139,
    "ccur": 758,
    "Ć": 199,
    "Ġaccumulates": 1675,
    "Ġdistill": 3188,
    "Ġirreducible": 2479,
    "arn": 325,
    "Ċ": 203,
    "s": 87,
    "ploy": 2678,
    "ym": 3369,
    "Ġparallelization": 1947,
    "port": 2856,
    "own": 2014,
    "fer": 542,
    "itimate": 3239,
    "Ġy": 802,
    "understanding": 2642,
    "Ġunlabeled": 2081,
    "Ġreal": 1255,
    "Ġenabl": 415,
    "Ġfield": 893,
    "||": 2355,
    "Ġlearning": 345,
    "Ġweigh": 455,
    "hood": 2392,
    "question": 2837,
    "gence": 574,
    "Ġresponsiveness": 1680,
    "Ġexp": 524,
    "Ġbroken": 3015,
    "vol": 2181,
    "Ġdat": 402,
    "Ġaudits": 3473,
    "Ġdue": 2359,
    "nam": 2294,
    "Ġenvironments": 3465,
    "Ġmaintainable": 3042,
    "Ġ(": 449,
    "ject": 937,
    "Ġvide": 2722,
    "https": 2966,
    "Ġwere": 2876,
    "matic": 2398,
    "Ġsoft": 1024,
    "Ġbehaviors": 2952,
    "Ġhighest": 2257,
    "Ġtransportation": 2982,
    "Ġdocuments": 2741,
    "mon": 3151,
    "Ē": 211,
    "Ġsequence": 1199,
    "Ġhist": 2013,
    "O": 51,
    "Ġcontaining": 1354,
    "J": 46,
    "ation": 292,
    "==": 617,
    "eom": 1882,
    "ď": 208,
    "hic": 1916,
    "Ġimpro": 679,
    "momentum": 2425,
    "ere": 808,
    "Ġreceptive": 961,
    "xed": 2354,
    "Ġbeyond": 1985,
    "Ġpara": 1788,
    "Ġincreas": 1166,
    "arios": 3423,
    "ientific": 3429,
    "izers": 3250,
    "Ġthat": 407,
    "Ġcare": 1711,
    "big": 3147,
    "Á": 130,
    "intelligence": 2515,
    "Ġblo": 1642,
    "Ġcorpora": 3497,
    "Ġsin": 1891,
    "Ġovers": 3242,
    "Ġbalances": 1352,
    "Ġaff": 1236,
    "cement": 2540,
    "Ġfake": 2505,
    "Ġapproximation": 1347,
    "Ġexpl": 367,
    "<SOS>": 1,
    "Ġt": 262,
    "coura": 794,
    "Ñ": 146,
    "Ġblueprin": 3097,
    "Ě": 219,
    "rin": 2758,
    "Ġbidirectional": 2068,
    "rete": 1436,
    "Ġnerv": 1119,
    "Ġprevented": 3276,
    "Ġranging": 2979,
    "pect": 2225,
    "ployment": 2700,
    "Ġrobots": 2816,
    "Ġstudy": 1495,
    "Ġstatistics": 1029,
    "Ġprogress": 2653,
    "Ġfine": 967,
    "Ġwel": 2874,
    "dam": 1708,
    "orrect": 1083,
    "Ġsub": 916,
    "mmar": 661,
    "od": 365,
    "arity": 870,
    "Ġsupports": 1810,
    "Ġsimil": 1824,
    "Ġsuffers": 1748,
    "Ġwhat": 1179,
    "Ġanalysis": 1514,
    "good": 2705,
    "ł": 259,
    "pred": 1645,
    "plain": 921,
    "recur": 2296,
    "Ġautomation": 3079,
    "gor": 511,
    "Ľ": 254,
    "ter": 837,
    "Ġembeddings": 2196,
    "Ġfunction": 416,
    "Ġcorrection": 2424,
    "Ġbenchmarks": 3140,
    "ely": 1006,
    "÷": 184,
    "Ġones": 2027,
    "fs": 3355,
    "Ġperception": 2796,
    "Ġreflected": 1887,
    "gmentation": 3150,
    "Ġsure": 3233,
    "¸": 121,
    "dund": 3221,
    "aluation": 3165,
    "ible": 2369,
    "resnet": 2152,
    "rum": 2276,
    "Ġmanagement": 3446,
    "Ġav": 3231,
    "lect": 1048,
    "Ġvery": 1444,
    "ety": 2872,
    "Ġwithin": 3126,
    "Ġext": 1153,
    "ication": 799,
    "Ġeng": 1186,
    "dits": 3353,
    "C": 39,
    "Ġfast": 1116,
    "Ġoutputs": 1673,
    "Ġcompression": 3263,
    "me": 1094,
    "Ġsqu": 749,
    "quire": 906,
    "ating": 468,
    "Ġworld": 2717,
    "Ġtheore": 1125,
    "Ġholds": 2835,
    "Ġscience": 2503,
    "osition": 968,
    "Ġword": 1096,
    "nected": 838,
    "Ġv": 360,
    "Ġunexpected": 3105,
    "eth": 1274,
    "Ġtheory": 2674,
    "Ġcate": 2170,
    "ck": 659,
    "à": 161,
    "bert": 2513,
    "init": 3374,
    "reasoning": 3431,
    "Ġut": 2327,
    "iet": 2756,
    "02": 2844,
    "Ġwhereas": 2281,
    "Ġai": 1785,
    "Ġaffect": 1240,
    "is": 289,
    "Ġmet": 3117,
    "Ġenvir": 2625,
    "pro": 2548,
    "Ġpart": 1369,
    "Ĕ": 213,
    "ion": 271,
    "A": 37,
    "Ġdetection": 2521,
    "Ġinputs": 550,
    "Ġcomprehensive": 3209,
    "Ġcoding": 2556,
    "ord": 707,
    "Ġschedule": 1373,
    "Ġstochastic": 1905,
    "Ī": 235,
    "Ġfur": 740,
    "hello": 2967,
    "À": 129,
    "Ġaccelerating": 999,
    "Ġac": 457,
    "Ġhow": 640,
    "Ġretrieval": 2743,
    "Ġlocations": 2896,
    "Ġobject": 1234,
    "Ġdecay": 650,
    "Ġph": 1478,
    "Ġ4": 3158,
    "uly": 2886,
    "ill": 1502,
    "ests": 2550,
    "Ġlay": 428,
    "ø": 185,
    "Ġcos": 1365,
    "ifies": 2587,
    "duce": 1980,
    "¹": 122,
    "Ġaudio": 3472,
    "Ġacquire": 1606,
    "general": 3134,
    "Ġaccumulating": 1555,
    "Ġitems": 3127,
    "ust": 1168,
    "requent": 1490,
    "machine": 2061,
    "U": 57,
    "by": 1487,
    "orpor": 3318,
    "oding": 883,
    "Ġdiffusion": 3464,
    "Ġrephrased": 3503,
    "Ġfocus": 2163,
    "edding": 1101,
    "abil": 1221,
    "Ġfir": 1632,
    "Ú": 155,
    "Ġnegative": 904,
    "Ġproblems": 1730,
    "Ġpractices": 3456,
    "Ġhessian": 2010,
    ">": 34,
    "Ġencoder": 2030,
    "mentation": 2937,
    "Ġthrou": 464,
    "©": 107,
    "Ġatt": 2017,
    "Ġsy": 431,
    "generative": 2238,
    "dl": 3352,
    "til": 2998,
    "Ġrephras": 3403,
    "Ġb": 297,
    "propagation": 928,
    "idirectional": 1942,
    "Ġbehav": 2528,
    "Ġdefault": 1806,
    "03": 3341,
    "/`)": 3091,
    "Ġimpact": 2727,
    "Ġagent": 2821,
    "Ġoversampling": 3330,
    "Ġer": 878,
    "ference": 1550,
    "Ġr": 378,
    "ĵ": 246,
    "Ġscaled": 1249,
    "ive": 395,
    "Ġminimum": 3434,
    "Ŀ": 256,
    "orts": 1798,
    "Ġsimplic": 1715,
    "Ġtypes": 2633,
    "ctive": 3241,
    "cales": 2410,
    "Ġformul": 1648,
    "Ġpreviously": 2305,
    "Ġdeployment": 2786,
    "Ġblu": 3013,
    "botics": 2755,
    "con": 637,
    "Ġspecial": 1322,
    "V": 58,
    "Ġprediction": 1731,
    "Ġ&": 2613,
    "Ġregul": 3426,
    "Ó": 148,
    "Ġjaco": 1148,
    "Ġfacial": 2738,
    "Ġsince": 2262,
    "Ġanswer": 2948,
    "Ġfi": 848,
    "Ġsystem": 1026,
    "Ġgradu": 2102,
    "egr": 2553,
    "Ă": 195,
    "\\": 64,
    "Ġprepro": 3416,
    "Ġforget": 1990,
    "Ġvideo": 3470,
    "Ġperson": 2831,
    "lab": 2075,
    "Ġreusability": 3083,
    "oit": 1327,
    "mens": 1292,
    "sion": 2995,
    "Ġneed": 3264,
    "Ġphys": 2636,
    "natural": 2562,
    "eses": 2247,
    "Â": 131,
    "ntax": 609,
    "Ġeffective": 797,
    "Ġranges": 1671,
    "usion": 3178,
    "Ġdeb": 2579,
    "Ġtries": 2747,
    "Þ": 159,
    "r": 86,
    "frequent": 2082,
    "trans": 2555,
    "valued": 1682,
    "Ġwaves": 2833,
    "Ġdominant": 2946,
    "Ġeven": 2136,
    "Ġtrain": 2451,
    "Ġmap": 1077,
    "Ġconvert": 3278,
    "Ġobjective": 2071,
    "Į": 239,
    "nect": 462,
    "udy": 1494,
    "Ġsigma": 947,
    "back": 1454,
    "Ġlibr": 3433,
    "istic": 2440,
    "Ā": 193,
    "Ġme": 336,
    "Ġbehavi": 2531,
    "Ġtargets": 2175,
    "Ġinitial": 533,
    "Ġgo": 1196,
    "Ġdial": 3385,
    "Ġaspects": 2242,
    "đ": 210,
    "Ġprinciples": 3499,
    "code": 3148,
    "Ġtry": 2629,
    "Ġfra": 3394,
    "Ġhold": 2784,
    "Ġstru": 2141,
    "idual": 1020,
    "alization": 487,
    "Ġ\"": 2511,
    "Ġprogramming": 752,
    "Ġadam": 1277,
    "°": 113,
    "/": 19,
    "Ġarchitecture": 861,
    "Ġunlab": 2079,
    "Ġsimultaneous": 2368,
    "you": 2860,
    "aling": 877,
    "uling": 1335,
    "help": 932,
    "Ġgans": 2497,
    "000": 1807,
    "Ġreusable": 3084,
    "\":": 2661,
    "Ġvideos": 2962,
    "Ġl": 299,
    "Ġadditional": 745,
    "Ġcomposition": 1034,
    "Ġvariants": 1086,
    "fter": 1950,
    "lements": 1067,
    "Ġdes": 2539,
    "ledge": 1009,
    "u": 89,
    "how": 2561,
    "ots": 2563,
    "Ġdescent": 722,
    "Ġwant": 933,
    "Ġcompli": 3179,
    "recurrent": 2387,
    "Ġdirectly": 1447,
    "ġ": 226,
    "directional": 1419,
    "icient": 721,
    "Ġlogits": 1956,
    "Ġinst": 938,
    "Ġcombine": 2282,
    "tps": 2857,
    "Ġderivatives": 1376,
    "Ġdz": 2330,
    "Ġbenchmar": 3135,
    "Ġmbpp": 3393,
    "Ġthresh": 1690,
    "Ġfinite": 1355,
    "Ġratio": 2417,
    "dit": 2582,
    "Ġfurthermore": 744,
    "ious": 1517,
    "ule": 789,
    "Ġbiases": 1401,
    "Ġchanges": 1371,
    "Ġhund": 2333,
    "ous": 654,
    "ath": 1457,
    "Ġcapture": 2056,
    "Ġexceeding": 1082,
    "are": 498,
    "Ġerrors": 1504,
    "tanh": 2436,
    "world": 3001,
    "ŀ": 257,
    "Ġzeros": 1914,
    "Ġmechanism": 3055,
    "Ġpolicy": 3498,
    "Ġstack": 3411,
    "Ġstatements": 2635,
    "Ġoccurs": 1133,
    "Ġcomputing": 1283,
    "Ġfails": 3011,
    "Ġnames": 2956,
    "ai": 1469,
    "mm": 420,
    "Ġcareful": 1718,
    "ne": 656,
    "Ġgeneralization": 634,
    "ad": 1218,
    "atter": 766,
    "ery": 1004,
    "¥": 103,
    "agating": 3260,
    "Ġuniform": 1342,
    "ang": 387,
    "Ġdimension": 1901,
    "Ġtime": 755,
    "D": 40,
    "Ġnod": 1178,
    "except": 3040,
    "ĸ": 249,
    "Ġsubsets": 1356,
    "Ġclear": 1866,
    "Ġoptimal": 1131,
    "Ġcode": 1055,
    "Ġcontextually": 2936,
    "efficient": 1663,
    "agrad": 1565,
    "valu": 1660,
    "organ": 3383,
    "oth": 1193,
    "ĠĠ": 2614,
    "Ġincluding": 1768,
    "Ġbiolog": 1158,
    "¾": 127,
    "eval": 2646,
    "able": 1066,
    "Ġsat": 1219,
    "Ġmitigates": 1805,
    "Ġfair": 2673,
    "Ġexamples": 1507,
    "Ġzero": 763,
    "Ġcomm": 761,
    "Ġarchitect": 737,
    "gradient": 1296,
    "second": 2815,
    "aset": 2781,
    "Ġfeedforward": 1326,
    "Ġtasks": 1088,
    "Ġ1": 914,
    "Ġtuples": 3094,
    "Ġpatches": 2261,
    "Ġgoverning": 1618,
    "Ġgraph": 2785,
    "onents": 2617,
    "astic": 1222,
    "ning": 1586,
    "ore": 469,
    "Ġneural": 447,
    "Ġshare": 1070,
    "Ġexceed": 943,
    "Ġphras": 1617,
    "Ġsto": 1212,
    "Ġeducation": 2545,
    "Ġexceptions": 3101,
    "Ġrepetition": 3085,
    "Ġfundam": 1714,
    "Ġactivations": 1539,
    "action": 3345,
    "Ġha": 573,
    "alse": 2618,
    "ech": 2645,
    "air": 2132,
    "g": 75,
    "Ġactual": 2151,
    "Ġmaintains": 1268,
    "\"": 6,
    "eld": 884,
    "Ġwhere": 815,
    "alt": 1095,
    "Ġits": 742,
    "pport": 3419,
    "Ġimportant": 2537,
    "Ġstruggle": 2145,
    "Ġprin": 3390,
    "7": 27,
    "Ġcosine": 1379,
    "ically": 680,
    "Ġmajority": 3269,
    "Ġfol": 1368,
    "X": 60,
    "pus": 2058,
    "databases": 1789,
    "Ġvehicles": 2750,
    "Ġacross": 950,
    "Ġhelp": 1453,
    "urce": 3018,
    "Ġeach": 723,
    "eech": 3354,
    "Ġhundreds": 2347,
    "mory": 1531,
    "Ġbug": 3014,
    "Ġaddress": 2052,
    "Ķ": 247,
    "Ġvectors": 1072,
    "Ġestim": 2057,
    "Å": 134,
    "quality": 2789,
    "uation": 3156,
    "Ġproper": 1003,
    "Ġdomains": 2522,
    "entrop": 699,
    "ities": 1828,
    "Ġcorpor": 3388,
    "learned": 3073,
    "Ġlic": 3243,
    "what": 510,
    "<": 32,
    "itial": 532,
    "rophic": 1991,
    "å": 166,
    "ases": 1601,
    "Ġconsisting": 2688,
    "moment": 2397,
    "kes": 2647,
    "ator": 1285,
    "Ġapproach": 1459,
    "Ġfa": 2406,
    "uable": 2858,
    "br": 3347,
    "rained": 2142,
    "Ġs": 270,
    "all": 2149,
    "Ġengine": 1189,
    "Ġintegr": 2557,
    "accuracy": 2742,
    "Ġderiv": 1053,
    "duc": 2230,
    "Ġcomput": 436,
    "Ġstate": 1276,
    "uations": 2400,
    "ves": 1784,
    "Ġre": 305,
    "Ġsubfield": 2986,
    "this": 3266,
    "icit": 2035,
    "Ġbeam": 1821,
    "proper": 3050,
    "Ġthough": 2078,
    "rain": 364,
    "Ġgrammars": 3047,
    "ript": 3271,
    "Ġsim": 865,
    "):": 3217,
    "Ġone": 2303,
    "lic": 1699,
    "ial": 346,
    "Ġpl": 2100,
    "ot": 872,
    "divers": 3405,
    "Ġdepen": 863,
    "Ġregularization": 882,
    "Ġanswering": 2659,
    "rows": 2405,
    "«": 109,
    "support": 3489,
    "Ġdon": 1878,
    "Ġleak": 1394,
    "Ġrobustness": 3457,
    "tificial": 563,
    "oning": 1546,
    "robotics": 2772,
    "Ġproximity": 1888,
    "ing": 267,
    "ĕ": 214,
    "ild": 3412,
    "oral": 1456,
    "ositories": 3425,
    "Ġused": 1913,
    "Ġinclude": 1147,
    "dataset": 3448,
    "Ġcross": 988,
    "ay": 384,
    "atives": 1375,
    "order": 1242,
    "Ġben": 2171,
    "Ġtra": 1505,
    "Ġag": 2287,
    "adagrad": 2687,
    "Ġsk": 764,
    "Ġaver": 856,
    "Ġparamet": 471,
    "Ġgive": 3244,
    "Ġminim": 834,
    "values": 2385,
    "Ġcont": 463,
    "likelihood": 2429,
    "Ġrandomly": 1154,
    "Ġdiscourage": 1873,
    "ur": 309,
    "Ġdis": 774,
    "Ġgre": 1389,
    "ification": 705,
    "out": 456,
    "Ġlikely": 2917,
    "ources": 1706,
    "Ġpath": 1463,
    "Ġ(`": 3037,
    "aries": 2899,
    "Ġarchitectures": 1674,
    "Ġhigher": 1194,
    "Ġpredicted": 1228,
    "ring": 1597,
    "ime": 739,
    "Ġsingle": 1207,
    "Ġfacts": 1626,
    "Ġoscillations": 1684,
    "id": 381,
    "Ġincreases": 2104,
    "Ġintroduce": 1982,
    "es": 273,
    "Ġvirtual": 2836,
    "ersion": 3175,
    "pping": 804,
    "Ġmatrices": 2391,
    "uag": 434,
    "Ġz": 666,
    "age": 1525,
    "Ġross": 1758,
    "Ġtyp": 720,
    "ativeness": 3376,
    "Ġab": 537,
    "embedding": 3287,
    "Ġrefers": 965,
    "Ġsimulation": 1556,
    "Ġevolve": 1775,
    "new": 1822,
    "Ġconst": 1443,
    "Ġlower": 2416,
    "Ġtheorem": 1324,
    "Ġunders": 3273,
    "Ġlook": 2793,
    "Ġexcessive": 2202,
    "Ġach": 1587,
    "Ġlearnable": 2140,
    "earch": 3149,
    "Ġtransl": 1658,
    "b": 70,
    "als": 2357,
    "Ġreg": 601,
    "inant": 2862,
    "itional": 733,
    "named": 2944,
    "6": 26,
    "ream": 2064,
    "Ġremo": 3247,
    "orter": 2329,
    "Ġare": 577,
    "Ġoptim": 786,
    "Ġtr": 551,
    "'d": 2841,
    "osed": 2795,
    "Ġspe": 775,
    "ead": 2148,
    "ending": 2033,
    "ħ": 232,
    "ü": 189,
    "Ġp": 278,
    "ails": 2628,
    "Ġcontent": 2682,
    "Ġde": 341,
    "Ġabout": 594,
    "Ġse": 470,
    "Ġcrashes": 3089,
    "oice": 1381,
    "ciples": 3487,
    "writ": 2402,
    "grammar": 2517,
    "ong": 976,
    "wh": 502,
    "Đ": 209,
    "Ġanimal": 1653,
    "tot": 3226,
    "Ġfinding": 2210,
    "Ġfeatures": 930,
    "Ġmagnitu": 1063,
    "ù": 186,
    "ample": 1803,
    "Ġfoc": 2156,
    "aw": 3146,
    "Ġrecur": 1008,
    "icates": 1841,
    "Ġimbalance": 3129,
    "Ġdifference": 977,
    "Ġrepresents": 2414,
    "Ġresembling": 2241,
    "Ġest": 2048,
    "Ġmimic": 1869,
    "her": 896,
    "**:": 2321,
    "us": 350,
    "pid": 1115,
    "ingu": 1599,
    "Ġquantization": 3291,
    "Ġself": 1310,
    "Ġbasic": 3461,
    "Ġn": 291,
    "Ġfind": 3131,
    "Ġpatterns": 770,
    "Ġindependent": 2219,
    "m": 81,
    "ĩ": 234,
    "Ġduplicates": 3496,
    "Ġadding": 1451,
    "Ġintellig": 3030,
    "vel": 2666,
    "Ĵ": 245,
    "Ġforcing": 1903,
    "l": 80,
    "alts": 1847,
    "Ġprevents": 1480,
    "if": 366,
    "Ġlaw": 3171,
    "Ġj": 1141,
    "ork": 353,
    "Ù": 154,
    "Ġenab": 405,
    "Ġincreasingly": 2657,
    "mely": 1832,
    "ity": 359,
    "Ġprobability": 719,
    "ulation": 2721,
    "Ġmed": 3118,
    "Ġconsiderations": 3462,
    "faction": 3357,
    "Ġproject": 2882,
    "Ġdef": 880,
    "Ġefficiently": 2607,
    "Ġdefinitions": 3509,
    "il": 334,
    "Ġaverages": 1415,
    "as": 320,
    "igation": 2719,
    "Ġcase": 3387,
    "Ġrel": 973,
    "ics": 806,
    "Ġminority": 3285,
    "le": 283,
    "Ġand": 307,
    "!": 5,
    "Ġfundamental": 1720,
    "Ġnervous": 1593,
    "Ġanyth": 2878,
    "iven": 1037,
    "Ġmanipulation": 2733,
    "Ġupdate": 1432,
    "|": 96,
    "ķ": 248,
    "Ġtrained": 2863,
    "anliness": 3392,
    "Ġfil": 2088,
    "Ġspecific": 1217,
    "S": 55,
    "Ġprev": 490,
    "Ġbasics": 2951,
    "Ġnorms": 2041,
    "isions": 2518,
    "Ġautom": 2536,
    "Ġimage": 2053,
    "Ġtupl": 3003,
    "enges": 3069,
    "Ġdistillation": 3215,
    "Ġ[\"": 3306,
    "ipping": 1423,
    "Ġemb": 1105,
    "uning": 826,
    "Ġefficient": 1097,
    "Ġar": 427,
    "Ġeigen": 2375,
    "Ġentropy": 1216,
    "Ġvocabulary": 2381,
    "Ġexcel": 2043,
    "ue": 886,
    "Ġextract": 2732,
    "care": 2560,
    "Ġe": 302,
    "\"]": 3216,
    "Ġsched": 846,
    "encies": 2344,
    "sent": 703,
    "Ġwhich": 1468,
    "Ġthank": 2927,
    "Ġsetback": 2806,
    "Ġscenarios": 3482,
    "ape": 1968,
    "Ġparadigms": 1809,
    "Ġdiscovers": 2284,
    "vid": 655,
    "day": 3220,
    "Ġannealing": 955,
    "ura": 725,
    "hip": 1408,
    "otonically": 2092,
    "knowledge": 3138,
    "Ġimp": 591,
    "ming": 2396,
    "Ġschedules": 1932,
    "Ġnew": 1243,
    "languag": 2457,
    "Ġsimul": 1098,
    "Ġfav": 1329,
    "Ġstandards": 3316,
    "Ġrest": 3401,
    "Ġsubfi": 2920,
    "Ġdatasets": 1390,
    "Ġstable": 1644,
    "Ġtok": 811,
    "gms": 1796,
    "Ġpreventing": 581,
    "=": 33,
    "00": 1192,
    "Ġbalancing": 1445,
    "Ġbehavioral": 2822,
    "ė": 216,
    "Ġseen": 2159,
    "Ġencoding": 1933,
    "Ġannotations": 3478,
    "umul": 828,
    "Ġdecoding": 1820,
    "Ġcreativ": 2909,
    "Ġmaintaining": 927,
    "ainst": 2468,
    "Ġtrees": 2938,
    "mo": 1038,
    "Ġsymbol": 1596,
    "Ġdesigned": 2826,
    "Ġafter": 1952,
    "Ġprotect": 3406,
    "Ġto": 304,
    "Ġsinusoidal": 2349,
    "Ġcomplexity": 1035,
    "Ġmitigating": 994,
    "ol": 397,
    "Ġvari": 585,
    "Ġpass": 1499,
    "P": 52,
    "ail": 442,
    "Ġrisks": 2829
  }
}